#version: 0.2 - Trained by `huggingface/tokenizers`
Ġ Ġ
ĠĠ ĠĠ
$ >
< $
ĠĠ Ġ
ĠĠĠĠ ĠĠĠ
s e
i n
r e
o n
ĠĠĠĠ ĠĠĠĠ
a t
e r
o r
) <$
Ġ t
s t
Ġ =
e n
se l
ĠĠĠĠ ĠĠĠĠĠĠĠ
sel f
: <$
Ġ i
a l
d e
Ġ a
m e
h e
a r
Ġ self
Ġ c
l e
i on
Ġ f
$> <$
Ġ re
Ġ p
t e
č Ċ
u r
a n
Ġ "
c t
r o
i t
, <$
c e
Ġ n
g e
Ġ in
u t
Ġ b
l o
in g
) :<$
Ġ s
u e
a me
a s
m p
Ġ e
Ġ #
Ġ o
Ġt he
Ġi f
ĠĠĠĠĠĠĠĠ ĠĠĠĠĠĠĠ
Ġ '
Ġ d
l i
at e
a d
de f
en t
Ġ w
f i
c o
p t
Ġ m
p e
ĠĠĠĠĠĠĠĠ ĠĠĠĠĠĠĠĠ
k e
ur n
t urn
o t
_ _
r a
r i
u n
Ġi s
on e
" "
Ġ (
u l
i d
Ġre turn
or t
ge t
Ġf or
. <$
i s
i l
v al
se r
c k
in t
Ġt o
N one
Ġ def
. _
e l
Ġa n
x t
c h
t h
n ame
at a
s s
o de
er s
st r
d i
l a
se t
mp ort
ro m
r or
u p
Ġ T
v e
ul t
y pe
en d
at ion
at h
) )<$
Ġ" ""
ke y
c on
Ġn ot
Ġ _
' ,
o d
Ġ h
e ct
s p
] <$
( "
= =
( )<$
t er
Ġan d
Ġ None
r y
i z
Ġo f
o l
Ġt h
a p
Ġc on
e d
val ue
( '
R e
q u
u m
as s
Ġ 1
Ġe x
p o
r ror
a b
Ġi mport
Ġ l
pt ion
E rror
Ġ -
f rom
t r
t o
b j
v er
Ġ""" <$
( )
p ut
al l
p ar
g s
e s
f or
it h
Ġ [
c l
i le
Ġ S
el d
Ġb e
Ġa s
ĠĠĠĠĠĠĠĠ ĠĠĠĠĠĠĠĠĠĠĠ
" ,
a m
( <$
" <$
Ġ I
p ath
v i
i me
Ġ 0
Ġ C
Ġ +
ser t
q ue
Ġ lo
i se
i g
e w
i p
ode l
a ge
Ġ %
Ġ *
Ġ or
an d
a ck
te xt
Ġ u
b u
Ġe l
ct ion
ab le
i st
Ġel se
a se
' <$
d ata
li st
Ġ de
Ġ v
que st
iz e
Ġ A
n t
# #
m at
Ġ :
m ent
' )<$
t ype
Ġ st
y te
Ġp ar
Ġc o
s ult
" )<$
Ġ= =
- -
0 0
Ġ r
m a
Ġ F
co de
Ġ str
h t
te d
Ġ {
Ġ ra
p ro
o ut
r ue
Ġ P
e x
u s
l y
Ġ D
Ġ `
Ġn ame
p er
Ġ se
o c
ĠĠĠĠĠĠĠĠ ĠĠĠĠ
ur l
e t
Ġt e
c he
he ad
o w
as sert
Ġ 2
Ġra ise
Ġ )<$
Ġd ata
st an
at tr
ap p
Ġ value
$> #
ar gs
) ,<$
Ġ g
l en
f o
p re
ers ion
Ġp ro
an g
in e
Ġ en
or d
bj ect
li b
Ġ me
h er
== ==
po int
a ult
m s
in it
i c
Ġ L
sp on
g er
al se
cl ass
Ġ __
i eld
fi le
t ri
A T
stan ce
u b
p y
Ġ key
Ġm a
. __
Ġw ith
spon se
Ġ get
r int
Ġd i
O R
fi g
se d
Ġth at
e xt
an ge
t a
re s
Ġex ce
o p
t p
Ġ M
o k
) ,
li c
S T
Ġ <
ĠĠĠĠĠĠĠĠĠĠĠĠĠĠĠĠ ĠĠĠĠĠĠĠĠĠĠĠĠĠĠĠĠ
ke t
h o
ad d
f f
a re
s ize
lo w
[ '
ip her
Ġt ry
m odel
Ġi t
Ġ O
Ġre sult
Ġ V
Ġ on
ar t
Ġw h
__ (
pe c
in d
Ġf rom
Ġl en
u re
s c
qu al
yte s
Ġ >
' ]
th od
m o
Ġc h
Ġ y
Ġf ile
k w
i te
Ġh as
Ġth is
E R
Ġ al
C on
en s
n ect
Ġexce pt
t ime
ang o
j ango
in stance
o ur
I n
er ror
u le
i ve
fi eld
i f
E qual
l ate
lo ck
' :
r on
i fi
val id
lo ad
F F
Ġ E
par am
Ġo ut
Ġp re
d er
u st
" ,<$
Ġ set
Ġ 3
O N
Ġ list
Ġw e
co m
Ġ un
al ue
Ġ U
at ch
re ad
o re
or y
t ent
c a
Ġp rint
E S
d ate
g th
assert Equal
o s
Ġ .
/ /
h a
vi ron
for mat
head ers
I N
end point
la b
th on
Ġ x
i mport
i al
d ing
la y
ra p
) .
ut il
di r
Ġ W
Ġa r
2 0
## ##
ig n
` `
kw args
Ġ Re
( ))<$
a ve
T rue
[ "
o m
Ġt ime
Ġo s
* *
re ct
K e
lo c
] )<$
str ing
M E
v ent
mp le
b ack
p ort
Ġ <$
ry pt
Ġte st
ĠT he
app end
er t
our ce
Ġis instance
in fo
i m
"" "<$
nect ion
Ġa re
ce ss
v ersion
Ke y
i es
Ġ B
ĠĠĠĠĠĠĠĠ Ġ
D E
n ew
Ġc ipher
' ,<$
Ġ H
w ord
od ule
Ġt ype
Ġo bject
Ġm odel
p p
k en
alue Error
re d
ĠT rue
ss age
Ġ* *
il l
in put
li f
h is
re ate
ĠI f
Ġ` `
= '
Ġ N
Ġre quest
ut h
ĠĠĠĠĠĠĠĠ ĠĠĠĠĠĠĠĠĠĠĠĠĠĠĠ
mp late
l it
Ġstr ing
Ġf ield
} <$
Ġdef ault
A D
il d
R E
] ,
Ġu se
co l
re nt
an s
Ġs up
lab el
for m
Ġ G
ption s
re quest
j o
i v
Ġp ath
o bj
ri te
t y
Ġd o
m b
e c
di ct
m ap
at us
i r
at or
Ġb y
it y
y s
ar y
ht tp
x y
un d
Ġlo g
1 2
te st
ĠT his
ĠF alse
a ce
e st
a ct
" :
E n
-- --
Ġn ew
Ġe lif
m in
jo in
ss ion
um ent
Ġ at
f e
Ġr ange
==== ====
un c
ow n
de x
[ :
: //
it ion
a c
ĠĠĠĠ Ġ
Ġc l
Ġc an
Ġin t
st ate
x FF
F alse
un t
Ġw ill
de d
st e
ul d
th er
bu te
= "
Ġb u
b o
ur rent
. .
b ase
mo ve
a g
Ġs o
ĠV alueError
qu i
l ine
r ame
tri bute
sc ri
E N
Ġ le
0 1
t ing
" ]
util s
Ġ |
I D
lo g
b ytes
d a
l at
up date
ation s
en ce
E x
s ing
Ġout put
l l
sp lit
head er
( ):<$
p en
d d
ĠI n
Ġ- >
od y
: `
Ġ j
oc ket
T ype
m l
y thon
re g
! =
p r
ge st
c ket
Ġ k
S S
b er
Ġre s
Ġme thod
n ode
Ġp ass
Ġ[ ]<$
on ce
ce ption
Ġf il
ate d
ption al
ter n
Ġ he
Ġn ode
o ol
he ck
co ding
Ġd jango
ra in
Ġ 4
c rypt
ar n
def ault
un ction
" .
ro up
ch ar
Ġd ist
E T
F OR
s g
w a
re am
Ġco mp
or m
Ġlo c
Ġ !=
re f
iz er
3 2
A L
Ġ R
st art
A R
Ġas sert
li ent
t ers
Ġ url
Ġe xt
g ument
t tp
Ġ error
te ger
l in
w rite
Ġ all
N ame
ĉ ĉ
co mp
re sponse
con fig
M AT
n um
bu g
' )
Ġb yte
ar d
Ġre sponse
ma x
' t
u ser
er y
ig ht
O AD
p la
as k
Ġv ersion
ro ot
par se
me thod
T T
h as
it er
" ):<$
Ġ> >
o g
Ġ( '
ut ion
all y
vi ew
a il
Ġn um
n ot
up le
en code
ĠL OAD
FOR MAT
T H
en er
Ġn o
y n
out put
ra y
Ġwh ile
Ġhas attr
Ġ+ =
o und
TT P
Ġpar am
con text
ĠĠĠĠĠĠĠĠĠĠĠĠ ĠĠ
1 0
P ro
i b
w ith
Ġh ttp
o u
cl u
re sult
Ġu ser
Ġb ytes
Ġma x
Ġs pec
Ġm ust
Ġin put
ifi c
Ġ( <$
u al
int er
o bject
u se
â ĸ
fi x
len gth
Ġe vent
en viron
ar i
is p
param s
Ġ>> >
ion al
Ġn e
Ġs ho
ser ver
Ġa pp
m odule
1 6
Ġs h
re n
Ġb ack
ce s
Ġ \
a x
] ,<$
f t
an t
O DE
n s
re ss
r c
Ġc ol
o te
Ġen viron
re e
Ġcon fig
T R
Ġo ther
Ġch ar
F ile
#### ####
back end
Ġsho uld
c ert
d o
() .
ma in
s on
di rect
to ken
s o
qu ery
S t
at tern
ro w
di gest
' s
m and
in al
Ġt r
te m
pre ssion
or k
ar k
co re
s a
Ġc a
s h
se s
ri v
rap h
5 0
Ġh ave
ack age
i e
Ġ 6
Ġ headers
D ata
P ar
b e
m it
v el
" )
t ry
Ġ @
" :<$
H A
L E
i o
or ted
ar get
Ġp o
if y
arn ing
st atus
Ġc reate
5 6
S I
pec ted
u ct
e p
ð Ł
at ure
me ssage
O D
Ġsup er
SS L
i x
Ġfor mat
Ġ{ <$
f unc
de bug
ting s
( [
c s
m d
ĠĠĠĠ ĠĠ
st ri
vi ce
Ġtime out
g or
Ġ 8
riv ate
w e
Ġa ct
t in
op en
i ch
co unt
ĠC on
ul l
con tent
sp ace
le ment
Re quest
are nt
() ,<$
Ġf unction
Ġl in
Ġ la
u mp
ta g
o id
en ame
F A
Ġc urrent
Ġb ut
Ġs ys
. """<$
T E
T I
D e
n d
Ġa c
wa it
Ġ /
a uth
a y
Ġl ine
er r
ra w
ha pe
ir st
ame ters
A N
a k
Ġa dd
t rain
sel ect
ri al
con nection
pla ce
0 2
` <$
fi l
id get
tr ing
Ġu sed
Ġst art
Ġ 5
Ġc heck
Ġlog ger
ĠĠĠĠĠĠĠĠĠĠĠĠ Ġ
po s
Ġan y
ho st
ens ion
Ġparam s
' :<$
lo at
Ġ[ <$
clu de
le ase
field s
ar ray
it s
Ġb lock
lo b
b a
Ġto ken
and l
L O
st all
st ream
qu ence
ta in
http s
py thon
Ġlen gth
s ource
on g
ĠA ES
' .
c lo
Ġ one
F ield
m ode
w are
ut o
ms g
Ġwh ich
o pt
type s
loc al
U L
t s
Ġc all
and le
Ġme ssage
yn c
Ġ endpoint
ðŁ Į
a v
Ġf irst
] .
d b
Ġs ize
Ġfil ename
) ):<$
Ġm atch
Ġ header
te mplate
Ġo bj
id d
ff er
l p
Ġte xt
Ġon ly
Ġco m
ub lic
lay er
3 0
b ody
Ġpar ser
A C
Ġp y
gor ith
Ġ valid
Ġs u
ke d
' ),<$
v id
che ck
Ġar gs
c ur
f ind
in dex
Ġcon nection
D A
b lock
g n
Ġ z
ise s
ens or
ĠE x
En d
p rint
per ty
Ġi d
to col
ĠRe turn
c all
Ġdo es
Ġte mplate
gorith m
P O
R a
t ro
G et
s ub
Ġ 7
Ġ kwargs
Ġcl ass
b ution
d oc
n el
Ġb ase
Ġs p
Ġs ub
Ġdi rect
Ġ" <$
Ġw he
own load
Ġ ):<$
Ġre ad
Ġcon tent
qui re
T est
Ġn once
Ġi ter
Ġ{ }
iv en
i ct
u te
y ste
le d
Ġp os
Ġn p
ĠP ython
mp ty
con d
ĠS e
======== ========
C h
L ist
Ġm odule
ss l
reg ional
) )
O M
Ġs ource
ction s
low er
' ]<$
U n
j ect
{ }
en se
Ġd ate
ca che
D AT
p s
Ġback end
url lib
Ġo pen
p i
p ass
s ocket
Ġ Q
mat ch
Ġpro xy
fil ter
End point
12 8
ari able
A n
s u
ĠĠĠĠĠĠĠĠ ĠĠ
Ġ( "
ol ve
en c
ĠH TTP
' ):<$
d jango
f rame
Ġpar se
ite ms
Ġ }<$
ut f
a mple
B u
Ġa wait
Ġh o
lay ers
a in
g ht
or ch
Ġ li
Ġ ver
() ,
Ġlo ad
---- ----
model s
Ġal low
Ġnum ber
re ak
le te
pe d
a ke
yste m
c lient
or g
set attr
Ġ1 0
v ar
Ġc al
Ġdi ct
6 4
s ign
Ġi tem
di st
ht ml
Ġy ou
S tring
f fi
Ġ 9
ĠW e
Ġar gument
scri ption
name s
ok up
orm al
Ġp er
se nt
Ġc ode
assert Ra
assertRa ises
a ch
o ptions
re sp
ind ow
Ġtr ans
O P
Ġ server
Ġc ase
Ġin it
Ġin stance
n e
Ġf rame
Ġcon text
Re sponse
S E
n o
te mp
is s
pro xy
ĠO ptional
p attern
in ed
1 1
n once
t tribute
Ġst ate
Ġst atus
andl er
S er
g roup
Ġb reak
Ġvalue s
) :
S e
get Endpoint
F I
g ment
o f
t v
tr ans
' ))<$
D I
Ġ ent
R L
Ġen coding
ite m
Ġ ]<$
a st
ct x
Ġ- -
Ġ Y
Ġ' '
Ġma ke
ifi er
L I
Ġg iven
Ġma y
c ipher
Ġ val
en crypt
Ġa b
Ġin ter
c le
c urrent
Ġ Key
in text
tin ue
S A
Ġa uth
or s
de code
m od
Ġa v
c re
Ġb ody
ĠĠĠĠĠĠĠĠĠĠĠĠĠĠĠĠ ĠĠĠĠĠĠĠĠĠ
cl s
able d
fo re
Ġm od
t able
ib le
s with
Ġ up
Ġin dex
fi len
bu ffer
Ġext ra
vid er
= [
lic ation
50 9
Ġ )
k ens
Ġt uple
co py
Ġlo ck
Ġcl s
has h
ific ate
U N
g ing
p orted
w sg
Ġc ert
che me
m an
Ġ attr
un k
Ġex pression
Ex ception
' \
R I
Ġw rap
Ġcon tinue
ĠU n
IN G
o x
Ġex pected
lat form
N ot
o us
um n
filen ame
s hape
Ġs ign
id th
pro cess
log ger
i de
Ġ end
set tings
Ġwh en
Ġy ield
W idget
f ace
re q
idd le
9 8
n al
r ange
$> @
Ġu sing
P o
r un
y p
} ,
Ġt ag
Ġs ocket
Ġfile s
mb da
D ict
l d
Ġact ual
4 0
E L
tri b
ifi ed
e vent
Ġsup port
Ġhe re
2 2
A ME
q l
ad min
Ġat tribute
5 5
t on
Ġt arget
ar g
Ġre q
Ġm ore
ri bution
Re turn
bu ild
Ġpar t
ig r
Ġca che
clo se
2 56
C ON
[ -
u i
Ġm o
id x
ĠI t
gn ore
s ave
ol s
value s
Ġget attr
C o
Ġs ame
) .<$
3 8
i code
ĠT ype
iz ation
ver t
fe ren
] )
v is
Ġ label
Ġc t
', '
Ġ< =
" ]<$
M ap
j son
m ory
on ly
Ġn ext
ĠĠĠĠĠĠĠĠĠĠĠĠĠĠĠĠ ĠĠĠĠĠĠĠĠĠĠĠ
Ġ{ }<$
Ġfield s
f ter
m v
Ġo ver
Ġo ptions
Ġ' %
and om
scri pt
S et
ar ch
Re sult
par t
pass word
" ),<$
] :<$
b y
Ġt v
en o
ext ra
Ġnode s
o ff
Ġ err
Ġp ython
Ġse e
Ch ar
re turn
Ġhttp s
quire ment
U T
Ġm ult
ex ce
Con fig
p lo
Ġre g
Ġp la
ge x
iddle ware
F or
iz ed
Ġ1 00
ĠType Error
) ))<$
1 7
I T
M ODE
P E
Ġd oc
ri ght
Ġreturn ed
qu ote
pe ct
0 3
9 6
p c
u age
Ġf ound
Ġo per
ad ata
Ġm ode
pro tocol
$># <$
ang uage
ok ie
ME TH
METH OD
( (
c reate
w ork
at ing
Ġf ind
ist er
Ġg ener
Ġ> =
Ġdirect ory
b atch
} )<$
Ġt orch
ad er
Ġm in
Ġ[ '
stan t
TI ON
Ġ &
Ġp ort
Ġd is
p ly
en coding
ame ter
= {
it le
Ġv ariable
lin es
Ġ' '<$
Ġth an
a ger
at ive
Ġinit ial
i ck
k ip
w ise
w rap
Ġi gnore
Ġre move
Ġb ool
lo ss
Ġo pt
( _
C B
ist s
Ġr un
ĠĠĠĠĠĠĠĠĠĠĠĠĠĠĠĠ ĠĠĠĠĠĠĠĠĠĠĠĠ
stri p
er o
Ġt f
P I
b yte
c i
m on
Ġ root
ur ation
Ġcon tain
Ġwhe re
9 9
Ġp as
Ġd er
Ġname s
mple ment
og raph
A B
al s
Ġre t
tri es
ok en
Ġpass word
S H
p k
as on
Ġw as
ction ary
start swith
âĸ Ī
p a
Re g
Ġhe lp
ograph y
B ox
G E
Ġp ackage
Ġth en
** **
> `<$
c md
n ext
le an
Ġre sp
Ġcon st
ed it
par ser
ca use
we ight
Ġla st
Bu cket
c ted
Ġ query
$> )<$
la gs
ST R
d it
} ".
Ġt ra
key s
Ġne ed
4 8
7 7
M P
V alueError
e val
s ol
s pec
an nel
it ies
Ġm sg
bu cket
Ġse rial
file s
Ġenviron ment
T ime
] [
c cess
p ackage
Ġin teger
ot al
Con tent
Ġun der
######## ########
Ġp arent
1 8
Ġ X
str uct
add ing
UL T
DA V
t ra
ä ¸
as ses
Ġcon n
Ġbu cket
isp lay
5 7
f er
ĠD e
ĠD jango
OR T
K E
I O
L S
O ptional
m ask
y per
ar gument
le vel
un ter
po ch
time out
.. .
Ġso me
FA ULT
b id
d ent
in stall
an ce
Ġs c
bo se
Ġchar act
C H
c ry
n own
Ġa d
Ġc or
Ġc ur
Ġw ork
Ġ1 2
lin k
Ġargument s
A pp
i as
p rivate
re place
re lease
ust om
lab le
m ark
p end
Ġ select
Ġa ction
le ss
mp z
00 00
ex pr
lib r
rypt ography
PO ST
r ate
ol y
ma il
pre fix
" ))<$
f low
t en
Ġin clude
Ġs y
fi r
di m
are d
read y
tro l
H e
c ent
ĠT est
Ġbe cause
ic al
ĠU RL
ĠEx ception
H TTP
L en
w w
w in
con st
ĠF or
feren ce
r l
ge d
Ġch ange
Ġj son
ail able
1 4
3 6
a ction
c or
de st
Ġa x
Ġw in
(' \
Ġex p
. "<$
N AME
at che
er as
Ġin to
po p
pro perty
" \
L A
N O
f loat
Ġ' .
ĠP ar
ĠSe e
4 6
] ]
r s
en v
Ġo ption
Ġw rite
ot her
con trib
loc ation
Ġbu ild
environ ment
C T
Ġfor m
th read
ĠS HA
lic y
$> """<$
Ġf loat
la st
Ġco py
A S
P ath
b in
g lob
me ta
ut ton
Ġm an
Ġg lob
Ġfil ter
ension s
1 5
d is
Ġc ryptography
Ġre qui
ool s
o me
â Ķ
de v
Ġp l
as ync
Ġe ach
Ġmodel s
C E
c ord
p arent
re move
st at
ver se
Con nection
open ssl
T oken
ent ic
pro ject
lic it
ï ¼
le ct
pre c
op s
AL L
Ġcom mand
off set
T ER
m ult
p h
s y
t il
u sed
$> __
Ġt yp
Ġ' <$
3 7
M odel
S HA
T o
t arget
ol d
ip le
Ġ2 00
; <$
C K
` .<$
f ail
g o
s um
t adata
in k
ter m
Ġ1 6
Ġde l
Ġ\ <$
< /
b ot
h andle
l ation
m en
T Y
r f
ĠA r
nt ax
ma ke
In fo
`` .<$
ste ad
G ET
m iss
p ri
Ġ J
Ġt able
Ġi m
Ġf in
te ms
Ġd one
Ġpro vi
ĠIn teger
ttribute Error
ĠKey Error
G I
d f
id ate
ex ception
`` ,
M e
S U
c ase
g r
Ġt er
Ġw ant
di fi
ord er
add ress
In teger
Ġlin k
call back
Ġpla intext
A l
o ss
p age
w idth
Ġ q
Ġ ro
ce pt
Ġd ownload
con n
Ġor der
Ġde st
res olve
Ġcomp at
comp ile
âĸ ĳ
f ul
g ra
u pt
Ġen um
Ġtest s
8 0
A ction
O bject
U S
ap i
app ing
Ġg roup
ta il
miss ion
Ġto kens
lic ense
Con text
dir s
mb ed
isp atch
O S
g g
n er
de sc
as h
Ġh andle
ver y
ex p
Ġpro b
He ader
e mplate
ç ļ
Ġ row
Ġre al
Ġin stead
data set
ĠP ro
ĠĠĠĠĠĠĠĠĠĠĠĠĠĠĠĠĠĠĠĠĠĠĠĠĠĠĠĠĠĠĠĠ ĠĠĠĠĠĠĠĠĠĠĠ
çļ Ħ
A r
C S
O L
O r
n ing
Ġ view
de scription
Ġa uto
def ined
late d
Reg ional
T ext
r an
vi ous
Ġse quence
app lication
ĠM ODE
Ġch r
da y
Ġloc ation
Ġ layer
al low
Ġp ri
Ġs ave
Ġe lement
ĠĠĠĠĠĠĠĠĠĠĠĠĠĠĠĠ ĠĠĠĠĠ
la g
up load
ma c
Ġse nd
Ġal so
Ġobject s
ĠCon fig
Ġho st
l ass
} ,<$
Ġa ss
he s
Ġp latform
ur i
ch ild
Ġex pr
Ġpar ameter
Ġse nt
che ma
DE FAULT
Ġstring s
bo x
A X
K ms
T he
k ms
Ġ util
at tribute
Ġp attern
Ġthe re
Ġof f
Ġor ig
Ġdata set
tro ll
C om
E lement
c at
h s
n ormal
s or
s ite
Ġreturn s
Ġlo okup
and idate
20 16
Ġj ust
ĠReturn s
D ER
M L
al id
Ġc lient
Ġd on
id av
code d
Ġte mp
init ial
Ġdi ctionary
res sed
Ġpre fix
Ġerror s
DAT E
Ġtyp ing
) .__
I ME
R O
s d
s l
w ard
Ġt ake
Ġi mplement
ra int
ol low
ĠC o
Ġset tings
Par ser
troll er
H andler
P AT
g h
u int
u res
Ġf unc
ate g
Ġm ark
ĠS et
Ġst ream
oc ab
Ġexce ption
Ġcipher text
An y
exce ptions
cry ption
a uto
o o
t ree
ser ve
Ġse par
Ġdi gest
ff e
Ġal ready
ĠN ot
Ġle vel
Ġav ailable
i ce
s ql
y le
Ġn on
par ameters
ĠS T
ĠA ttributeError
ex pression
Ġli ke
fir st
H E
Q U
U ser
d ump
se quence
Ġb ot
is sing
ĠĠĠĠĠĠĠĠĠĠĠĠĠĠĠĠĠĠĠĠĠĠĠĠĠĠĠĠĠĠĠĠ ĠĠĠĠĠĠĠĠ
im izer
FA ST
ĠQ t
atche s
âĸĳ âĸĳ
C ol
C TR
R pc
t itle
z ip
å ı
il er
Ġpar sed
Ġsh ow
Ġdate time
getEndpoint Map
getEndpoint Regional
Rpc Request
1 30
O F
d u
f ault
de lete
Ġs a
ent ry
Ġse cond
Ġpro cess
ĠL ist
ok ies
'] )<$
3 4
F ound
_ |
d ownload
e ature
f r
r it
t he
st d
he x
Ġre direct
Ġre place
ra gment
con nect
ver ify
cl asses
Ġco okie
ĠP y
ext end
================ ================
wsg idav
T uple
p ublic
he d
Ġex ist
ex ec
Ġbu f
Len gth
1 9
2 4
E dit
on t
st op
Ġ" \
pt r
ĠĠĠĠĠĠĠĠĠĠĠĠĠĠĠĠ ĠĠĠĠĠĠĠĠĠĠĠĠĠĠĠ
up ported
Ġdi r
Ġdist ribution
Ser ver
( *
1 00
2 6
n n
t ies
$> :
re ction
Ġe mpty
ĠA n
AT E
Ġ. .
Ġrequest s
pen SSL
doc s
Q L
f unction
al led
me mory
Ġc lo
as ic
to p
es c
Ġst ri
In valid
Ġar g
mbed ding
( {
n et
er nel
ing le
Ġ' \
ol l
ith ub
Ġv is
ition al
St ate
sh ow
Ġfin ally
C heck
G roup
R C
t xt
re direct
Ġt rain
Ġin fo
ith er
In ter
reg ister
St art
sa fe
% (
M D
\ <$
g in
o per
p ted
z one
de vice
ri pt
id s
Ġbe en
ĠD er
pre d
Ġy our
pos ition
libr ary
o uld
s cheme
Ġt mp
__ (<$
po st
for ms
ĠD ist
Ġit s
com mand
ET IME
âĸĪ âĸĪ
130 5
7 6
e ded
Ġt a
Ġ" {
Ġv ar
che d
assert True
Ġ. ..
M ON
a ded
b ers
s ure
s ha
w d
Ġ layers
me d
le ction
Ġf inal
Ġp ool
Ġo ld
ch ain
Ġdata base
form ation
ĠG et
DA Y
Ġpython com
) ]<$
b ar
g ithub
p l
Ġde scription
ex ists
col or
Ġspec ified
Ġcol or
Ġla mbda
package s
. ")<$
C ha
V ER
w h
Ġ' /
ch ange
fo o
ĠĠĠĠĠĠĠĠĠĠĠĠĠĠĠĠĠĠĠĠĠĠĠĠĠĠĠĠĠĠĠĠ ĠĠĠĠĠĠĠĠĠĠĠĠĠĠĠĠ
assertEqual s
EN T
num ber
Ġpas sed
V alue
b its
i pe
Ġ update
Ġt ensor
de crypt
ch o
Ġlog ging
Data set
MON TH
5 8
l ong
å Ī
al gorithm
Ġ" .
pt h
id ent
Ġu int
Ġhas h
Ġal gorithm
act ory
ac y
Ġpo int
Ġallow ed
plo t
+ =
c c
e b
i ew
s ys
s ide
w o
Ġ ì
an not
Ġn ormal
Ġwith out
inter nal
Ġenum er
7 2
f ull
s core
x ies
Ġt otal
ce back
ent ial
Ġw ould
ul ar
set default
Ġex ec
bu f
Ġpre vious
Ġdoes n
Ġho ok
1 3
> `
n ow
v en
re ply
Ġi tems
de red
Ġa fter
Ġp rivate
Ġin stall
Ġb atch
di v
Ġde pend
et ch
Par ameters
Ġwrap ped
B A
C ert
N o
Q u
g ener
m t
Ġ K
Ġ ë
Ġp ip
Ġthe m
la mbda
for ce
Ġbe fore
Ġkey word
OR E
ite space
Ġx ml
-------- --------
P ID
V ersion
d p
u me
w arning
Ġthe y
ĠS ec
Ġch ild
ay load
UL L
Ġsp lit
wsg i
SH ORT
difi ed
" ])<$
0 4
> <$
a u
d t
t f
w arn
er nal
Ġf ull
Ġre n
Ġs sl
Ġe val
co der
um ns
ile d
ĠĠĠĠĠĠĠĠĠĠĠĠĠĠĠĠĠĠĠĠĠĠĠĠĠĠĠĠĠĠĠĠ ĠĠ
Ġres olve
igr ations
KE Y
ffe rent
) ),<$
0 8
5 2
S L
Ġ ke
Ġp adding
to ols
Ġ[ "
ĠC ALL
ER R
ĠN O
col umn
Ġle ft
Ġloc al
ie ce
Par se
DAT ETIME
memory view
A d
I ter
j a
re r
Ġp ublic
Ġ' ,
ate s
Ġw ord
ĠS o
ex c
lin eno
isp id
Ġlin es
A ttribute
C F
V iew
c ca
f n
n p
~ ~
Ġ ),<$
se rial
Ġre f
ur al
Ġo b
Ġ' __
ra g
Ġex c
ist ory
res ource
scri be
Ġav oid
âĶ Ī
attribute s
" ).
H T
S ec
â Ģ
$> _
Ġp t
() ))<$
ĠS t
Ġbe t
Ġlo w
and ard
us h
ĠM o
ign ore
direct ory
cca k
F C
I tem
L o
O K
T ag
f inal
r ans
Ġs ingle
mp l
li ke
per ties
ĠN ote
Ġdo main
ator s
encode d
Ġevent s
ft ware
auth or
opt s
Ġrequi red
B utton
g ine
i que
p ared
se nd
st alled
lo okup
li ce
con f
ĠĠĠĠĠĠĠĠĠĠĠĠĠĠĠĠĠĠĠĠĠĠĠĠĠĠĠĠĠĠĠĠ ĠĠĠĠĠĠĠĠĠĠĠĠĠĠ
error s
OD O
Ġprovi ded
) [
C OM
c rc
e poch
g ui
s ig
s rc
an k
ro und
ab el
ĠA pp
ĠRe quest
Pro ber
TI ME
Ġcal led
indow s
tail s
. ')<$
C lass
i mple
at ures
Ġb fr
__ ,
get text
Ġco unt
ĠD ata
Ġname space
rypt o
pla intext
man ager
ERR OR
6 6
B ack
M AC
Ġ utils
se ssion
in ce
Ġf ollow
Ġ" %
Ġ# :
Ġw arning
th ing
od ing
Ġst op
Ġpro perty
act ive
move s
do main
Ġac cess
' +
I L
L og
N T
Z E
e mbedding
in valid
or age
li m
li mit
ĠT ODO
Key word
Ġz ip
Po inter
sd k
Ġvis it
3 9
I mport
p ack
in ja
il ity
ch annel
ve ct
tri cs
add r
mple te
im age
input s
comp ressed
Ġent ry
ĠConfig File
Ġenumer ate
0 7
S GI
] ))<$
` ,
g ress
Ġ" "<$
es ca
ĠC om
ic ense
Ġma c
ĠU se
im um
ĠG ener
Ġbyte array
Ġlin eno
Ġcal lable
Ġoff set
B ase
I S
P y
c al
d type
re tries
Ġi mp
Ġs hape
Ġs cheme
ul ate
Ġex ample
Ġl ong
pro vider
ff ff
ĠO ther
object s
Ġcreate d
Ġvalid ation
iss ue
Ġmult iple
Ġsepar ate
c li
t ensor
ut able
Ġs ystem
Ġlo ss
Ġde vice
Ġr andom
AT TR
[: ,
Ġother wise
idd en
stant i
8 6
: }
C reate
W arning
` .
d uct
ì Ŀ
Ġ license
al p
ri d
un ct
un ked
Ġfor bid
il ter
di stri
to kens
ĠD E
Ġ2 0
Ġdi fferent
Ġch unk
ec ted
ste p
module s
Ġver bose
pa ir
weight s
ĠPar se
ĠAr gs
esca pe
E X
M iddleware
O ut
r t
s ystem
u ally
z y
it ive
Ġe ither
ent ities
Ġ% (
Ġse ssion
dir name
node s
sg i
Ġax is
men ted
A dd
D ate
m iddleware
ur ity
Ġs orted
Ġs kip
Ġd own
__ <$
is ion
Ġ[ [
Ġas ync
ex pected
'] ,
label s
request s
cert s
host name
Ġsu ccess
cle ar
rf c
N ULL
P oly
T ensor
l anguage
re qui
le ep
Ġn ow
Ġo ur
co okies
Ġm ap
il tin
ic ally
ho ok
Ġexp licit
( ?
* -
U P
b w
e mpty
r iter
t ask
x ml
è ¯
Ġin formation
Ġs um
Ġ# <$
Ġ' _
Ġd isplay
Ġm ask
sp h
ĠĠĠĠĠĠĠĠĠĠĠĠĠĠĠĠĠĠĠĠĠĠĠĠĠĠĠĠĠĠĠĠ ĠĠĠĠĠ
Pro vider
SI ZE
Ġadd ress
Ġpos ition
byte array
S ET
U p
a iled
g ers
i y
} )
Ġ right
re al
al y
Ġc ustom
Ġf ail
Ġs rc
ra se
up port
Ġ- *-
ĠC heck
ĠC OM
IN TER
Type Error
message s
Ġcharact er
Ġreal m
Ġorig inal
A V
\ \
h en
i ces
o ption
z mat
á ´
Ġa g
Ġp k
Ġin te
Ġin stanti
po ol
Ġstr uct
Ġg o
Ġresult s
ha zmat
Ġsup ported
vis it
Ġerr SSL
For mat
Time out
Ġcharact ers
Ġcor rect
2 3
4 9
F O
G R
N I
P re
e lement
j ar
z e
$> ]<$
at er
ro p
to k
us b
Ġse gment
Ġen coded
Ġconfig uration
Ġz ero
prec ated
ĠOther wise
C TION
U rl
e ar
f lat
k nown
s pect
al t
de c
de s
Ġn et
Ġin string
ser vice
ve d
() .__
Ġco unter
Ġ< <
Ġcan not
Widget s
ci i
Ġter m
' ),
3 5
I P
I dent
S ON
m ary
Ġa p
Ġc types
li ed
que ue
Ġde tails
ment s
Ġst at
Ġr ule
ive s
ĠB ase
tern al
Ġne eded
we en
Ġ'' '<$
Ġvariable s
distri bution
= (
? <$
D R
V alid
i mp
s m
st yle
Ġ" /
el l
di a
up per
ĠI mport
ĠC reate
Ġde bug
ĠF ile
Ġme mory
ext ensions
date time
Ġle t
mark er
ï¼ Į
Al gorithm
ateg ory
rit ten
E D
E xt
] ):<$
] ]<$
o se
o ot
s ort
re l
Ġre quirement
Ġb in
lo t
sp ath
Re gex
Ġde lete
Ġ{ '
Ġname d
app s
ĠO penSSL
ure d
loc s
ax is
template s
ww w
PAT H
. *
= _
M ore
S D
d ition
m y
s b
s kip
t mp
t uple
v ing
Ġre tries
Ġre ason
Ġp ipe
Ġin di
ri day
un icode
Ġpar ameters
us ing
et a
res h
valid ate
Ġspec ial
frame work
igr ation
AB LE
Ġbet ween
sph rase
C R
E E
a fter
c ard
f y
r type
ë ĭ
re pr
Ġt wo
Ġe very
ad ing
ul us
ol der
ĠV ersion
der r
Ġ3 2
mple mented
wa ys
yn am
Ġsh ort
Ġpo ss
SI ON
AC K
Ġiter able
cre t
Ġattribute s
**** ****
Or More
Ġtensor flow
iy un
9 7
T his
b L
d ence
f etch
o b
v o
Ġ },<$
me tadata
ion s
Ġre lease
Ġb its
po licy
ĠS tring
ĠC ha
ig h
Ġv oid
ĠO S
sc re
ĠN ame
Ġ| =
ari ant
so ck
Ġsign ature
Ġlabel s
" {
: %
A ll
L IN
N um
O n
O pen
a e
d isplay
t ick
Ġt ri
Ġc oding
le m
el se
Ġan not
po w
ver bose
Ġbe st
Ġpro ject
ĠE n
red ential
Ġdist ri
ðŁĮ ķ
Ġmatch ing
Ġsp ace
38 4
ome try
mult i
sy mb
L e
L ine
P os
a it
b c
g t
g en
h ot
i str
p ing
p oll
v ocab
w he
re try
st ore
le s
Ġn n
is instance
Ġth read
ĠI P
ĠA l
mb er
move d
ĠR SA
Ġurl lib
Ġsh are
enc y
Ġinter face
Ġimplement ation
Ġbot h
ĠQt Widgets
( **
4 5
A uth
K CS
P T
a es
i ent
Ġ qu
se arch
in clude
ut ure
Ġs ure
ad io
ke ccak
Ġdef ined
Ġh p
ĠC h
ĠD AV
Ġset attr
Ġres ource
ib ility
Ġcol umn
django project
ci ent
Ġsy ntax
TY PE
ĠST ORE
sdk core
iyun sdkcore
5 9
5 12
: ]<$
= %
A G
W h
e gg
s leep
ä »
de l
he ll
Ġp e
Ġp ick
Ġd b
ĠĠĠĠĠĠĠĠĠĠĠĠĠĠĠĠ ĠĠĠĠ
ch ine
Re f
Ġde code
Ġra w
Ġma in
backend s
TE D
cur s
Ġauth entic
Ġremove d
sol ution
Ġwarning s
( __
V E
f riday
p latform
r upt
se q
in sert
or ary
Ġf n
Ġn est
pe m
di fy
Ġcon vert
ĠP re
Ġen v
Ġmethod s
enc ies
Ġcert ificate
Ġsa fe
Cert ificate
5 1
E nt
S y
S ub
f fix
t orch
u ate
v ers
å Ĳ
Ġ ê
Ġe ven
co pe
Ġ{ "
Ġg ot
pre sent
load er
Ġpre sent
bo ol
Ex pr
ĠR un
Ġspec ific
be fore
stat ic
Ident ifier
( -
) ;<$
2 00
I C
S ign
e k
f in
h andler
l ang
n orm
Ġ lib
Ġre try
Ġe p
Ġm ight
ch unk
(" \
tr ue
bu ted
sc a
comp at
we b
local host
Ġsc ript
Ġta gs
ĠSec urity
C ipher
M odule
P ython
e ed
h p
t ar
â ķ
æ ķ
$> \
le ctions
Ġf ix
ce ll
Ġin valid
set up
ĠT emplate
ĠS SL
Ġde scribe
Ġme tadata
tri al
ext ernal
mo te
Con st
wa y
ĠEx ample
Ġver ify
Ġad min
' '<$
A P
A RE
I G
N N
O bj
U M
d ispid
f p
u d
u id
Ġ âĢ
or ig
le ft
Ġ" _
Ġm igrations
ol ution
Ġcon nect
Ġ1 7
per mission
oc i
'] ,<$
FF FF
// //
Ġdist utils
iter able
LO CK
Ġid x
Ġpas sphrase
glob s
Ġman y
D esc
E F
H ash
Q t
] *
x a
} .
ã Ģ
æ ĸ
Ġ ge
Ġ kw
re set
en abled
ro u
Ġb ound
lo op
Ġe poch
Ġm atches
con tain
ver sed
ĠD ES
attr s
ic s
Ġun icode
test s
ag raph
ns upported
ump y
clo sed
CON ST
Ġgener ate
oo lean
Ġag ain
5 4
C C
S pec
T emplate
c f
f lags
o ptional
r ule
Ġ quote
on ent
he ight
Ġc rc
Ġc lean
Ġre st
Ġre ference
Ġre verse
Ġre lated
te ct
Ġb o
as cii
co me
un it
la zy
ĠC F
ĠA PI
Ġst d
ĠP E
ĠP O
Ġpro tocol
class method
lay out
ĠW indows
col umns
bo ard
ĠIn valid
Ġblock s
Ġcall back
Ġli mit
22 4
const raint
Ġpl t
du ce
Ġposs ible
" ],
) -
W indow
b est
o ted
ð Ŀ
re st
er ify
st derr
ar ies
Ġn orm
ĠĠĠĠĠĠĠĠĠĠĠĠĠĠĠĠ ĠĠĠĠĠĠĠĠĠĠĠĠĠĠĠĠĠĠĠ
ch unked
Ġcon trol
Ġ[ ]
path s
data base
Ġst ack
ex port
Ġen sure
mo unt
Ġpre d
ĠW hen
Ġdefault s
EN D
CB C
Ġcur sor
gra m
Ġhook s
ynam ic
æķ °
. "
0 6
2 1
3 1
B lock
C P
C lient
F ilter
g raph
p are
in string
re gex
ro y
Ġs core
Ġs ql
Ġthe se
fi dence
Ġm ime
Ġ+ <$
Ġg r
'] .
Ġhas hes
valid ation
Ġun less
Ġar ch
ĠN o
ument ation
Ġcomp iler
user name
parse String
Ġpo st
opt imizer
ffi cient
Ġover ri
Ġglob al
Ġke ep
ĠMo ved
Ġinstanti ating
rou gh
8 8
B U
E vent
F orm
P ass
P ublic
T rans
f actory
g ative
n g
p ayload
v oid
se cond
Ġt ask
Ġs ix
pt er
__ ()<$
ra ct
Ġfor ce
ĠL icense
Ġset up
Ġun til
viron ment
Ġso ck
char s
block s
sign ed
Ser ial
Not Found
STR ING
################ ################
upt ools
Ad min
vect ors
unct ools
Ġdistri buted
, '
: :<$
F rame
G MP
I I
M AX
P RO
R ST
b io
g acy
m ar
p ump
æ ľ
in di
Ġc ho
an y
Ġin clu
il y
ype s
con struct
Ġex ists
ĠI S
pro p
point s
ub le
mo dified
Ġal iyunsdkcore
import er
20 4
Ġtype s
act or
lat ive
iter al
pi pe
Ġextra ct
ĠInteger GMP
change d
oci ated
: \
S P
S tr
c ustom
e red
f ragment
h ow
l r
s ue
å ¤
Ġ è
in el
re spon
Ġc li
Ġp age
Ġ* _
Ġpar sing
Ġpro gress
Ġma chine
Ġdi m
ta gs
mo st
Ġpre pared
im al
Ġbu ffer
"] ,<$
Ġac cept
sign ature
Ġmo dify
Ġmult i
PE M
Ġim age
ĠDist ribution
agraph s
C U
C a
D O
S ER
W eb
b l
b it
c nt
k eras
m ath
s age
w idget
Ġ join
se c
se ction
re lated
st ack
me th
Ġre ply
Ġ" __
Ġs ample
Ġo p
Ġo w
Ġis sue
ch r
ch at
ab ly
Ġl ang
vi de
Ġlo op
Ġpro p
Ġen cryption
im ation
Ġk ernel
Ġversion s
cs v
su do
Ġwrap per
process ing
Ġcontain ing
Ġ12 8
callback s
Ġtake s
ĠAn y
ĠCom mand
ĠImport Error
' ).
: ]
A t
C ODE
D is
E AR
d s
f l
r pc
in ation
Ġt ree
Ġre present
Ġp a
ro po
la p
bu iltin
Ġr v
Ġse arch
pre ss
'] =
Ġar ray
inter face
Ġne cess
rivate Key
Ġexpression s
Po int
wrap per
Ġcontain s
gr ad
DER EF
Ġpick le
ropo ut
- %
. '<$
C ase
E AX
M IN
a a
c m
e e
f ree
g mp
r andom
t otal
Ġ ],<$
se ns
al ias
de rer
Ġp lat
ĠĠĠĠĠĠĠĠĠĠĠĠĠĠĠĠ ĠĠĠĠĠĠĠĠ
ri ver
name space
and func
ĠA dd
Ġst ep
oc ation
ĠU ser
vent ory
Ġext ensions
ib r
ific ation
sa Obj
cond ition
UN CTION
extra ct
sol ute
Me ssage
Valid ator
scre en
8 1
9 0
E ST
G ener
I mplemented
P RE
] +
_ ,
i con
n a
o ver
p lat
s upport
x A
re po
Ġt b
Ġc md
Ġf ragment
Ġf ailed
Ġin stalled
Ġw idth
ĠĠĠĠĠĠĠĠĠĠĠĠĠĠĠĠ ĠĠĠĠĠĠĠĠĠĠĠĠĠĠ
__ .__
ĠI mp
Ġlo ok
Ġpar ts
ĠD ict
Ġ` .
pre ter
Ġkey s
Ġwith in
Ġexce ptions
ĠM e
ĠĠĠĠĠĠĠĠĠĠĠĠĠĠĠĠĠĠĠĠĠĠĠĠĠĠĠĠĠĠĠĠ Ġ
ĠO n
ME NT
iv ation
main ing
sa mple
Ġsu ch
Ġwhe ther
Ġload er
cle an
pk cs
ĠNot Implemented
Inter face
ĠSo ftware
Ġpipe line
ãĢ Ĥ
: -
B LOCK
C O
F R
I f
d ot
e mail
h istory
p at
y ear
re quirement
or ies
Ġ= <$
ro t
Ġs ort
Ġw ait
"" "
Ġ_ ,
Ġcon stant
Ġor d
Ġen crypt
ĠM ake
ff ect
Ġal ways
In te
In put
if t
import Key
lif y
Ġpath s
write line
train ing
Ġcheck s
Ġconnection s
Un less
Ġopt s
NO T
Ġsent ence
Sy ntax
/ #
F eature
L abel
T O
W ith
b asic
g i
h yper
n ull
p adding
s i
s w
t z
å Ĭ
re verse
at io
Ġt ar
al e
ur lo
Ġ" ,
Ġo ptional
ĠĠĠĠĠĠĠĠĠĠĠĠĠĠĠĠ Ġ
ĠĠĠĠĠĠĠĠĠĠĠĠĠĠĠĠ ĠĠ
Ġcon s
Ġ2 55
Ġme ans
ĠM ode
ĠO ne
Ġle ast
"] :<$
og le
Ġ{} ".
ĠUn ion
Ġsupport s
Ġoper ator
Ġquery set
ĠDe fault
cor ator
dest roy
CF B
âĶĪ âĶĪ
Ġfollow ing
istr y
urlo pen
A ES
I d
W EE
_ (
c u
f oc
j or
} ")<$
Ġ library
re t
en u
Ġre ce
ct r
Ġs im
Ġw ay
co unter
ath er
Re ason
Ġl ar
for bid
ĠC rypto
Ġst ill
pro xies
Ġme trics
Ġget text
ext ension
In dex
Ġpre di
com mon
tent ion
ca y
ES S
cert ificate
De fault
ðŁĮ ĳ
Ġopt imizer
edit or
Ġglob als
Ġpl ural
Token izer
ĠCha Cha
WEE K
C al
C LS
D o
F lags
F UNCTION
N ode
a BA
f it
h ers
k ernel
o st
p u
} "<$
å ®
Ġc andidate
le t
Ġf lag
Ġre cord
Ġp iece
Ġs ince
Ġw idget
Ġw ritten
is hed
Ġto o
str u
ation Error
con troller
Ġth rough
Ġcon ver
ab spath
() )
cl us
ĠI N
mat ically
00 0
pro duct
ex e
assert False
OR D
time Error
Ġwe ight
Ġcol lections
enc ry
man y
Ġattr s
exce pt
Ġoper ations
Ġcor respon
Ġrequi res
HE AD
. ",<$
/ ')<$
A M
F ore
S ize
d own
l per
x or
at t
at map
Ġf ig
Ġb it
co res
Ġm ath
un ique
Re ad
ab c
able s
ist ered
Ġco mplete
pro perties
12 3
log ging
ren der
LO W
Se quence
cipher text
Ġct x
Ġoper ation
ĠJ SON
ran et
allow ed
initial izer
full name
CR Y
builtin s
" >
1 01
E CB
H Box
R oot
S QL
b utton
c d
t c
x fe
å º
è ¿
en ded
Ġa ut
Ġre pr
Ġo c
Ġm i
Ġm y
un er
sp an
(' %
ĠS m
ex it
ĠM ax
time zone
ĠU nsupported
ca st
ĠW SGI
Ġat temp
fe atures
base name
Ġle ading
log in
Ġinput s
so le
Ġtr ust
AN G
Response s
script s
Ġrun ning
til ities
exp and
âĸĳâĸĳ âĸĳâĸĳ
Ġlow er
ĠâĢ ¢
aBA SS
) "
M o
U RL
a ctions
h ref
s ync
s chema
Ġ sel
Ġ utf
Ġt rue
Ġ" --
ĠĠĠĠĠĠĠĠĠĠĠĠĠĠĠĠ ĠĠĠĠĠĠ
ri ve
ri es
Ġis n
Ġcon fidence
par a
Ġst andard
Ġco mb
Ġpro xies
file obj
tri c
ĠO r
ES E
Ġuse ful
Ġspec ify
Ġpo licy
ĠUn icode
req s
term ine
Ġdir name
Ġnormal ize
Ġren der
'+ '
Ġlet ter
ĠMoved Attribute
Inte gers
foc used
" ),
' .<$
7 8
I nt
P AR
r as
s k
Ġ Z
Ġ head
Ġt rial
ue ue
Ġe dit
li te
ad a
ent er
ĠĠĠĠĠĠĠĠĠĠĠĠĠĠĠĠ ĠĠĠĠĠĠĠĠĠĠĠĠĠ
il a
con vert
Ġde c
ex pi
ĠL o
ĠE xt
Ġ3 0
ĠW ord
ĠR FC
Name s
ĉĉ ĉĉ
result s
Ġauth or
Ġmo st
Ġdis able
Ġelement s
Ġass ociated
oper ation
ĠString IO
( %
7 5
G HT
H el
I ON
I ID
M OD
P L
P Y
c andidate
m issing
p ad
t k
w indow
{ :
Ã ©
re ating
er ge
Ġre l
ur ing
ro s
__ )<$
(' --
Ġ1 3
Ġ1 5
Ġde lim
ex clude
ĠD i
Ġpro vider
ĠM odel
ĠV alue
Ġch annel
Con trol
Ġhe ight
Ġuser s
row s
Ġ6 4
ĠCon tent
De lete
Ġid ent
Ġdirect ories
ĠWe b
Ser vice
table Widget
libr aries
pri mit
Ġsecond s
cho ices
Import Key
Ġmime type
4 00
7 0
D ist
D ispatch
M atch
P UT
g round
i an
n one
n ote
t l
Ġ //
se p
en gine
Ġn umpy
co okie
Ġm issing
__ .
il ing
up lic
Ġh app
Ġcon f
Ġcon dition
tr an
ĠS er
ip hers
Ġ* <$
ist ent
Ġst ore
Ġco uld
Ġse ns
Ġme an
Ġset uptools
IN FO
ĠH yper
fe ature
Ġ6 0
Ġfunction s
pi ed
sent ence
US ER
Ġprob lem
ident ifier
dt d
Out put
Pos ition
ĠRun timeError
ĠPO INTER
indi ces
2 55
M O
R ES
T F
V AL
W ord
n ative
s q
v ariable
$> )
de compressed
le ar
Ġre set
Ġ' )<$
il ar
Ġh andler
Ġl anguage
Ġbe ing
ase s
ĠD o
url s
Ġen abled
ĠV oid
ĠU tilities
Ġtest ImportKey
ĠH ttp
Ġuse s
ac ket
state s
num bers
Ġact ually
TE ST
Get Bucket
Un known
Se ssion
FI L
Ġreg ister
Ġsy mb
LA G
Ġauto matically
expression s
real m
curs ive
sca pe
vide o
ĠVoid Pointer
! <$
# <$
' re
B and
D F
P G
P er
W ORD
f req
f uture
n on
Ġ RE
se n
Ġt itle
me an
me tric
le arning
Ġp op
an aly
it ch
ate gor
fi gs
ĠĠĠĠĠĠĠĠĠĠĠĠĠĠĠĠ ĠĠĠĠĠĠĠĠĠĠĠĠĠĠĠĠĠĠĠĠĠĠĠ
la red
ĠT ime
ve lo
() ),<$
ĠC lient
que e
Ġv ocab
ĠF ield
ĠD ER
ĠD SA
ĠV alid
time s
---- -
ac c
Ġbu il
char set
ax es
stri ct
cur sor
Ġwhe el
ĠQ u
Ġ'' })<$
Ġpart ic
Ġgener ated
Ġtra ceback
channel s
(? :
Ġnecess ary
ibr ation
. %
7 3
M ax
O UT
] =
b n
c y
d Tuple
f lag
f wd
m age
m ix
q ps
t ml
u ation
w b
å Ń
ç Ķ
Ġ ]
in ner
re ason
en sed
de pth
de cay
Ġa da
Ġre lative
Ġs m
Ġm apping
un defined
get attr
(" .
ĠF I
out er
ĠP er
us r
per ly
Ġme ta
OR S
Ġwh at
Ġpre vent
ild card
En coding
.. .<$
AR Y
Pro xy
AN GE
Un ion
var s
Ġup load
event s
Ġopt im
Ġcompat ibility
Com mand
Parse Action
Iter able
~~ ~~
Back end
requi res
Up date
ðŁĮķ ðŁĮķ
BU G
ĠNotImplemented Error
( ',
- .
= -
L ay
N F
O f
O per
P OR
S C
Y EAR
b s
g re
g le
q a
å ħ
æ ł
ê °
se par
re qu
me s
Ġc ap
Ġp ers
te red
Ġs olution
Ġe tree
__ ,<$
con trol
Ġcon struct
Ġ1 4
to ol
() ):<$
Ġde precated
Ġst yle
Ġse n
ST AT
ĠE mpty
Ġset ting
com ment
ĠB u
jo int
Ġext ension
token izer
Ġtoken izer
Ġvalid ate
Ġper form
trans form
trans fer
cre ment
script or
Ġreg istered
Ġdis abled
Ġconst raint
CH AR
ateg y
Ġmark er
Ġcookie jar
Ġclo se
Ġstri p
Check Box
Ġtrain ing
resource s
alp ha
Ġannot ations
whe re
. ,
/ <$
6 9
D B
P TION
S O
U LE
X X
a f
c ulate
d at
k ing
p lied
í ķ
Ġ Error
Ġ âĸĪâĸĪ
re c
Ġf d
Ġf un
Ġf unctools
Ġw sgi
ri a
Ġto p
di g
ĠT ra
ĠT ext
end swith
Ġ_ ('
Ġh ow
Re s
ĠS E
and sha
stan ts
pre v
ens ure
IN T
Ġrequest ed
[: ]<$
ste ps
Ġno qa
ou gh
TR Y
Ġcurrent ly
AN D
fil ters
Ġbase d
temp orary
DI ST
unk nown
vis ion
Result s
part ial
Ġserial ization
Header Dict
hex lify
sgi DAV
.* )
ëĭ ¤
Le vel
CLS ID
clus ive
POR TED
andsha ke
- >
/ "<$
2 8
= ""
C LO
M et
T A
_ {
b b
c an
f c
g ged
i ted
p b
r b
s ix
w ind
Ġ }
se cret
er os
te ction
Ġ" '
ct s
Ġs alt
ra ise
Ġh andl
(" --
Re source
Ġ1 1
() '
par ts
Ġ% <$
Ġen code
ic ro
ĠĠĠĠĠĠĠĠĠĠĠĠĠĠĠĠĠĠĠĠĠĠĠĠĠĠĠĠĠĠĠĠ ĠĠĠĠĠĠĠĠĠĠĠĠĠĠĠ
Ġal ias
ON E
ĠU RI
ha vi
20 6
ign ed
ID L
Ex pected
comp iler
Ġapp ly
so ft
LO B
{} ".
FI RST
Ġab out
UN D
Ġwork s
Ġinclude s
annot ation
Ġdepend encies
mpl ing
cli ck
ĠParse Exception
Ġnet loc
ĠIP v
Ġpartic ular
) +
7 48
H IN
V AR
[ [
b os
d m
f older
g d
m ul
r sa
ç »
Ġc nt
Ġf l
Ġf ree
Ġ" )<$
ue ss
li s
ent ity
co very
__ _
ri g
ri x
ĠT h
ĠT LS
iz es
ol ver
ab s
ĠC ode
Ġra gged
Ġy et
ĠRe try
ĠThe se
word s
act er
ac cept
EN CRY
Ġfil ters
Ġcomp ute
St ream
local s
Ġtemplate s
Test s
Test Case
Ġtrans form
Ġval s
range s
Co unt
Char Field
fail Unless
normal ize
Ġ.. .<$
rag ma
OK EN
Ġ-*- <$
Ġpk g
vo ke
Ġnest ed
Sign ature
ĠSecurity Const
æĸ ĩ
Serial izer
Ġcorrespon ding
) *
C ode
C OL
D D
H O
P ool
] ==
c pu
e f
f un
m ime
ç Ń
re ference
Ġf lags
Ġb asic
Ġe tc
Ġthe ir
un pack
"" ")<$
con v
ol ume
ap s
(' /
po ses
to o
() [
par sed
ĠS ystem
Ġde crypt
Ġr hs
ord in
py right
ĠO K
ĠO bject
Ġon ce
Ġlist s
ign ment
RE AD
ĠG ET
ac cess
Ex ec
Ġj s
Ġk nown
method s
Ġapp lication
Ġ9 4
ĠY ou
cre en
Ġtuple s
={ }<$
mplement ation
Ġpackage s
... ")<$
go ogle
ful ly
Ġexist ing
exec ute
dered Dict
ìĿ ĺ
spect ive
del ta
' *
2 5
B yte
B IT
C all
C ore
F rom
O ID
T ML
X T
Y ou
] ],<$
c ar
d ynamic
s quee
t di
y che
z ero
} '.
å ¯
å ¼
$> }<$
in teger
Ġ= ================================
me di
me mber
Ġp d
Ġp ut
Ġp ragma
it or
it ial
Ġb chr
lo aded
Ġs ite
Ġ' {
Ġ' {}
Ġd type
ate way
Ġw ho
Ġ( (
Ġan imation
Ġh ref
Ġh istory
Ġth row
ass oc
ver age
Ġde v
Ġr andfunc
pro of
ĠP KCS
ĠD on
pre dict
==== ==
lic ked
art Pointer
Ġwh itespace
Ġpre processing
ĠRe ad
ĠH TML
En coder
pos it
ach a
Ġtrans fer
trans lation
ä¸ º
prec ation
QU EN
OF B
Qu ery
Log ger
alp has
requi red
Ġinte rest
flat ten
symb ols
ĠDAV Error
Ġauthentic ation
Ġarch ive
Public Key
Ġinclu ding
ĠOne OrMore
ðŁĮĳ ðŁĮĳ
HEAD ER
Ġoc cur
ĠSm artPointer
yche proof
Ġ================================= ================================
) ]
6 5
9 3
A ctions
B ACK
D ES
F unction
I mpl
M atches
O penSSL
P S
S u
S Connection
_ <$
c ked
d c
f ont
f actor
j s
p g
p w
p iece
s ame
s ink
s ched
å ĩ
æ Ī
$> ):<$
le x
Ġf p
Ġre maining
Ġin dent
Ġb l
Ġb oolean
Ġs lice
el come
Ġh tml
(" ,
(" -
(' .
Ġl ater
Ġl iteral
to m
Ġbe havi
Ġlo aded
ist ic
pro b
ĠP OP
ok eras
ST AR
add Widget
Con troller
Ġun it
ĠRe sponse
Ġtime zone
ĠThe re
im g
ĠB y
En um
num s
query set
OP EN
Ġinstance s
Ġab solute
Ġcache d
page s
ĠPro cess
Ar ray
std out
ĠDist utils
Ca che
Ġow n
FR OM
LOB AL
4 3
6 0
: "
: {
A U
A li
D i
F E
N E
V erify
W A
a mp
e atures
k p
m i
r in
s upported
u x
ç ½
st ract
Ġa ctions
Ġa mount
Ġc ategory
Ġc lear
Ġre cent
Ġp p
ro ss
Ġb ox
as gi
Ġd ry
Ġd rop
co gn
Ġm u
Ġm on
un i
is h
ve s
ĠS P
vi ces
ĠC HIN
Ġu s
ĠA N
type lib
ĠF eature
ĠF eed
ĠP Y
Ġ` -
Ġse q
pre pare
Ġit self
ifi ers
ĠE U
Ġ. -.
[: -
Ġoutput s
ref s
AR K
Ġuser name
sh are
Ġ8 0
TE XT
LO G
opt im
Bu ild
pattern s
Se lect
ä¸ ª
Ġchange d
SU P
Ġprob ably
ĠCo mp
åı ĸ
Ġdistribution s
au ss
Ġstat ic
Pass word
cu da
encry pted
primit ives
bos ity
ĠCHIN ESE
C rypto
F IN
I t
M in
O ptions
Q ueue
R ule
S ocket
U sage
c ategory
e mp
f s
g c
g ame
l int
r nn
u ous
x l
ä º
re lation
at ter
Ġt xt
Ġi o
me trics
Ġre gex
Ġs w
Ġ' ')<$
Ġw indow
Ġw ildcard
con figs
ter min
ed s
(' :
Ġex port
Ġl on
par ameter
for ward
ĠU N
Ġ** `.
ys is
und le
bo und
view s
ces sed
St atus
Ġtr unc
ix in
content s
Ġadd itional
Ġsu ffix
ĠSe aBASS
ĠHTTP HeaderDict
Ġper mission
feren ces
Ġpla ce
={ '
eval uate
spec ific
Ġserial izer
cry pted
ph ase
ĠAr gument
Ġim g
Ġxml rpc
ffff ffff
ĠDE FAULT
tick s
ä» ¶
static method
constraint s
ĠOn ly
Ġaut okeras
PG P
QUEN CE
4 01
9 1
9 49
A PI
B O
C lo
F low
G e
M ult
N et
P U
R ange
R ho
S o
_ "
b ind
b ias
e ss
f d
m apping
n i
u ff
w s
} {
Ġ æ
Ġ })<$
Ġt urn
st er
st andard
al ity
al og
he atmap
ar ly
Ġin ternal
Ġb and
Ġs chema
Ġe c
Ġdef ine
di o
(" /
iz ers
Re quirement
ĠS QL
ĠC ol
Ġde corator
Ġst orage
Ġ2 01
Ġpro perties
ĠM y
Ġun ique
ĠW sgiDAV
col lection
default s
clu ded
HA SH
([ <$
python com
Ġmessage s
Ġ{} '.
=[ ]<$
UN T
Ġtra iling
oss ible
ĠDer Integer
PID SI
'+ <$
issue s
NI ST
Ent ity
orig in
contain s
Ġoverri de
Ġplat forms
Ġfig ure
çĶ ¨
posit ory
ĠFeed Back
auss ian
= <$
C M
C RE
C MD
D el
G raph
H yper
K DF
M apping
P ORT
Q A
T able
T ree
] ),
b and
h i
h igh
r atio
s im
y cle
z en
en i
al ysis
Ġa u
Ġf ont
ce il
Ġe mail
get Dataset
ĠT o
Ġ_ (
od o
Re try
um my
Ġ1 02
tr uth
ĠC A
Ġco ver
Ġco okies
ĠĠĠĠĠĠĠĠĠĠĠĠĠĠĠĠĠĠĠĠĠĠĠĠĠĠĠĠĠĠĠĠ ĠĠĠĠ
ĠĠĠĠĠĠĠĠĠĠĠĠĠĠĠĠĠĠĠĠĠĠĠĠĠĠĠĠĠĠĠĠ ĠĠĠĠĠĠĠĠĠĠĠĠĠ
ĠE V
om l
DE N
ty le
Ġat t
reg istry
Ġk ind
user s
Ġno te
sh ort
Ġcom mon
Ġallow s
FI LE
Ġent ity
Ġab is
EL D
CH E
AS N
child ren
dump s
19 2
Ġclo sing
VER SION
BA SE
Qu ote
Add ress
Line Edit
Wh itespace
Ġê ²
ĠTra ceback
IDL Parser
æĸĩ ä»¶
# !
0 5
: :
B y
D SA
E V
P C
V ect
_ )
l cm
m igrations
p x
u ted
u gin
v s
è ®
Ġ ser
ľ ¨
in es
Ġi v
Ġc reating
te p
te cted
Ġ" -
ing s
th is
set ParseAction
', ),<$
Ġh yp
Ġth ose
Ġde coded
Ġde tect
ĠP ath
ĠD is
load s
Ġpre serve
IN ARY
ĠB lock
ĠG E
Ġcl asses
ĠIn dex
rain ed
output s
ari a
16 0
Ġact ive
Ġac count
Ġfilename s
PO L
Ġiter ations
Ġ-- >
LI C
Return s
Ġ100 0
Ġdoc umentation
edit able
Ġtra j
atche d
embedding s
Ġasync io
Ġexplicit ly
dec lared
Ġap pro
multi part
ĠPE P
second s
expi re
ĠValid ationError
SUP PORTED
" '
) (
) ),
> <
> >
> \
C AL
L anguage
P rivateKey
R un
T OP
] ['
e fficient
h int
h idden
i re
j ust
o le
s lice
å ½
Ġ ~
Ġ ).
se gment
Ġa bo
he lp
Ġc v
Ġf lat
Ġf actory
Ġp ayload
Ġs imp
Ġ' <
Ġd uring
Ġw ave
Ġ( {
ul er
ul ation
Ġfor ward
is match
int ypes
up press
Ġ""" )<$
(" %
po se
par agraphs
Ġbe gin
ĠI D
ĠI mage
ĠA s
Ġco pied
ma y
ĠP oly
Ġse cret
che s
assert All
init y
ĠL og
tri e
are a
sc ale
ytes IO
ens hot
ive d
Ġun quote
ĠRe move
AD DR
ĠG iven
bo ok
EN G
da v
Ġne g
auth entic
Ġcall s
ðŁĮ ĵ
Ġread y
Ġcontent s
Ġinter p
sol ver
tra j
offset s
mult iple
sy m
case s
Ġro ut
Ar gument
auto escape
Col or
epoch s
ĠData base
Ġimp licit
tok dict
LIN E
ĠSE QUENCE
Ġabo ve
assertAll Equal
' "
. )<$
= ',
D T
E mpty
M an
M ark
P KCS
R SA
T h
] (
_ %
_ [
b box
c redential
d river
g id
g hash
i ally
k df
p lit
r d
s cope
x B
} _
å Ľ
in ing
in stalled
de t
he cked
Ġc s
Ġf h
Ġre mo
Ġp ur
Ġ' -
Ġd ispid
li sh
fi ll
co ur
co mplete
__ ),
ch acha
key chain
con s
par sing
Ġde cryption
Ġraise d
Ġen c
ĠL e
ĠĠĠĠĠĠĠĠĠĠĠĠĠĠĠĠĠĠĠĠĠĠĠĠĠĠĠĠĠĠĠĠ ĠĠĠĠĠĠĠĠĠĠĠĠ
ĠĠĠĠĠĠĠĠĠĠĠĠĠĠĠĠĠĠĠĠĠĠĠĠĠĠĠĠĠĠĠĠ ĠĠĠĠĠĠ
ind ent
Ġun hexlify
ĠU TF
string s
mple x
ĠH e
ĠG tk
Ġle ss
reg ion
Pro perty
Ġmax imum
âĸ ĵ
LE D
nd array
err msg
AN T
source s
trans ition
mod ulus
cls id
Ġmod ulus
Ġup per
40 4
App Name
release s
SU RE
Ġq s
QU EST
Ġstri de
gener ate
Ġfail s
ĠEn vironment
//// ////
rule s
tz info
Ġattemp t
MOD ULE
ĠDi ctionary
Oper ation
CLO SURE
rig inal
ç½ ®
! ")<$
' ll
( ""
. ".
6 7
I F
L T
L U
M I
M ixin
R FC
S top
b ord
f a
g z
re cted
re mote
en gth
Ġf ore
Ġre mote
lo ok
Ġs ha
Ġs hell
Ġe as
Ġe ffect
Ġd ot
ĠĠĠĠĠĠĠĠĠĠĠĠĠĠĠĠ ĠĠĠĠĠĠĠĠĠĠ
get her
set s
Re ference
ab i
Ġl st
for med
am ing
ĠC ON
Ġ: **
Ġr ate
code s
ĠD IS
url fetch
et f
Ġfile obj
ON G
20 21
Ġare a
ĠB SD
ac le
sing le
Ġj inja
Ġk eras
Name dTuple
Ġresponse s
Ġcol lection
row ser
sh ared
De code
AN CE
connection s
)) ),<$
su med
su ffix
Ġmake s
ING S
Co mp
Ġreg ion
dis abled
cord ing
ĠJ inja
Ġpri me
Ġfinal ize
Ġë °
Ġren derer
COM MENT
Ġmac OS
ĠGener al
Auth entic
permission s
Ġbo ard
sens itive
requirement s
ĠUnsupported Algorithm
LAG S
ĠQu ery
STAT US
uni form
) ).
. '
> '
> </
D J
D ARK
G LOBAL
I tems
M B
P A
P ES
S ystem
U ST
W W
_ =
a gs
e m
i ence
i ases
i etf
p ip
p ub
t w
x x
Ð ¾
å °
ì ŀ
Ġ ])<$
se e
er ic
st orage
al k
ro zen
Ġn ull
ut or
Ġe scape
Ġ# #
Ġ' --
Ġd s
Ġd t
Ġd at
ad i
Ġm at
ra ises
id er
get item
el y
ĠT oken
ĠT OKEN
con stant
ap ing
Ġex pi
Ġl hs
Ġ- =
tr ust
to list
all back
ĠS tep
ĠC ore
Ġde si
00 01
ĠF tdi
Ġg ive
Ġma jor
ĠM IT
ĠO riginal
Ġch at
In ternal
late st
ron g
Ġwe re
format ter
ĠW in
ĠH o
Ġlog in
Ġhe x
Ġhe lper
Ġdist s
Ġcomp ile
Ġapp s
LE CT
Ġcreate s
ðŁĮ Ķ
ðŁĮ ĸ
Ġcom m
AC E
Ġpy game
Ġsu ite
group s
Ġcur ve
stat s
Ġ200 9
Ġter min
Ġdest ination
Col lection
Ġprocess ing
Found ation
Ġarg parse
({ '
åĪ Ĺ
rag ged
ĠSt ate
Ġinte gers
resh old
******** ********
symb ol
Sub Element
ðĿ Ĳ
CO UNT
Ġhapp en
ĠSer ver
Ġsm all
Ġpers on
medi ate
STAR T
ĠCore Foundation
Ġdesi red
' {
8 3
8 9
B AD
C annot
D S
D oc
D AL
M enu
N ING
R OP
W rap
b r
b le
c ing
c rl
h ing
k ind
l b
m k
u str
x b
} '
} \
ä ¼
ì ķ
Ġ 50
Ġ uri
Ġ libraries
at ial
er ast
Ġi p
al g
he l
Ġc redential
Ġp at
Ġp ow
Ġp ub
Ġ" *
Ġ" **
Ġ" ..
Ġ" {}
it al
Ġs k
Ġs ide
Ġd ue
Ġd ispatch
Ġw or
co s
__ ',
Ġ( )<$
int ain
Ġan other
di rected
ĠT ake
Ġcon trib
Ġcon cat
() ``
ĠC al
Ġde termine
per m
Ġse c
Ġ2 56
$># :
Ġpro duct
AT ION
Ġma king
ĠO ption
ĠV AR
ind er
Ġwe b
Ġar r
Ke ep
=' ',
RE MO
Ġsup plied
act ers
En ter
En vironment
ag ged
Ġ| _|
Type s
config uration
be gin
Ġ5 12
Ġcheck ing
ĠSe lect
ne ss
Ġinter preter
RI TE
Ġmin or
mon th
tra ce
LS M
App lication
glob al
Ġman ager
TY PES
ĠCo pyright
Ġvar s
---------------- ----------------
ĠNO TE
Ġword s
Keyword s
Ġbound ary
ðĿ Ĺ
At tr
Ġsim ilar
Ġmi rror
Dist ribution
ategor ical
Ġhandl ing
gd al
å¯ ¹
ĠEV ENT
#! /
ĠGE OS
erast uner
' ^
/ <
1 123
2 7
4 4
: .
: ")<$
A s
A nd
D jango
F lag
H MAC
I TH
L oc
O T
S a
T INGS
` ")<$
e cho
l hs
q op
r al
t ty
v ocation
} </
ë Ĥ
Ġ Ð
in f
at ype
or rection
de pend
de scribe
me m
ar ted
Ġre quire
Ġre versed
Ġn ative
ge om
Ġin ventory
ut ors
lo ts
Ġe qual
Ġe qui
Ġd c
val s
val ent
set Name
Ġh idden
Ġex act
() .<$
vi rt
ĠC RC
ĠA B
ĠA t
Ġ{ !
ex ample
Ġg p
Ġg en
Ġpro duce
Ġme dia
point Q
OR ANGE
ĠV ariable
'] :<$
Con dition
com mit
ĠRe g
im er
red is
Ġdo Actions
Ġat tention
Ġle gacy
"] .
Ex port
Ex pression
Ġk s
ĠR a
Ġext ranet
10 24
Ġne gative
Ġback ground
ft di
Ġca use
sh ift
ie ces
train ed
Ġiter ator
Ġmodule s
run ning
Ġpart ial
For ce
create d
wrap ped
pa che
ĠX ML
Ġad ded
cor rect
ĠPar ameters
glob als
ph p
go ing
Ġlink s
Ġpri or
oper ations
ĠNO QA
serial izer
final ize
Ġstop On
vect or
Ġbin ary
Regex p
vo ked
ĠOS Error
aes ni
solution s
web socket
pipe line
Reason s
Cal lable
å® ļ
Hel lo
Lay out
ĠBu ild
====== =<$
Ġinterest ed
Ġ================================================================= =======<$
Ġbehavi or
Del ta
Ġcontrib utors
- <$
3 3
5 3
8 4
= ["
B RE
C an
E C
H ost
L ib
L icense
O GR
Q ual
R agged
W rite
a ut
b f
b ad
c ision
d ropout
d tableWidget
f time
f ollow
i k
n lp
p oly
p ng
q dm
w intypes
z eros
æ Į
æ į
Ġ layout
re quire
sel ess
me dia
Ġf low
Ġre port
Ġp h
Ġp mt
Ġp lot
it u
Ġb io
Ġe gg
Ġd p
li cts
Ġw ell
di rection
ĠT ry
Ġh ard
Ġh yper
Ġex clude
Ġl r
Ġ[ (
ĠS ocket
ĠA c
Ġse ction
init ion
ĠM UST
ĠO F
Ġal go
Con v
Ġun signed
read only
RE CT
ĠG e
12 7
Ġk now
ET E
Ġcomp onent
Pro cess
Ġhttp lib
File Path
Data Frame
func s
open usb
Ġbut ton
check point
ute s
Ġpos itive
Ch annel
Ġli ve
Ġtrans action
Ġcase s
EL P
Ġwork ing
expr s
men u
Ġdownload s
Ġorig in
Ġstri ct
({ <$
ank ing
ĠApp Config
Ext ension
Ġrequirement s
Ġindi c
Ġevery thing
Desc ri
ĠPE M
ĠMe ssage
Ġlar ge
product s
ANG O
ĠZ ero
uplic ate
ê° Ģ
requ ency
Met adata
åĩ º
EV P
sym metric
' ''<$
) '
) '<$
* \
2 9
5 46
< =
A c
B ar
D SI
E val
I R
S N
S ig
T ENT
T oml
e ver
m icro
s orted
s hell
t b
t ab
u v
x e
x is
ä ¿
æ ĺ
Ġ ))<$
se ctions
Ġt qdm
en um
en ses
Ġa ria
Ġf fi
Ġre pository
ro perly
Ġin side
Ġb us
Ġs ur
Ġs pe
Ġs imple
Ġd id
li ght
Ġw arn
fi ps
pe er
one s
ul ong
il der
str ategy
str ftime
di ms
set Text
Ġcon d
ed y
ĠS ome
ĠS top
ĠC an
ĠC ert
bu s
pro to
ly ing
oc te
Ġg raph
ic ensed
ĠL icensed
Ġdi rection
op ens
lic enses
ho me
size of
Ġset s
Ġun defined
Ġun known
ĠRe quirement
loc ity
ĠB INARY
RE QUEST
mb ers
act iv
ĠIn stall
ml ink
pla ces
has hes
Ġapp name
File s
Ġca st
cs rf
Ġact ivation
ĠCon nection
Ġac cording
Ġcall ing
Ġcom ment
cache d
Ġver y
ne g
trans late
vis or
vis ual
Config ured
plo y
Ġignore d
Ġneed s
18 6
ĠX XX
0000 0000
ï¼ ļ
pri ate
Me thod
Ġter ms
gra de
gra ms
Ġsent inel
Element s
normal ization
esc aping
oper ator
pl ural
wh ile
wh itespace
åĪ Ĩ
gener ated
PID DSI
Ġresolve d
Ġavoid s
IL D
SET TINGS
Ġannot ation
whe el
ĠTemplate NotFound
Ġepoch s
Ġagain st
SER VER
Web IDLParser
Ġpa ir
ĠImp roperly
stru cted
Ġsens or
sq rt
ĠTime out
velo p
åŃ Ĺ
precation Warning
AU TH
Ġ102 4
âĸĵ âĸĵ
bord ers
DJ ANGO
Ġequi valent
ĠAB NF
Ragged Tensor
ĠCert ificate
opens ource
ĠImproperly Configured
. ',<$
7 9
A IN
C ur
I mp
J SON
L M
N ew
O ME
O ne
P lot
S tyle
U RI
W e
W RITE
c licked
d r
e ager
f alse
f mt
h mac
i mplementation
k b
k l
l gdal
q s
v ariant
x F
¾ ç½®
æ Ĺ
ç ķ
è ½
é Ģ
Ġ serve
re versed
er ies
Ġt list
en able
de li
de lim
Ġf ill
Ġf eature
Ġre spon
Ġp ad
Ġ" &
Ġn gettext
Ġb ro
Ġb ias
lo or
Ġ' *
Ġ' ',<$
ent ly
Ġw s
Ġm erge
el f
ss h
end or
Ġnot hing
Ġh igh
Re move
Ġex it
() ]<$
ĠS ign
ĠS uppress
ĠI O
Ġde pth
mat rix
00 1
ĠP lease
ĠD oc
ĠD ec
Ġse en
Ġme mber
ĠL anguage
Ġ__ _
res ume
ĠM ac
ĠM igration
ĠV erify
'] [
Ġpre cision
ĠW end
ME TA
ĠB ack
En code
EN UM
ĠIn put
Ġres olver
Ġ4 00
Ġnum bers
Ġchar s
token ize
") ).
SSL Error
Ġformat ter
ðŁĮ Ĵ
ðŁĮ ĺ
av ailable
doc ument
Ġdirect ly
Ġiter tools
su er
Ġ9 0
ĠWe i
DI TION
DI GE
=[ <$
RI PT
save d
Char s
pk l
pa ste
App Config
Ġchange s
thread s
Ġ200 5
Com ment
Col umn
Ġreplace d
function al
Ġta ken
Ġeval uate
ignore Expr
TIME OUT
hook s
âķ ²
Ġkw arg
Ġstd out
Trans form
fl ush
pat ial
åº ¦
æł ĩ
ordin ate
uff le
Ġappro priate
DIGE ST
, ),
2 72
3 128
4 7
A da
A uto
D X
D iv
L t
N S
O CB
S c
T r
U R
V T
\ "
_ .
c bc
d raw
f ac
l li
p df
r and
s alt
t x
} '<$
¦ Ĥ
å ¦Ĥ
ç Ļ
é Ļ
ì ł
Ġ :<$
er al
st amp
Ġa round
ar s
Ġf alse
Ġf av
ce pted
Ġn or
Ġin sert
Ġif match
Ġ' ',
Ġd ay
Ġd saObj
def used
pe t
ra cle
Ġ( %
Ġfor ms
Ġan c
name d
ĠT rans
ve c
sp ort
Ġcon troller
Re cord
po ols
am t
ĠI MP
ĠC P
ist atus
Ġde sc
Ġde coding
Ġv ariant
ĠA uth
Ġpar agraphs
00 2
ĠP ool
ĠP rivateKey
Ġ2 02
Ġdi rs
ĠM art
add info
Ġout len
read line
20 7
`` <$
ĠRe moved
ĠB U
DE BUG
red s
iv ers
ec b
ac ct
ac quire
ag ent
Ġle arning
ib ly
Ġsh ift
Ġ\ *\
File Server
main win
Data base
Ġtimeout s
Ġ8 00
Ġact iv
ĠCon vert
Ġac c
err SSL
ak ing
Ġany thing
av ing
Ġsu c
sub process
Ch ange
DI RECT
Ġencoding s
Ġ'' '
LI ST
ccess Key
Ġ12 7
bin op
dis covery
Ġcommand s
Ġplaintext s
Ġgroup s
HE BRE
ĠPy FileServer
Ġclo sed
net loc
net work
ĠDer Sequence
Ġke ccak
ĠNO T
Iter ator
Item Import
Ġgo od
NI RC
tok list
ëĭ Ī
Num ber
ĠCh un
Ġpe m
Ent ry
Hash Algorithm
Ġpredi ction
expand user
ĠOr deredDict
ĠHttp Response
Ġsymb ols
dig its
DIST ANCE
BIT S
squee ze
cogn ized
Ġtrunc ate
ĠIndex Error
å½ ķ
Ġremo ving
virt ual
deli tem
ĠWend t
ĠMart in
Ġ\*\ *
HEBRE W
( ("
/ ',
: ',
> =
F ail
N U
S B
U ID
U sing
U til
V er
W N
Y ES
] ",
a ys
c id
d ense
l st
o om
p ush
r hs
s imple
s rid
v p
w riter
w elcome
à ·
in ct
re at
re cursive
on ical
de lay
he ses
Ġc atch
le ton
Ġf it
ce l
ge o
ut ing
Ġs cope
Ġs cores
Ġs ila
as n
Ġo id
Ġd ig
Ġd ropout
ke ep
ke leton
__ [
di ction
up er
con cat
ol ated
Re direct
Re solver
Ġimport ant
() `
ĠS O
Ġde scriptor
ĠF ilter
et te
Ġraise s
fo und
Ġpro tection
ĠL ast
ĠL IC
Ġma de
__( **
ĠE ach
ĠU p
ial s
ĠW ith
Ġby ref
unt il
Ġso ftware
EN SE
Ġle x
Ġle ave
ĠIn itial
:` ~
Ġfil tered
Ġcomp are
ĠR andom
ĉĉ ĉ
Pro tocol
Ġspec ifier
inter val
inter preter
Ġsh ared
andl ers
Ġone s
ðŁĮ Ĺ
Ġcom ments
Ġpy parsing
cur ity
{} '.
LI GHT
RI GHT
MODE L
Ġgener ator
Ġdis car
Ġinitial izer
SU B
Ġhandle d
Ġpattern s
rit ing
std lib
Ġpoint s
Sec ret
dec imal
Ġindi ces
fin ite
FFFF FF
database s
Ġcho ices
Ġrepresent ation
ãĢĤ <$
hyper parameters
Ġcons ider
Mo dified
Ġsel ected
ada pter
Ġbl ank
ĠSP DX
Ġwildcard s
Man ager
ĠBU ILD
ëĭĪ ëĭ¤
ĠLIC ENSE
4 1
4 2
6 03
9 5
: ",
: ])<$
C ho
D ir
D NN
F inal
H I
I ANT
L ocation
O ption
R PC
V I
V ariant
W in
W SGI
c data
c wd
f k
g ot
n est
o lean
p ure
p ha
s ila
¡ ľ
ä ½
æ İ
æ Ŀ
è ¡
Ġ ?
Ġ í
ĩ å®ļ
al ve
al ette
de ploy
le ms
Ġre duce
Ġ" <
Ġb ad
Ġb ind
Ġ' "
Ġd f
__ ",<$
"" .
id na
ck s
str ument
la use
set ting
(" '
(" `
Ġex pect
ver ified
ĠS H
Ġde vices
ĠF ound
Ġ2 7
ext ras
ĠM on
ĠM ult
ĠĠĠĠĠĠĠĠĠĠĠĠĠĠĠĠĠĠĠĠĠĠĠĠĠĠĠĠĠĠĠĠ ĠĠĠĠĠĠĠĠĠĠ
ind y
mo on
Ġfile path
com ma
rect ory
AD D
col s
act ual
fe rer
unc ated
bo olean
ID DEN
log ical
split lines
Type Info
ĠR adio
write Log
iter items
Pro d
âĸ Ķ
ren derer
ces ses
Ġpo inter
De bug
Ġsub path
Ġread ing
Ġiter items
Ġ{} )<$
Ġopen ing
An gle
Ġcal culate
Ġent ries
Ġab ort
Ġsign er
Po licy
igr ate
Co uld
Ġunder lying
tra ct
ance l
Ġsc al
cent s
ĠFor mat
Ġexp and
âĶ ģ
Ġprovi des
Ġcompat ible
Ġauto escaping
Ġpri mary
Ġexpr s
sequence s
ATE D
pl us
Ġkeyword s
Ġob tain
HT ML
On ly
Auth or
unit test
Ġstack level
Ġè ®
CU R
interface s
Reason Flags
tran et
ENCRY PT
ĠProcess L
Ġmu ch
atter y
Ġlon ger
ĠArgument s
Quote Char
writeLog File
( ['
) /
) ")<$
) ])<$
. '),<$
/ {}
3 64
H ELP
I M
N UM
O ther
R adio
T S
T ry
T AG
V is
W AR
W indows
` \<$
a ff
c reds
d n
d one
d rop
e qual
g res
h andlers
m is
n ist
p f
p atch
u ated
w ave
å ¾
Ġ ._
Ĥ ¨
se ed
in st
in ator
re cord
re aded
al ph
Ġc f
Ġc ar
Ġf uture
Ġre load
Ġp en
ro ll
Ġin tern
ut c
Ġb ord
Ġs creen
Ġw ind
Ġm er
Ġm enu
ke h
ot ing
__ ':<$
Ġ( -
is dir
il on
Ġan sw
la ke
(" _
Ġcon side
qu oted
ass ist
Ġ1 8
() ]
Ġ[ ],<$
ĠI s
Ġor g
and box
list dir
Ġde sign
ĠA d
ĠA ll
## #<$
ma jor
ĠP UT
Ġg t
Ġpro spective
Ġen ough
Ġget float
ER T
Ġal pha
ĠE nd
ĠE CB
Ġpre tty
format s
). """<$
om ic
Ġtime s
loc ations
ĠB e
ĠB ut
ĠH andle
red u
RE F
En cryption
Ġint f
line ar
dd en
comp ress
comp ute
Ġchar det
do uble
mit ted
vel ength
train able
Ġstart s
Ġstart ing
index es
Ġsp an
Bu ilder
sent inel
ne gative
SE LECT
DI SP
LI B
ĠKey board
Ġextra cted
Ġsign ed
CON TENT
Ġerr no
Char Set
GE X
77 77
ä¸ Ģ
57 2
fer red
Ġ'. '<$
dis able
prec ision
sum mary
Ġro t
QU ARE
CTR L
du ction
function s
Inter rupt
cho ice
ven ience
ĠK eras
Ġlocal ctx
serial ize
ĠSt ream
ĠGener ate
Ġimp orted
ìĿ ´
Ġcorrect ly
element s
Ġrule s
Ġindi vid
Num bers
orig inal
Ġge ometry
Dis abled
fl ask
clean ed
Ġtar info
ĠWeb Socket
Ġbuil t
ĠURI s
ĠMy SQL
çĻ »
Ġconside red
* .<$
. \<$
/ (
4 48
> {
A Y
A SE
G G
H ER
M ode
O C
P ARE
R rs
S elf
T ran
U E
W IN
W riter
\ .
] ),<$
] ).
b ine
c ap
c ategorical
e g
e er
e lif
f L
i od
j inja
k s
s cores
t re
w ycheproof
à ¶
ë ¡ľ
ì Ĭ
Ġ KEY
Ġ service
re port
er ce
Ġt idx
Ġt reat
en g
he lper
ar r
le ted
Ġf ine
an n
Ġ" ".
ct ime
ct ypes
ro ute
ge os
Ġin tranet
Ġb anking
Ġe arly
Ġo dd
Ġ' ')
Ġd ual
co ver
Ġm igration
pe ction
__ __
__ '):<$
get Logger
is o
ck ing
Ġto str
Ġto do
el lation
di ff
set Disabled
rom ise
ĠT ar
(" *
(" {
Re lease
um ul
Ġl ate
ĠS pec
ip s
ĠA pache
yte st
Ġpar a
Ġr ather
ĠF ree
Ġstr xor
ex plo
ex clusive
ĠD ispatch
et ag
pre vious
Ġpro per
ang le
py lint
ĠV Box
'] ['
In stance
In stall
ifi es
Ġpre ce
Ġpre dict
IN PUT
Ġx admin
DE L
DE P
ĠH ow
Ġtype info
Ġ** ")<$
Ġdo ing
Ġlog ic
ac s
ac count
"] [
Ġ4 0
Ġ4 9
Ġapp end
Ġsh ut
Ġ6 55
Ġformat s
clo sure
Ġpy openssl
cur acy
find er
Ġid na
Ġsub process
Ġpos itional
)) ]<$
Un defined
DAT A
su ally
Ġver bosity
Ġtrans ition
FI G
FI X
of b
ast ype
ĠKey word
ld flags
arg v
arg types
extra cted
Char acters
Ġdoc ument
cor rupt
Ġwrite result
order ing
Integer Field
Ġorder ing
US B
Ġrow s
Ġsave d
normal izer
Parser Element
Ġ'\ \
Inter p
ĠDer Object
Cha Cha
wh ich
Ġprevious ly
gener ator
Ġchild ren
Ġfull name
Ad am
cal lable
aly ser
FO UND
Ġstat s
rel u
ĠAl so
fin ished
Ġfix ed
Ġcho ice
Ġinclu ded
å¤ §
sens or
Ġsentence s
hyper model
Ġcomb ined
VAL ID
FIL ES
Ġsolution s
pb kdf
rsa Key
Su ccess
sched uler
Ġunit test
WA IT
eni um
efficient s
ðŁĮĵ ðŁĮĵ
Ġsha res
Ġsec ure
æĮ ĩå®ļ
éĻ ¤
istatus EL
ĠRemoved In
ĠMon day
Radio Button
ĠKeyboard Interrupt
Self Test
$ ",
( ('
) ",
+ +
/ %
0 20
6 3
A ct
B B
B its
B KDF
C hecked
D SL
F ailed
G ER
G ateway
L ATE
L ACK
M igration
M any
P ut
P ER
P eer
V ar
W ARE
X Y
[ <$
a z
b al
d ispatch
f loor
g ate
h ide
h older
i ver
j f
m med
m utable
o ok
s rs
t d
t an
t ual
u c
u uid
â ľ¨
ç ¤
Ġ OR
se ek
re ce
or acle
Ġt p
en e
de p
Ġa k
ar ily
Ġf oo
Ġp unct
Ġ" #
Ġ" `
Ġ" ")<$
ro gram
it z
Ġin v
Ġin ner
Ġd uration
li text
Ġw rong
co moon
ra cket
ri end
un its
Ġh int
(' -
Ġex poses
ĠS imple
ĠS upport
ĠI ter
ig her
ĠA SC
Ġr ho
ĠD B
Ġg re
point er
file path
AT OR
ĠM D
ho uld
ĠO racle
ĠV er
valid ators
ĠE ns
IN D
ĠW he
ign Key
back ward
version s
ĠH MAC
pp ing
ir cle
ir tual
En sure
ac ity
Ġbu iltin
lat er
Ġcomp la
Ġloc ked
AL I
Ġext end
Ġext ended
iter tools
length s
so me
") [
Ra w
{} \
An c
An alysis
sign er
): #
RI V
Ġwork er
14 748
LA Y
Ġprovi de
difi c
Al ter
Ar g
Com mon
ĠQt Core
exec utable
ĠĠĠĠĠĠĠĠĠĠĠĠĠĠĠĠĠĠĠĠĠĠĠĠĠĠĠĠĠĠĠĠĠĠĠĠĠĠĠĠĠĠĠĠĠĠĠĠ Ġ
>` _
ĠSt art
Ġbet ter
Date Time
Ġqu oted
Ġpe er
åĲ į
sca ped
PRE FIX
support s
Cal ibration
Ġconver ted
ĠMax Retry
Ġada pt
ĠPer mission
ited List
ĠSeaBASS Header
Ġau dio
Ġser vers
Ġcs v
Ð¾ Ð
Ada pter
ivers al
ĠFound ation
Ġansw er
çĻ» å½ķ
explo re
ĠASC II
ĠEns ure
14748 364
ĠMaxRetry Error
' ve
) "<$
* .
. <
/ .
0 9
: ].
B e
B ot
C lean
D H
D rive
F OL
G RO
M od
P tr
P rint
R ot
S M
S h
S to
S chema
T EN
T ags
U SE
] -
a w
d ur
g rid
i a
m ong
o res
p us
p ies
p unc
s indy
t ion
t ic
u ck
» åıĸ
å į
ç Ľ
ë Ĭ
Ġ ,
Ġ á´
Ĥ æķ°
in ventory
re ssion
at is
er a
al ive
al ties
de scriptor
le v
le arn
Ġre ferences
Ġp ure
Ġp acket
Ġp rin
Ġ" [
ro ut
Ġn one
ge ometry
Ġin spect
Ġb undle
Ġs ink
Ġe s
fi ed
co d
Ġm iddleware
__ ":<$
ra c
get frame
Ġdef inition
Ġan s
la ck
ĠT uple
con ver
Ġ_ <$
Ġ_ ("
sp litext
Ġcon structed
(' _
Ġ[ ])<$
Ġbe come
am era
Ġu sage
ĠA uto
ĠA RC
Ġst arted
pro gress
ĠP os
Ġ2 5
Ġg ain
pre pared
Ġen gine
ĠM ark
sc an
Con sole
ĠE C
read s
read er
Ġprint s
`` `
mple ted
ĠH el
Ġ`` "
ĠN T
RE D
ĠG PL
ĠG NU
En gine
Ġcl one
log its
ĠIn c
Ġurl join
max size
Ġapp lied
St orage
([ ^
tin uous
err Handler
ba z
av g
Ġsu bject
check s
enc ipher
Ġload ing
Ġ9 6
Ġ9 7
Ġcode s
Ġent ire
Ġcert file
man age
40 9
CON FIG
UT F
={ "
Ġinitial ized
wrap s
Ġrun time
spec ified
Ġcur r
cent er
HTTP Connection
Ġwin error
AS K
meta class
Ġman ually
fail If
bot parser
Ġass ign
site s
Ġtemp orary
PAT CH
Ġsa mpling
_| _|
QL abel
({ "
dered Set
Ġdepend ing
Lo ader
session s
ĠDE BUG
è¯ »åıĸ
Ġgo es
Ġnet work
Ġrelease d
contain er
Spec ifier
tect or
Ġstd lib
88 59
bl ank
sec ure
grad s
ĠImp ossible
sample s
rot t
Ġrece ived
att name
ros pection
Ġcondition s
ĠFI X
Ġsen ding
.*) "))<$
Ġoccur red
NE W
ĠUN SUPPORTED
Clo se
("/ ")<$
Vect or
trie ve
ĠDIS PID
Ġsmall er
Sa fe
Ġcond itional
octe t
deploy ment
Tran sport
DEL ETE
ĠRemovedIn Django
RIV ATE
" .<$
) ?
* ')<$
+ "
, )
4 17
8 7
: '),<$
A xis
B Y
C J
C LI
C andidate
C ERT
D L
D ial
E M
F eatures
M S
M issing
P W
P art
P ipe
R U
W ITH
_ )<$
` :
b eta
c v
c ip
d ry
d yn
d types
f unctools
g is
g win
l ing
n od
p m
p key
p ieces
s qu
s lic
t n
x ff
} ')<$
æ Ń
ç ®
è §
é ¢
ê ³
Ġ video
Ġ Keep
ł éĻ¤
se mb
se curity
in s
re v
on y
Ġt un
Ġt imer
Ġi con
de al
de tail
de corator
he et
Ġc at
Ġc iphers
Ġf t
Ġf ft
Ġf rozen
Ġre ally
Ġre directed
Ġp ack
ur ther
ct rl
Ġb s
Ġs izes
Ġe uc
Ġ' '),<$
Ġd ump
ad ded
Ġw d
co mplex
un ding
ul ly
get timeout
il ters
ck er
Ġan n
ĠT O
Ġh old
(" >
Ġ1 01
Ġimport lib
to gether
ĠS plit
ĠS patial
Ġbe low
ĠC OME
text s
bu gs
Ġde scri
Ġ: ,
pro ber
ĠP ass
ĠD NS
per man
Ġ2 1
Ġ2 3
Ġg ives
Ġen crypted
Ġma intain
Ġdi v
ĠM AC
lic ations
ure Transport
sc al
ĠE vent
Ġ3 6
com m
Ġun its
ĠU sb
endpoint s
ĠW rap
ĠW rite
ĠW ork
`` :
Ġtime d
ĠB it
ĠB ytesIO
Ġmodel sub
ĠN um
RE NT
RE DIRECT
iv ely
obj s
=" %
base s
line Edit
comp are
') ):<$
Ġsh util
cert data
Ġ6 6
") ))<$
ep copy
ix ed
Ġformat ted
Ġ8 9
De cl
Ġadd r
select or
PO OL
sub class
Ġli ght
okup Error
ne th
Se e
Ġab i
copy right
Ġsign al
by pass
Config uration
Ġreg ular
pect ral
03 3
Ġfind er
Ġgener al
Ġmin imum
Ġport s
Ġret val
57 1
Ġsome thing
Ġsy mlink
fir m
cent age
bin ary
Ġreplace ment
100 0
Group Prober
post gres
Ġfinal sub
åĪ łéĻ¤
Ġexec uted
ĠSec ureTransport
Iter ation
Sec ItemImport
39 3
Ġ20 48
Ġdown loaded
Format ter
Ġdebug ging
SD K
ĠName OID
Ġtri es
Ġê °
Desc ript
Ġbo keh
Ġsample s
Message Box
Gener ate
Syntax Error
åĬ ł
Ġconver ter
{: .
Service Feature
separ ator
Ġconstruct or
SO CK
="" ,
wind able
748 51
('/ ')
Ġ'{} '
æĪ Ĳ
Ġmon th
Ġ`- '
Mult iple
ĠCol umn
Ġsimp ly
Argument Parser
Ġë° °
Authentic ation
PA SS
REMO VE
æį ®
è½ ½
ignoreExpr s
ĠMult i
CUR RENT
tre es
PW D
, )<$
1 20
3 98
6 17
= ['
> "<$
B ig
B oolean
C iphers
E CT
E lect
G CM
I X
I ST
J ECT
L ight
L ENG
M ES
M ake
O FF
P ort
S ent
T er
T ra
T LS
T UP
W ant
W ycheproof
Y our
[ ^
] "
] ["
^ ^
` ,<$
b test
c ut
c python
d x
d rive
e ax
f av
f old
g u
g ly
g uess
l t
m ut
n ip
n gettext
p lication
r ts
r andfunc
s izes
s hould
w ritten
z ing
} ):
© ´
ë ©´
Ġ lic
Ġ ):
$> |
in clusive
or iz
Ġt z
al sa
al igned
Ġc are
Ġf ew
Ġf eatures
Ġre stri
ur adio
Ġ" ",<$
ro les
Ġn lp
Ġb n
Ġe m
Ġ' ))<$
Ġd st
Ġd ummy
ent ion
Ġm ismatch
pe md
pe ek
ri pemd
un Ter
Ġ( ``
is alpha
el s
Ġan alyser
od ome
sp atial
== '
qu ential
um Names
ass ign
Ġimport s
Ġl at
to b
cl one
ĠS i
am b
ĠC or
bu sb
ĠA SN
Ġpar as
Ġr nn
Ġr ng
pro file
pro spective
Ġse ver
Ġ2 8
Ġg hash
tri p
py crypt
ĠM ust
ĠM ay
ĠĠĠĠĠĠĠĠĠĠĠĠĠĠĠĠĠĠĠĠĠĠĠĠĠĠĠĠĠĠĠĠ ĠĠĠĠĠĠĠĠĠ
ĠO pen
Ġresult CLSID
sc all
mo us
Ġal t
ron ic
Ġpre releases
ĠU rl
IN E
ĠW AR
om in
port s
ĠB ook
Ġcipher mod
Ġtype lib
ĠN ow
lit eral
RE EN
RE TRY
RE GEX
Ġdo uble
ec ycle
[: :-
bo Box
Ex it
Ġk lass
Ġurl parse
comp onent
has hed
Ġuser Name
Ġne ver
Ġcol ors
Ġconfig ured
open pg
Ġfunction ality
TE MP
LO GI
Ġpy rogram
Ġbase string
yste ms
Ġmodule Name
Un it
An not
su me
su ccess
ĠHTTP Response
ĠHTTP SConnection
Ġparse Impl
ffi ce
Ġframe work
11 7
DI S
Ġ'' ).
Ġinter val
cre te
table space
Return Empty
Co unTer
part ition
Char acter
Ġreg ions
Ġoper ators
Ġinitial ize
Ġserial izers
ä¸ ĭ
argument s
link s
dim ension
LA KE
CT X
exp licit
dataset s
Ġpri m
hes is
Com boBox
stop bits
wh ite
Ġdepend ency
No ise
wsgi utils
au ght
ĠData set
Ġzip file
Ġvisit or
Ġoffset s
23 1
Ext ernal
Ġbin op
ĠCha ining
Open PGP
Ġthread ing
cf b
ĠInvalid Header
æķ° æį®
NotFound Error
how to
grad ient
over ri
åĬ Ł
ĠDefault s
Ġweight s
PAR AM
note book
Band Edit
sen der
analy ser
(". "):<$
Ġcap ath
Ġconstraint s
rec v
ĠTLS v
ĠRetry Condition
Ġthrow Exception
ĠRead Timeout
OPEN PGP
Password Validator
(': ')<$
may ReturnEmpty
ADDR ESS
åĽ ŀ
ðŁĮĶ ðŁĮĶ
ðŁĮĸ ðŁĮĸ
ä¼ ł
ĠVAR IANT
ëĤ ĺ
depend encies
æĺ ¯
ĠIO Error
ðŁĮĴ ðŁĮĴ
ðŁĮĺ ðŁĮĺ
Auto Field
Div ision
Ġifmatch tag
ĠPrivateKey Info
Ġ202 2
Cho ice
Ġexprs Found
Other Ciphers
mis c
ç¤ º
ëĬ Ķ
ony mous
PWD TEST
Elect ronic
LENG TH
TUP LE
Ġlic ensed
pycrypt odome
openpg p
6 97
> .
> [
A F
A ttributeError
A IL
A WAIT
D ec
D ownload
F LAGS
I con
I ELD
L iteral
L ONG
M y
M AG
M ASK
N ONE
P h
P ROP
R andom
S Y
S ource
S im
S lice
U se
[ ]",
b ed
b undle
c mp
d ating
f m
g on
g an
i er
m us
m time
m ys
p ers
p ag
s ur
s keleton
u dent
v ance
v endor
w ar
x p
¥ åı
ä ¹
å ¸
å ¹
å Ģ
ç ¬
ï ½
Ī ĺ
in et
in line
in ux
re load
re rs
re maining
er tain
Ġt w
Ġa st
he re
Ġf s
Ġf urther
Ġre com
Ġre lation
Ġre cognized
an e
an imation
Ġ" ":<$
Ġin crement
Ġin correct
ut ive
Ġb rowser
ue s
as hes
Ġe ps
Ġ# ##
Ġ' #
Ġd sa
Ġd ynamic
li ant
ad cast
Ġw riter
co st
co ordinate
Ġm d
ra ction
un signed
Ġis subclass
ul k
is file
th an
di stance
Ġcon version
(' "
(' <
Re ader
put header
ĠC S
sert ion
Ġde ad
Ġde que
Ġde ps
Ġde velop
Ġv olume
ĠF orm
ĠP ost
ex cluded
Ġse p
app ly
Ġg ra
Ġme t
ĠL ine
Ġkey file
ĠM odule
ĠM eta
Ġch unked
Ġy ear
Ġhas n
Ġal iases
Con tain
Ġout going
ore d
ES SION
ĠRe gex
ĠG roup
Ġpath lib
En abled
Ġnew er
Ġcan onical
Ġk erastuner
Ġ4 40
char acter
Ġext ras
') ]<$
Ġmax loc
Ġapp author
Ġcol umns
TR AC
Ġchar set
sh uffle
Ġpo v
Ġpo se
SI G
SI TE
([ [
Ġ8 3
open Elements
ĠCon ver
ĠCon stants
Ġla zy
pos n
Ġtoken Types
local time
UL D
Ġcall er
Ġbase s
Ġsub classes
Ġsource s
su ite
ĠHTTP Error
ne eded
Se quential
Ġent er
ĠY IELD
Ġ'' ')<$
Ġab stract
ĠUn ix
ĠUn defined
98 10
17 2
Ġenvironment s
Ġparent heses
tra ceback
... )
Ġselect ion
LA SS
AS C
project ion
ph ot
men ded
Ġprob lems
ran k
Ġass ume
Ġdataset s
Ġimplement ations
Ġbot tom
Col umns
Ġshow screen
hex nums
ont al
redirect s
Ġdatabase s
Ġnormal ization
>` \<$
dt uple
Lo ck
conf licts
utable Mapping
rel ations
scre enshot
Ġauthentic ated
fin ish
âķ ±
IG N
Ġconnect or
Ġidx s
cf g
sec utive
Ġow ner
Ġissue s
Gener ator
Ġcons istent
Ġlar ger
ĠExt ract
uplic ates
___ /
voke s
HO ST
äº İ
Ġatt ack
Ġbegin ning
transition s
Wrap per
Ġpub lish
Ġsk learn
ĠGe ometry
Ġcomponent s
Ġbro ken
ĠInitial ize
pure lib
redu ce
Ġlate st
>`_ .<$
14748364 7
CLI ENT
Dial og
nod ot
Ġfrozen set
Descript or
PASS WORD
oriz ontal
AWAIT ABLE
åĢ ¼
Ġrecom mended
! !
' ")<$
/ {
: ],
= ",
? \
A E
A KE
B ER
B LACK
C l
C MAC
C LASS
F unc
F ont
F inder
G OR
I ES
I LED
L OAD
M M
N ote
P l
P rivate
P BKDF
S ite
S cheme
S imple
X ML
] ])<$
b d
b dist
c atch
c ors
d ns
e vp
f b
g a
h g
h n
h yp
h andshake
h dr
i li
i ir
j pe
p an
p as
r strip
x C
z A
} "
¥ ¼
² Ļ
½ ì
å Į
æ ŀ
é Ĺ
ë ¥¼
ì §
ì ²Ļ
Ġ vi
Ġ ERROR
Ġ queue
re lative
er m
al le
de b
de precated
Ġa way
Ġa verage
Ġc ertain
Ġf riend
Ġre po
Ġre ly
Ġp ss
Ġp atch
an es
Ġ" "
Ġin her
Ġs ystems
as y
Ġe sc
Ġ' '.
Ġd ays
li es
ot a
ul ated
get ter
is suer
il ation
ch ing
di c
ĠT CP
con tract
Ġh it
Ġcon sumed
Ġcon secutive
(' .')<$
ab solute
Ġl cid
Ġ- ----
tr l
() )):<$
ĠS h
ĠS tr
ĠS ince
Ġbe ta
ĠI nt
ĠC a
Ġor dered
and as
Ġu gly
list s
Ġv id
Ġv ari
quest ions
ĠA fter
Ġco pies
Ġr adi
ĠF T
pro c
ĠP AR
Ġ` [
Ġ` {
Ġname dtuple
assert Not
Ġg uess
Ġpro to
Ġpro perly
Ġen coder
ĠL ink
Ġ__ /
ĠM AKE
kw arg
time DT
ĠE N
20 2
`` .
Ġare n
ĠB ad
ĠH ash
lif ecycle
reate d
ĠG ID
ir ation
En able
xFF FF
base d
ag ing
qui et
EN AME
"] ["
Ex ist
Ex pect
Ġcomp ress
Ġcomp iled
') )
TH ON
10 8
FA CE
De precated
Ġac ross
connection pool
30 9
Ġz one
PO INT
Ġ{} ,
List Filter
match er
sign al
Ġtrans late
OP CODE
Ġstate s
FI ED
FI ELD
ĠKey Value
cre enshot
Ġcls id
Ġcls ctx
Not Exist
Po st
AB EL
77 8
ä¸ Ĭ
ä¸ Ń
ĠDe f
cent Lt
Ġman age
CE PTION
lect or
pri ce
Ġtable s
Ġro aming
Ġview s
ĠCo unter
Ġsepar ator
Ġdigest s
åı ¯
Ġbuf size
ĠĠĠĠĠĠĠĠĠĠĠĠĠĠĠĠĠĠĠĠĠĠĠĠĠĠĠĠĠĠĠĠĠĠĠĠĠĠĠĠĠĠĠĠĠĠĠĠ ĠĠĠĠ
internal code
Ġdepend s
Sec urity
COM P
ĠRequest Result
Ġchunk s
ĠCOM PARE
INTER FACE
á´ ı
Ġstruct s
åĲ İ
compat ible
IG HT
CC M
Ġ[] ).
Ġgr ad
DO W
Ġprop Name
over lap
plat lib
rot li
âĸĳâĸĳâĸĳâĸĳ âĸĳâĸĳâĸĳâĸĳ
Ġspecify ing
ada pt
Ġdec ision
ategor ies
Ġperform ance
)* (
HEADER S
Di rectory
Build For
Ġpermission s
ĠDis able
LIC IT
Ġpur ged
cour ses
Ġdat atype
hel lo
Ġcredential s
ĠCal lable
inf inity
Ġgen cache
ĠZero OrMore
Ac cept
Eval Context
eager ly
Ġfav or
Ġè® ¾ç½®
andbox ed
Ġshut ting
tan h
dific ation
FOL DER
ĠHel per
ĠSi LA
ĠKeyValue Item
, "
/ ?
1 0000
4 10
4 11
A sync
B ad
B ody
C HA
C LE
C RL
C ORS
D er
D ig
E s
F ull
G ui
G aussian
L ST
M i
M ath
M eta
N ext
O SS
P ump
R ate
S end
S OL
S CHE
T ools
T emp
U sed
Y Y
Z ip
Z ero
[ _
\ __
] {
] ],
b ert
c er
c ri
c un
c ss
c pp
d z
e locity
g it
g mail
i ou
i rection
l k
l ar
l an
m u
m igrate
n or
n to
o unt
p wd
p acket
r ad
s li
s ses
t up
x admin
} |
Ã ª
Ð °
é Ŀ
ì Ĺ
ì ľ
Ġ ut
Ġ ;<$
Ġ urlopen
İ ·
er ical
or ing
en coder
sel ected
al go
de coder
de tails
de epcopy
Ġa pi
Ġc api
le gacy
Ġf i
Ġf mt
Ġf actor
Ġf requency
Ġre main
Ġre cursive
Ġp ag
Ġp ull
Ġp oly
ur is
Ġ" @
ct ure
ro le
ro py
ce ed
Ġin f
Ġin stru
Ġin finite
Ġb au
Ġs rid
Ġs itu
Ġe d
Ġe st
Ġe fficient
ad ers
Ġw on
Ġm s
Ġm atched
Ġ( _
ĠT yp
con sole
Ġh ack
== <$
ed u
(' ''<$
um bn
po ss
ab et
tr uncated
() })<$
es NotExist
Ġ[ ],
Ġas n
Ġas cii
", "
am l
ĠC trl
ig ma
Ġ* "
Ġde construct
Ġde termin
ĠA SGI
ĠP ort
ĠD ate
per ms
Ġse ed
oc cur
assert Regex
Ġ2 147483647
Ġg l
Ġg n
Ġg ran
Ġg zip
pre f
Ġen force
init ions
Ġ__ __
res net
ĠM apping
ho ur
Ġtry ing
ĠO P
'] ))<$
ite cture
Ġhas hed
Ġal tern
Con vert
time delta
In itial
ĠE X
ĠE val
Ġpre v
Ġ3 4
com ments
Ġun supported
ĠU SB
os ing
ĠW h
20 20
`` ).<$
ĠRe source
loc ust
ĠB ert
ĠN e
AD I
ĠG DAL
Ġnew line
fe at
own er
da ys
crypt o
Ġ!= <$
pla in
âĸ ķ
Ġback ward
token ization
Ġtr uth
") )
Ġ8 5
arent ly
De precationWarning
Ġ/ =
err no
ong o
Ġpy OpenSSL
find all
Ġread er
Ġbackend s
org an
String IO
sent s
Ġcode cs
assertRaises Regex
OP BITS
SE CU
11 1
trans forms
Ġmay be
Ġextra ction
run ner
run Tests
ified Identifier
CON TR
Ġmo ve
Co py
Co unter
Ġover write
arch ive
Ġreg istry
Ġtra ce
spec ial
Ġax es
ĠPar sed
target s
Ġ16 0
Ġdel attr
make dirs
pri mary
Or deredDict
sl ash
Ġmark up
Ġlike ly
stop ping
Ġinfo s
command s
âĸĪâĸĪ âĸĪâĸĪ
Attribute s
CF Release
pared Request
ĠRequest s
Ġmap s
riter ion
Ġposition s
Ġap pe
Ġmemory view
ĠAl ready
ĠCh ar
ĠPre paredRequest
ĠTemplate SyntaxError
CC ESS
Ġlimit ation
Trans fer
PRO XY
æľ Ģ
widget s
Ġrece ives
Index Error
Do esNotExist
encry ption
Ġsel enium
Ġauthor ity
Ġrel ations
ĠHyper Parameters
255 19
analy ze
ĠFI RST
~~~~ ~~~~
íķ ĺ
íķ ľ
Results Name
wind ll
('. /
prob lem
Ali gn
optim ize
Ġsw itch
Rho RadioButton
Th read
credential s
cour se
Ġwor ld
Ġconcat en
Ġproduce d
ĠReg ister
Regexp Matches
Qual ifiedIdentifier
Ġph ase
ĠAc count
Descri ption
ĠCertificate Error
ìł ģ
pet ition
nest ed
è¡ ¨
ĠHow ever
Ġ655 36
Alter Field
rout er
ĠFIX ME
slic ing
ully QualifiedIdentifier
ĠNum ber
398 6
Ġeps ilon
ä¸Ĭ ä¼ł
irection al
nto a
Ġbau d
umbn ail
Ġgran ted
' }<$
) ;
) }
6 57
: {}
> :
> }
A ccessKey
B it
B ytesIO
B IDDEN
C MP
C aught
D LE
E scape
E arly
E POL
H KDF
L Y
O ffice
O ULD
P ow
P lease
R el
R ANGE
S cal
S ESSION
T P
T ab
U nsupported
W idth
a i
b ce
c b
d l
d saObj
e q
e ce
f bc
g cd
g rained
l lite
m erge
p d
u it
u DNN
x c
x ception
} `
± »
µ ëĭĪëĭ¤
å ģ
ç ±»
í Į
Ġ um
Ġ vectors
ļ °
Ġt up
Ġt ell
sel u
Ġi explore
de rers
Ġa ffect
le ave
Ġf ast
Ġp m
Ġp ol
Ġp lease
Ġp oll
Ġp andas
ur se
Ġ" (
Ġin key
ing er
Ġe g
Ġe scaped
Ġ# ################################
Ġ' [
Ġd z
Ġd raw
Ġd av
Ġd uplicate
ate llite
ent s
co pied
Ġm ar
Ġm name
Ġm value
ra py
ri cs
un quote
Ġ( )
get cwd
ck pt
int r
ch a
th reshold
di ctionary
Ġnot ation
iz ations
Ġcon stants
Ġcon venience
um s
Ġ1 15
Ġ1 86
ab stract
Ġl iter
() ).
ĠS ET
am ily
am ount
ĠI CMP
ig uous
Ġu sually
ist a
ĠA void
ĠA symmetric
Ġst ores
Ġco re
Ġco urse
ex er
ex act
ex pect
ĠD SS
et y
Ġ2 4
pre release
Ġen able
Ġme as
ĠL oc
Ġ__ ___
Ġdi visor
OR M
res hape
ĠM ongo
ff set
ĠO PTION
ĠV ista
'] )
mo id
ER TY
lock discovery
FF FE
Ġpre process
Ġpre ferred
Ġ3 04
Ġun specified
#### ###<$
[" _
back off
Ġtest Decode
Ġtest Encode
ĠB LAKE
ĠH idden
pp ll
ĠN ew
Ġrequest EL
RE G
form field
ĠG HASH
request ed
ec c
Ġnew self
xFF FFFFFF
Ġ| /
ID ispatch
ĠIn ter
Ġ4 7
Ġdist ance
FOR BIDDEN
Ġloc als
ref resh
AL LOW
comp s
MAT CH
ific ant
inter n
Ġ\ |
TR AN
File Name
Ġca file
50 6
be e
be g
mit ting
ep rom
SSL v
De vice
De pth
Ġadd s
Ġstart Tag
Ġcheck point
pos al
LO UT
Ġcom ma
AC C
Ġpy win
End Tag
call er
sub plot
Ġsub train
Test Vect
An Admin
su bject
Ġho me
-------- -<$
Ġcal c
ach ine
SE PAR
11 91
Ġstate ment
Se arch
FI PS
Ġup dating
Not Any
Ġend s
UT O
Ġmult ip
plo ts
Ġpla ces
TION AL
Ġinitial ization
byte size
Ġret String
Reg ister
Ġserial ize
Ġsc an
Ġad just
ĠTest OtherCiphers
parent s
TER S
37 4
37 10
Ġ200 8
bot tom
SU AL
Al low
Ar gs
Ġsend s
child Res
Ġimplement s
gh i
serve d
User AnAdmin
24 45
Ġ". "
ident ity
Ġpoint R
plot ting
Ġì ŀ
Ġlocal e
Ġref url
Lo ad
cal culate
Ġexample s
EX TEN
Ġsuccess fully
Ġpk cs
Ġsegment s
Ġreason s
Line ar
Ġretry able
Ġclean ed
Client Token
Ġmulti part
Ġprop update
Ġpa inter
free ze
Ġlook ing
dot env
With HMAC
Ġsim ulate
ĠIN IT
è¿ Ľ
Ġcomb ine
ĠOr deredSet
Int s
Ġident ifier
Ġhapp ens
Session AccessKey
Ġsymb ol
Ġbuil der
Proxy Error
gre en
Ġwsgi App
.*) ",
Ġfl ask
ĠTh at
mime type
çŃ ¾
ordin ates
Exec ution
squee zing
itor ing
65 204
piece Tokenizer
sched ule
OPEN SSL
Ge ometry
So ftware
CHE CK
Ġê² ½ì
ole obj
Mark up
//////// ////////
look ing
ĠGeneral ProxyError
DARK ER
å° ı
Loc al
Ġprior ity
EC DSA
Ġspe ll
peer name
We ight
æłĩ çŃ¾
Sc ript
Ġanc Group
ĠIMP ORT
NIRC orrection
ðŁĮĹ ðŁĮĹ
Ġdiscar ding
Final ized
VI SUAL
ĠSH ORT
Ġwind ll
Ġmer ged
ĠIs UserAnAdmin
ĠBe cause
Ġindivid ual
ìĬ µëĭĪëĭ¤
DEP TH
Ġpunct uation
ĠWhe ther
Ġcompla in
Sto pping
aw n
lev ant
encipher ment
Ġdiv mod
393 172
æĪĲ åĬŁ
Ġsever al
TEMP LATE
117 393172
ä¸ĭ è½½
Division Error
PROP ERTY
mys ql
sertion Error
phot o
alle l
cri min
ìľ ¼
Ġinstru ctions
Ġsitu ations
occur red
CONTR OL
Early Stopping
ĠMongo DB
TestVect ors
SEPAR ATOR
Ġê²½ì ļ°
" })<$
# ]*
' '
( \
) [:
* (
* ,
. '.
/ ",
2 38
5 00
6 36
8 00
9 2
= {}
> %
> ,
A A
A GE
B E
C s
C urrent
D ark
F irst
F LOW
G IN
G DAL
H andshake
I B
I E
L w
M on
M AP
M achine
P a
P ackage
P ressed
P KEY
S p
S plit
S heet
T rain
U ns
V elocity
Y PE
a velength
b an
b lob
d ra
d uration
e le
f allback
g l
i ke
j i
k t
m ust
n an
p in
p id
r x
r unc
s uper
t tl
u g
u u
v olume
w ill
x FC
} ",
~ /.
¥ çļĦ
å ľ¨
ç §
é Ķ
ì Ħ
Ġ ri
Ķ åĽŀ
in x
in formation
re p
at tention
at omic
or ld
Ġt reated
al f
de tected
de leted
ar in
ar ange
Ġc r
Ġc ss
le cted
Ġf ar
Ġf allback
Ġre build
Ġre duction
Ġp b
Ġp ay
an im
ct ype
Ġn grams
Ġb ar
Ġb ba
Ġe mbedding
Ġ' +
Ġd en
Ġd ur
co ord
Ġm ut
pe ed
__ .<$
ra ys
val ve
int s
Ġto ol
Ġto ld
Ġan onymous
xt ure
ĠT emp
ĠT odo
ve red
end ing
end QuoteChar
Ġnot ice
', )<$
od ay
Ġh andshake
Ġh aving
Ġth ings
(' ',
Ġex plo
Ġl m
to bytes
all ing
ĠS u
ĠS ub
ĠI gnore
ĠI deal
quest ion
ĠA verage
Ġr sa
ĠF ore
ĠF ast
ĠF LAGS
pro g
ĠP rint
ĠP RIVATE
ĠD AT
assert Count
Ġ2 6
pre p
Ġpro file
Ġpro cessed
Ġme sh
Ġme mbers
py pi
OR DER
res ol
add Handler
ĠO ut
ĠV is
ER Y
Ġal ong
Con stant
time stamp
if est
valid ator
Ġpre pend
Ġpre pare
Ġset Up
Ġ3 00
Ġ3 03
Ġwe ek
com bin
Ġun aff
Ġun iversal
ha ve
ĠW K
om ial
Ġtime delta
loc ator
info s
http lib
join s
fe ed
ac ked
EN ER
EN TRY
"] ))<$
ID DLE
Ex p
reg ular
pr un
Ġnode list
Ġloc ations
ĠR rs
comp romise
og ui
10 5
Pro ject
Ġcol lected
St at
Par ameter
LE V
SI DE
SI MP
ump tion
local e
30 6
AC HE
Ġpy lint
Ġvalid ated
Ġvalid ators
Ġ7 9
Ġbase name
)) ?
Un expected
ĠHTTP S
dist inct
html Entity
no ise
temp t
Ġbody chars
Ġyield s
run time
arg in
Ġmo ving
Ġover lap
quote Char
Ġdis card
ick er
Ġrun s
GE OS
Ġconst ellation
Ġsome times
dis k
mult ip
pri me
Ġfin ished
Me ter
Ġtemp er
initial ized
ĠST AT
fr uit
hex digest
ĠPy Qt
Ġyour self
pl ugin
Ġ'/ '
Ġexec utable
Ġref resh
ĠGener ated
Py Object
Ġseparate ly
cli p
Ġsuccess ful
task s
23 12
DR outer
Ġreason able
ĠName dTuple
Ġqu eries
Ġge o
Ġreference d
Ġcallback s
Ġnorm ally
Admin View
gacy Version
mar ize
custom er
Ġcli ck
Dis position
Ġrepresent s
Ġtar file
åº Ķ
ĠExt ension
{: >
Ġdelim iter
Ġdelim itedList
Ġident ify
Ġoptim ize
SC RIPT
Ġstrip ped
CheckBox Update
çŃ ī
Exec ute
å¼ Ĥ
å¼ ı
BACK END
æĪ ·
ĠAN SI
FIN AL
Ġturn ed
çĶ¨ æĪ·
eni ed
Ġdetect or
Run ning
Ġflat ten
Mark er
Ġmat rix
Export Key
aut ogui
Ġhyper parameters
ĠInstall Requirement
Method s
Cur ve
Ġrespon d
ĠSign al
rand int
Ġ? (
Ġ'" ':<$
Debug Action
alph abet
Ġcf g
Ġcar ry
WIN DOW
cap acity
Act ive
Ġgre edy
Be fore
ç® Ĺ
ĠUsb Tools
Ġë°° ê°Ģ
Big AutoField
IGN ORE
İ· åıĸ
ĠParsed Version
EXTEN SION
crimin ator
ĠAverage Meter
assertCount Equal
Ġunaff ected
IDDLE WARE
htmlEntity Map
" **
" ``,
( (<$
( ["
) !=
) ".
+ <$
, ))<$
1 12
3 57
5 35
8 5
: #
> '<$
A ss
A UTO
B R
B atch
C rc
C RIPT
C ATED
F loat
F etch
F ullyQualifiedIdentifier
I s
I ABLE
J ar
K R
L AT
L ite
L ive
L ABEL
M IDDLEWARE
N orm
N ORM
P attern
P latform
Q os
R OM
S QUARE
T ES
T itle
V alve
[ (
\ <
] ]:<$
_ (_
_ """)<$
c r
c umul
g ab
g uid
g ateway
g aussian
h ps
k Sec
k erastuner
l ations
m m
m er
m as
m Request
n umpy
o od
p ic
p mt
q size
r m
s r
s sed
s ince
t ot
t wo
v r
w alk
Ñ Ĥ
è ĥ
é ĥ
é ĩ
Ġ ),
Ġ Ã©
Ġ joint
Ġ ç»
Ħ íĮ
ī ²
Į ìŀ
ĸ çķ
ĺ ìĬµëĭĪëĭ¤
$> {
$> --
se a
in i
in crement
re vert
re vision
re windable
at he
at trib
Ġt lb
en neth
Ġi mplemented
de cl
de compress
Ġa z
ar c
Ġc c
Ġc ell
Ġc ross
le thon
Ġf etch
Ġre pe
Ġre use
Ġre quote
Ġre levant
Ġp in
an no
Ġin line
Ġs dist
Ġs atis
ame file
mp t
Ġd omin
def er
def initions
Ġw orm
Ġw ater
Ġw riting
Ġm k
Ġm time
ot hesis
un op
un declared
Ġ( *
Ġ( _|
Ġreturn ing
ort h
get response
int o
th ough
th umbnail
di visor
set uptools
set Level
end er
end ored
con t
con dex
con tinue
con fidence
od d
Ġh r
Ġh igher
ect ion
(" :
(" [
to re
ver bosity
Ġ[ `
ĠS tore
am s
ĠC lo
ĠC ustom
ĠC MAC
ĠC oding
Ġ* ,
ase d
Ġde al
ĠA b
mat er
Ġco s
Ġco res
-- -
ma g
ĠF ail
ĠF ilters
Ġ{ %
pro vi
pro bers
us age
oc Ãª
Ġte lethon
head s
ow els
Ġ2 2
attr getter
app name
Ġg ui
pre ssed
Ġpro gram
Ġme ant
Ġme gab
ĠL O
Ġget ting
ta ch
Ġ< /
add base
add close
ĠO ID
ĠO mitting
Ġresult ing
__( *
'] ={}<$
Ġfile size
Ġhas her
Ġal igned
Ġal ignment
Ġout side
ust Result
Ġun safe
ĠRe itz
im ap
ĠB ot
ĠB ig
pp le
Ġ`` <
ĠN ULL
ĠN UM
RE Q
RE TR
col ors
ĠG B
ĠG AME
http bin
Ġat ten
[: ]
ac cents
state ment
base dir
Ġso on
Ġle aking
"] ),<$
Ġ| -
ID S
pen alties
ĠIn ternal
ĠIn vokes
SS ING
Ġres pect
Ġres hdr
Ġ4 2
char d
Ġcomp act
ĠR atio
AR D
Ġurl fetch
Ġext ernal
yn omial
TTP SConnection
Ġmax size
Ġ\ "
Ġconfig ure
TR ADI
sa mpling
ie ve
Data Get
") .<$
stri de
AN ESE
Ġadd to
LO CAL
Field ListFilter
Ġobj s
lp f
Ġsu g
Ġz file
Get TypeInfo
Ġsp acy
ĠSe ssion
ĠSe arch
OM AIN
Un able
ĠQ ueue
su res
Ġcal ibration
Ġper mit
Ġper iod
11 11
Se par
LI FIED
Ġab c
SA GE
Ġindex es
Ġsign als
ide o
CON DITION
save path
Co okie
Co mpleted
Set up
by ref
exce l
Config File
AB ASE
Ġpassword s
SH TTPSConnection
pk g
pa use
spec s
18 0
ĠX P
... ".
Ġad ding
mark s
ĠTest Constant
ĠURL s
ĠPar ser
]] ]<$
lect ance
37 58
CK R
CK SHTTPSConnection
go v
ĠJ AP
order width
Ġq mix
Ġro und
Context Analysis
ĠPro b
ĠPro tocol
CS GroupProber
Ġauto escape
Ġpri mes
Ġutil ity
Ġthere fore
Ġtemp file
ĠSet ting
User Name
User Qos
Ġsa f
download s
Server Auth
Ġvis ible
State Error
State Machine
post args
ĠGet Bucket
Ġupdate s
Ġhash lib
Ġexec utor
Ġinstall ation
ĠK ORE
Ġë Ĥ¨
CF DataGet
Sec External
ĠMo ve
crc fun
Class ifier
image s
07 3
ĠParse Results
UP DATE
è¯ ¯
real file
Ġstruct ure
ĠerrSSL Cert
ĠerrSSL Peer
Pre v
Ġbin ascii
59 3758
Wh at
åĲ Ī
web driver
Ġscript s
cell s
}. ".
Ġge om
Ġquote s
Ġcrc mod
Ġoverri des
Ġoverri dden
ĠMoved Module
Public Format
æľ ī
Ġextract ing
Ġprogress Bar
Ġdim ension
Ġmulti headers
Web Socket
lap sed
ĠUser s
condition s
PRE CATED
clean up
Ġencrypt ing
TO COL
åĬ ¡
Ġpredi ctions
Do uble
Ġcandidate s
let ion
Fore ignKey
Root Cert
è¿ ĶåĽŀ
ĠLo okupError
Hel per
tran sp
Position Controller
variable s
GetBucket Re
FIL ENAME
ĠClient Error
mix er
Ġada pter
Ġmeta class
Lay er
gre edy
separ ated
CHAR S
Ġhandl ers
ENCRY PTION
COL OR
çŃ ĸçķ
ĠObject Identifier
Ġwho se
lex er
Ġclear ables
ĠEU CJ
ĠEU CKR
Select or
bound ary
Mult i
Ġband s
hi er
Ġkind s
Ġê² Įìŀ
ENG INE
Ġrout er
Argument Error
ĠHe re
Ġeffect s
ìķ Ħ
ìķ ĺìĬµëĭĪëĭ¤
Ġwor ked
itu de
Descri be
micro soft
ä¿ Ŀ
Ġspe ed
ĠStop Iteration
activ ations
Ġpair s
Imp ossible
One OrMore
æĹ ¶
272 8
Tr ustResult
ĠPool Key
addinfo url
errSSL Internal
Ġsuc cesses
ĠSO CKSHTTPSConnection
ĠUp date
HI TE
Ġobtain ing
NUM BER
LIB USB
CharSet Prober
ĠTar Info
å¤§ å°ı
floor div
ĠIter able
ĠVer ified
åį ķ
Ġprin ted
cod ename
baz file
Safe Array
perman ent
scal ar
POOL SIZE
ention ed
LOGI CAL
Pl ugin
æŀ ľ
Ġvi a
Ġ----- --
CLE AN
Ġgn uradio
Ġpol ynomial
inger print
Ġ################################# ################
dra ft
ìĦ ľ
LEV EL
SIMP LIFIED
Ġtemper ature
kSec TrustResult
mRequest Type
ĦíĮ Ĳ
athe red
Ġdomin ant
condex pr
ĠCoding StateMachine
addclose hook
RETR IES
TRADI TIONAL
ĠJAP ANESE
ServerAuth Completed
ĠKORE AN
ĠëĤ¨ ìķĺìĬµëĭĪëĭ¤
ĠEUCJ P
Ġê²Įìŀ ĦíĮĲ
" %
" <
" ^
) ')<$
) ",<$
* ]
- \
. \
2 30
3 52
6 1
7 56
8 40
9 39
: '
? )
C redential
C enter
C ACHE
D G
D own
D ump
D OMAIN
E d
E lli
J son
L L
L ast
L ink
M AN
N ET
P SS
P adding
R F
R ect
R ow
R oll
R ole
S ave
S ys
S kip
S cope
T ask
T ABLE
V irtual
[ ,
_ "):<$
` "<$
b age
b reak
b lack
b ulk
e mb
f A
g ray
h ens
h orizontal
i ms
j ack
l u
l strip
m n
n y
n ve
n av
p ve
p alette
p ytest
r r
r us
r ng
t aps
u ator
u do
v cs
w er
x path
| _|
µ ĭ
É ´
æ ¯
æ Ģ
æ ĭ
æ Ł
ê ²
ë ł
Ġ é
Ġ vector
Ġ question
$> /
$> ################################
se udo
in verse
re ation
re call
re ferences
re cover
at ty
or r
or se
or rent
or ator
or ized
Ġt x
Ġt abs
Ġi e
al Error
al idate
de vices
me mbers
ar ity
Ġc p
Ġc od
Ġc ycle
Ġc hecked
le g
Ġf a
Ġf act
Ġre call
Ġre assign
Ġre petition
Ġp ot
an ded
Ġ" ").
ro cess
Ġn c
Ġb box
lo gs
Ġs v
Ġs ing
Ġs il
Ġs ync
Ġs creenshot
as hed
mp ath
Ġe mit
Ġ# %
Ġ' |
Ġd y
Ġd river
li er
li ck
ad am
ent i
Ġw avelength
co erce
co efficients
__ :<$
__ ):<$
un used
un safe
"" ,
Ġ( [
Ġ( "",
ul ary
ser ted
Ġdef er
th at
th rott
la re
set Checked
ĠT ensor
ĠT ele
ve locity
con crete
Ġ_ `
Ġh d
Ġh ide
(" <
ol ation
Ġth us
Ġth reshold
ap er
Re set
Re vocation
qu eries
ab ling
to ml
() ["
all s
ĠS y
ĠC y
Ġ+ \<$
and s
Ġu uid
Ġde cl
Ġv cs
nt ity
mat ches
Ġst derr
Ġst udent
Ġco mes
Ġr w
Ġr dns
Ġra ster
out going
ĠP ackage
url encode
et c
assert RegexpMatches
Ġg u
pre pend
Ġen sures
ic io
ĠL ANG
file list
Ġget s
Ġdi ff
fig ure
res ses
ĠM an
ST ATE
ĠO SS
'] ]
'] ]<$
Ġch ain
Ġlist All
com bine
ĠU sing
ĠRe ference
om aly
** *
ĠB asic
DE TA
word piece
Ġ** __
ĠN ON
RE PO
RE AS
col lections
iv ing
ir d
min or
Ġint ended
ag ers
"] ):<$
Ġ| __
log o
Ex ample
Ġres ume
Ġ4 8
Ġ4 04
Ġcomp ression
') (
Ġnum eric
context manager
Pro gram
inter pre
ren cy
token Map
Ġca seless
([ ])<$
count ry
tag ging
De coder
wait ing
AN Y
place holder
Ġ5 00
Ġtext x
Ġtext wrap
Ġpy py
cur ve
Ġz eros
Ġsp atial
Ġsub class
ĠSe quence
)) [
Ġho pe
Ġver bs
Ġ10 5
Ġ10 6
sign ers
Ġper m
assertRaises Regexp
ne ed
DI R
ast er
Ġval or
Ġlock s
UN K
Ġsign ificant
22 17
CON NE
Ġmo dified
Ġmo dification
]) [
Set Console
Ġsee ms
17 98
Ġmin imal
Ġrun ner
77 7
MP TY
Ġserial ized
Time s
57 8
ĠDe precationWarning
mark up
win error
dest ination
Ġexp iration
Ġ'. '
Ġform field
Ġim mediate
ĠPro perty
CS P
upload s
Ġsent s
Ġlookup s
ĠCo okie
Ġsepar ated
åı Ĥæķ°
Ġredirect s
Edit or
ched uler
Ġupdate d
annot ations
buf size
gener al
Ġren derers
Ġlow est
Lo op
lookup s
sig moid
active state
tensor s
EX TRAC
EX CEPTION
Ġsession s
Ġmap ped
Ġsum mary
Up load
Ġright s
á´ Ģ
á´ ĩ
Ġgo ing
Pre fix
Pre diction
sm all
Ġshort er
Ġtri g
ĠEn able
Ġdistri bute
hot o
ĠRSA PrivateKey
Wh ite
ä» ¥
ĠPre process
Const raint
Ġbound s
II R
æľ Ł
Ġaccept s
Ġmulti path
Dis able
MIN MAX
ibr ary
icon s
rot ate
certificate s
"> <
HBox Layout
Ġdec lared
candidate s
ĠContent Type
tl s
Ġstore d
Ġmean ing
USER S
VAL UE
ilar ity
Per form
----- <$
reason s
Ġada fruit
joint s
dat atype
Ġ"' %
ĠObject Prediction
Ġthrow n
ðŁĮĳðŁĮĳ ðŁĮĳðŁĮĳ
Ġbl ue
Ġmon key
ĠAN Y
(': ')
ĠArgument Parser
Ge om
PORT S
Ġatt n
>> >
Ġfore ign
Ġeas ier
ĠCON DITION
Decode Error
Authentic ate
ĠFtdi Logger
mk dir
Ġweb socket
ĠRa ise
ĠRa ises
Force Mon
Style Sheet
çķ Ļ
âĸĶ âĸĶ
âĶģ âĶģ
WAR NING
equal s
Ġpen al
REF ER
ä¸Ģ ä¸ª
rece iver
ALI AS
cip al
Ġpack aging
Ġrestri ction
ĠReadTimeout Error
ç¬ ¬
Ġtw ice
ASC II
ì§ Ģ
ĠStr uct
Ġvari ous
Ġradi us
LST M
SOL VER
ìĹ Ĳ
ĠTyp ical
Ġliter als
Ġmultip rocess
ĠDAT ETIME
ĠOut put
Ġsug gest
ims how
jack ing
palette s
Revocation List
icio us
ĠlistAll Matches
DETA IL
REAS ON
Ġimmediate ly
ForceMon itoring
Ġmultiprocess ing
$ )(
' %
( {}
( """
) #
) \
) '),<$
) "),<$
- '
/ \
2 32
2 13
3 15
3 39
4 12
5 36
6 108
7 1
9 76
: {}".
> ',<$
A cc
A ria
A symmetric
B C
B in
B AND
B RIGHT
C Y
C AN
C orrection
C lause
C uDNN
D sa
D rop
D uring
D enied
F actory
F LAG
G M
G zip
G tk
H H
H Y
H andle
I mage
I mplementation
K IP
L oss
M a
N on
N ormal
P ush
Q MessageBox
R TS
S ta
T W
T op
T OKEN
T odo
U DE
U MP
X Frame
] ":<$
] `.<$
^ .
a ad
a op
b chr
b attery
c iphers
d ff
d om
d ll
d ummy
f ake
f rac
g zip
j ected
k a
k lass
l led
l sb
m iddle
o mac
p pt
p atched
r saObj
t list
t div
t odo
v sd
w riting
x fer
} :
} <
} âľ¨
± ¡
½ çļĦ
½ æķ°
Ã ¡
É ¢
æ ī
æ Ĭ
è ·
è ¾
è Ģ
è ī²
è ±¡
Ġ ^
Ġ ä¸º
$> **
re a
re ed
at al
at ile
at ural
Ġt aps
st ub
Ġ= ======
Ġi comoon
al ign
al iyunsdkcore
de construct
de termine
de tector
Ġa m
ar m
ar ound
ar win
le cun
Ġf name
Ġf old
Ġf spath
Ġre v
Ġre used
Ġre trie
Ġre vocation
Ġp seudo
ur andom
Ġ" !
Ġ" +
Ġ" :
Ġ" â
Ġ" "),<$
it ter
Ġn m
Ġin d
Ġin tr
Ġb a
Ġs ublic
Ġs lot
Ġs hel
Ġs nip
Ġs cheduler
as ctime
Ġe mbed
Ġ' ='
Ġd x
Ġd ynam
li ct
li busb
ate ly
ent ially
Ġw kb
fi sh
pt ic
Ġm entioned
urn ished
un link
un aligned
Ġ( _)
Ġ( ...)
get content
get env
is m
il t
il ities
int ranet
Ġto ols
ch er
set ResultsName
ĠT H
ĠT oo
ĠT ags
Ġ""" \<$
con firm
(" )<$
iz ing
ol atile
Ġth ree
Ġth readed
ap is
ap io
Ġcon current
Ġcon sole
(' {
Re port
Re qui
Re place
Re ply
Re verse
qu er
ass ignment
all prop
ĠS UP
ĠS how
ĠS alsa
ĠC ase
ĠC ipher
ĠC MD
ĠC PU
Ġ* =
Ġde q
Ġde crypted
Ġv len
Ġv btest
ĠA CC
ĠA ccessKey
Ġco me
Ġco ordinates
Ġr h
Ġr and
ma inder
ĠF unction
ĠF inal
Ġstr s
out dent
ĠP ublic
ĠP ROP
per i
url patterns
che my
Ġg ate
pre fs
pre trained
ang ing
init erm
ĠL inux
Ġ__ |
tri m
AT CH
OR Y
ext ranet
ĠM B
ĠM et
ĠM ain
add Action
ff t
low fish
ĠO b
ĠO CB
ĠV alve
sc rypt
qual ifiers
Ġal ter
Ġal ign
Con ver
Con struct
our s
In tern
FF IX
ĠE s
ĠE ither
Ġpre trained
Ġ3 8
Ġ3 02
Ġun declared
ĠU sed
read length
read lines
ca ching
IN VALID
Ġx max
Ġar rays
20 48
20 546
** \<$
loc ated
im ing
ĠB ER
ĠB LOCK
DE D
=' /
ĠN IR
mb ol
map s
ir ing
Ġlog level
En crypt
Ġnew style
ac curacy
=" ^.
Ġbu ff
.. /
base string
EN ABLE
01 00
Ġ| $)(
Type lib
Type Lib
Ġpass ing
crypt ography
Ġcomp s
Ġcomp ressed
ref Url
AL GOR
comp act
num erical
') ),<$
max imum
parse Error
iter ation
iter keys
og r
Ġspec ifies
inter mediate
âĸ Ĥ
âĸ ı
fix es
isp atches
Ġsho oted
Ġsho oting
Ġapp List
ren ces
Ġchar ge
Ġshould n
token Queue
ĠCon text
ĠCon nect
Request Result
Ġfunction al
tag Str
FA ILED
Ġac cessed
Ġac curacy
Ġline ar
pos itive
ba ud
clo sing
Field s
local ctx
Ġmatch String
Ġheader Dict
Ġpy wintypes
cur ial
Ġid entities
call During
Ġdoes nt
PO SITE
sub train
Ġ7 0
Ġ7 231
doc umentation
Test Property
Ġiter bytes
Ġ{} \
Ch ild
DAT AS
DAT ABASE
match ing
Endpoint Resolver
frame s
dist utils
Ġcode gen
OP TION
Ġent ities
Ġinter pre
cre ation
Ġup grade
ĠUn compressed
Ġtag Str
Ġsocket s
Ġhere by
AME TERS
55 5
CON STR
Co pyright
Ġsee m
Ġmult istatusEL
Config Regional
IT UDE
Ġdoc string
Ġdoc test
Ġmode s
Ġtorch vision
Ġremove s
PI O
PI PE
99 4
Ġret list
SH OULD
77 6
DAV Error
tra cking
App Author
0000 0
const rained
36 96
Ġexp onent
NO TE
last modified
AS GI
âĶ ĥ
lect ra
mult istatusEL
sy scall
Info Result
Ġim mutable
Ġfin ish
SU FFIX
Ġwant s
Ġq v
conn ected
Ġdest Url
Object Result
Ġass oc
Ġfunc s
Ġciphertext s
QU ERY
ĠPy OpenSSL
26 76
MD L
ĠDer Bit
ĠGet BuildFor
pl anes
Ġ". ".
sys config
Ġnormal ized
Ġchild Res
08 57
52 1
Ġ', ',
COM Test
crc Value
ĠRequest Methods
plaintext s
Ġaccess ing
IL L
07 0
Ġmac ro
Ġmac ros
Base Class
86 16
ĠDE K
Ġdifferent ial
Ġsuccess flag
Ġsum marize
Ġ'_ ',
49 18
ĠBase Database
distribution s
Ġ"/ "):<$
ured Data
my object
97 58
sock opt
ae f
istr ation
retry able
Ġinterface s
ĠCh ange
Sub label
vers al
static files
Ġfix up
Ġclean up
Ġmime types
Ġarch itecture
prop find
Str uct
Ca seless
bl ue
Ġop code
Ġprop Names
ĠCommand Error
Ġnecess arily
plat forms
repo Root
pat Parser
ret val
ciphertext s
CRY PT
101 5
ĠUnsupported Extension
ĠWSGI Server
Ġattemp ts
Ġsel l
primit ive
Ġconf licts
tran scrypt
ĠHyper Graph
sq lite
FIL TER
Per centLt
velo per
ĠClient Exception
acc umNames
mix ed
="" ,<$
rb racket
Resource Provider
icro soft
soft max
click jacking
Ġfl ush
ĠTh read
HO ME
]== '
mime encoding
Ġwho m
Query Interface
Ġ================================================================= ==<$
BACK OFF
åĩ ½æķ°
(", ")<$
Ali ve
Ġpp node
FIN D
Options Middleware
termin istic
ffffffff ffffffff
Ġec params
Ġ201 6
Ġentity tag
ĠTraceback Type
Ġactive lock
>\ <
dav mount
MI SSING
single L
Ġcollection Url
Ġexpi re
Ġexpi red
Ġcomm as
**************** ****************
Ġperson s
Ġ".. ",
intain er
perm ut
REMO TE
å¯¹ è±¡
And AES
Qual ity
ĠSocket Error
ĠZero DivisionError
Sig Scheme
ä¿ ¡
âĸĵâĸĵ âĸĵâĸĵ
æĹ ¥
ĠDec rypt
ĠBack end
salt val
ĠIMP LICIT
207 46
NIRC orr
push Button
ĠWith out
Ġlex er
("' %
7777 777
572 20546
Ġprece dence
rsaKey PEM
bal ance
hide Column
Mod ulus
Print er
conver ter
ĠMark up
manage ment
Decl Handler
617 2676
MES SAGE
ĠWAR NING
Ġprim Key
ç¤º è¯»åıĸ
697 9
å¸ ¸
Contain er
ĠConver ts
Ġrepo Root
Ġinher it
ĠCa che
ĠFT DI
ĠPAR AMETERS
309 14
ĠpropName List
Dig ite
SCHE ME
Ġut ili
SECU RE
ĠAlready Finalized
Ġconcaten ated
657 9
åģ ľ
Ġ'[ *]
ĠOPTION S
Ġpropupdate method
è¿Ľ åº¦
ìľ¼ ë¡ľ
={} ):<$
BE GIN
regular izer
å¼Ĥ å¸¸
éĥ ¨
mater ials
ĠProtocol Error
transp ose
ä¿Ŀ çķĻ
Ġ################################################# #<$
Ġpot entially
Ġsing ular
Program Data
REFER ER
536 97
Dsa SigScheme
XFrame OptionsMiddleware
Ġsublic ense
Ġshel ve
ĠPROP FIND
callDuring Try
DATAS ET
ConfigRegional EndpointResolver
ĠDerBit String
57220546 8616
6172676 572205468616
" (
" ',
" ##
" (?
$ ',
( .
) """<$
) }<$
, -
. ',
1 48
5 17
7 00
8 76
9 48
; ")<$
A v
A INT
B IN
B ert
C A
C ESS
C ancel
D N
D TR
E mail
G u
G OC
G ENER
H ttp
J K
M ac
M LE
M icrosoft
N ODE
P acket
P itch
Q ue
S un
S core
S hape
S hot
T Z
T ok
T ool
T AB
T imer
V ideo
W K
W hen
Y et
[ %
_ /
c ript
c Rot
d id
d up
d tr
d arwin
f B
f ingerprint
g f
g ates
g ently
h ang
h ard
h aps
i i
i el
l der
m ro
m mar
n py
n grams
p ot
p lay
p riv
q t
r file
s x
s se
t oday
w ik
x FE
z z
z fill
| %
} /
} }
} _{
¸ ë
Ð µ
Ñ Ģ
Ñ ģ
å Ļ
å ľ
æ °
ç ī
è Ĭ
Ġ $
Ĳ è
Ĺ ı
se ct
se ries
in ite
re ject
re plot
on ts
on ential
Ġt gt
Ġt aking
st ar
en ate
en ch
Ġi c
al o
al ways
Ġa f
me t
Ġc d
Ġc m
Ġc lause
Ġc amera
le ting
Ġf older
Ġre ported
Ġre semb
Ġp list
Ġp ump
Ġp db
Ġp ieces
Ġp alette
Ġp ytest
ur lap
an te
Ġ" ))<$
Ġ" %(
ro botparser
ro adcast
Ġn aming
Ġin cre
Ġin vert
Ġb ran
Ġb tn
Ġb mRequestType
Ġs r
Ġs s
Ġs li
Ġs ay
as Group
mp jpe
Ġo th
Ġo ss
Ġ' (
ate ver
Ġm al
Ġm utable
pe p
ot or
ra ble
ri s
un get
un der
un ix
Ġis suer
"" <$
il la
ser vers
._ .
el ve
el ap
ch ron
ss ue
ode tic
ers pectral
str len
la x
ĠT F
ĠT rain
ĠT HE
ĠT runc
con sume
Ġh ot
ol ar
Ġcon t
Ġcon v
Re LU
qu are
Ġex cluded
Ġex pose
ab ility
ab ilities
() ['
() [:
() )))<$
ĠS I
ĠS U
ĠS ent
ĠS kip
ĠS chema
ĠS ingle
ĠS QUARE
ĠI dent
ĠI ssue
ĠC all
ĠC RU
Ġde lay
Ġde cor
ĠA ctions
mat mul
Ġco efficients
ma chine
ma ster
ma cos
ĠF ind
ĠF rame
ĠF irst
ĠF ixed
ĠP ip
ĠP rivate
ĠD ownload
et ail
Ġte ch
assert Items
app lies
pre serve
pre processing
pre sen
pre releases
pre diction
Ġme m
file Name
AT ORS
py torch
res olution
ĠM S
ĠM and
ST EM
ST OPBITS
ĠĠĠĠĠĠĠĠĠĠĠĠĠĠĠĠĠĠĠĠĠĠĠĠĠĠĠĠĠĠĠĠ ĠĠĠĠĠĠĠĠĠĠĠĠĠĠĠĠĠĠĠ
add itional
ĠO pt
ĠO ver
ĠO per
Ġwh y
mo dify
mo ud
Ġy iel
ER O
In line
In clude
In voke
In sensitive
': '
ĠE mail
Ġun changed
ES P
Ġtime stamp
ME MB
Ġtest ing
ill ary
ĠN eed
ty ping
min ute
Ġbu g
Ġso ft
01 0
"] )
ID TH
log y
Ġhe atmap
Ġdist inct
Ġcomp liant
Ġloc ate
Ġloc ust
ĠR ho
AR GET
lin ux
write lines
') [
ard less
iter ator
FORMAT S
10 4
Pro gress
clu ding
fix ers
Ġne ither
ren dered
ree ment
Ġtr an
Ġ6 3
Ġ6 00
SI O
SI X
ðŁ ķ
TE GER
Ġac cur
Ġcheck sum
Ġvalid ator
ĠEx pected
call s
PO LIC
Get Type
sub mit
Ġ7 3
Ġiter ation
Ġpos n
Un icode
Un verified
ject ory
Ġopen usb
ĠHTTP Exception
Bu ffer
Ġ10 7
String s
Ġstate ments
Ġ-- <$
ĠY EAR
LI M
Ġab le
Ġinter section
Ġinter sect
table s
Ġindex bytes
Ġcert ifi
man ifest
ĠUn able
filename s
40 7
Set tings
Ġsee k
Ġreg ardless
quote s
protocol s
Ġgener ally
99 9
mplement s
files ystem
18 4
tra st
level name
bid irectional
install ation
Ġad vance
pop left
46 8
Ġfilter ing
ï¼ Ī
ï¼ ī
rf View
make file
Ġro botparser
Ġdownload ing
resolve d
ĠPro xy
ĠPro ject
RO W
Ġmark ers
ĠQt Gui
the y
std in
Ġcookie lib
exec utor
Length Validator
pred s
Cha in
åĪ °
72 7
warning s
Ġeval uated
limit ers
ĠCom bine
ĠGener ic
ĠDE PRECATED
Ġskip ped
}) ".
Ġ"/ "
ĠCreate s
ĠFile Open
igh ted
Num eric
Ġspace s
ä» »
Ġauthentic ate
vers ible
æĸ °
æĸ ¹
rest ype
Pass BandEdit
PRO JECT
PRO CESS
å¤ ©
Ġpage s
Ġrepresent ing
Ġpa use
ification Context
Message Middleware
ivation Function
BLOCK S
CO OK
sw ap
âĶĪâĶĪ âĶĪ
timezone s
aBASS Header
Ġdec imal
ĉĉĉĉ ĉ
ĠSer ial
sentence s
Ġlanguage s
Session Middleware
åŃ ĺ
Ġ] ')<$
Ġprevent s
Ġoptim ization
ðŁĮķðŁĮķ ðŁĮķðŁĮķ
Ġsen se
Met rics
VAR IABLE
creen Shot
car ri
å¯ Ĩ
BACK GRO
DES CRIPT
("- ")<$
Ġbehavi our
ĠDistutils Option
LOG GER
Min imum
Ġexport s
Status Provider
Ġhyp hens
may IndexError
ĠLog Entry
authentic ation
authentic ator
rd tr
cons umption
Operation alError
Ġeas y
Ġdot ted
å° Ĩ
Doc ument
Ġ"{} "
Ġsimilar ly
ëĤ ´
ĠAt tempt
Ġindic ate
Ac count
activ ate
ĠConnection Pool
Cur sor
JSON Field
ĠBack port
lli gently
ĠTrans form
ĠAuth entic
Ver ificationContext
Ġdig ital
concat enate
Ġdiscar ded
Ġreduce d
Ġbad Times
attery Provider
quoted String
ĠEnd point
("* ")<$
Install Requirement
VALID ATORS
Ġinv olve
Common Middleware
GRO UP
ĠPos ition
tinuous Flow
({" _
Ġhold s
ĠSpatial Reference
ĠWork s
Authentication Middleware
Light LineEdit
Annot ation
overri dden
Ġgra mmar
Ġcanonical ized
pas sphrase
ĠDef ine
åı¯ ä»¥
Security Middleware
Der ivationFunction
\__ _|_|
Ġdetermin ed
Ġbaud rate
Execution Error
Cs rfView
éĶ Ļ
Ġri pple
plugin s
EXTENSION S
èĥ ½
Ġcores chema
provi ded
Ġcod ename
EXTRAC TED
Sta mp
peri ment
Intern et
9758 3
DATASET S
GOC AD
NODE LAY
Tok ens
cRot ator
åĻ ¨
Ġresemb les
Ġoth ers
elap sed
ĠCRU DRouter
assertItems Equal
moud le
Ġyiel ded
MEMB ER
POLIC Y
ĠFileOpen er
creenShot Bot
BACKGRO UND
DESCRIPT OR
ĠDistutilsOption Error
CsrfView Middleware
" /
$ "))<$
' d
' }
) %
) `<$
, ),<$
- "
- =
4 52
8 2
9 4
: ')<$
= \"
> /
A g
A DE
A ccess
B P
B ytes
B ound
B SD
B ORDER
C ors
C licked
D r
D river
D uplicate
D osing
E P
E p
E gg
E fficient
F T
F oo
F tdi
G F
G UID
L P
M A
M utableMapping
N A
N e
O B
O pt
O ver
P ri
P TR
P lots
Q HBoxLayout
R D
R o
S um
S ome
T G
T CP
U V
V B
V M
V OC
V IIR
X E
[ \
\ '
\ ":
\ __,
` ][
b H
b t
b z
b ut
b ined
b tn
c ity
c ancel
c Clean
d k
d ers
d poses
f ns
g ather
h id
h get
j j
m c
m se
m argin
o ct
p le
p item
q os
r ink
s code
t g
v rd
w t
w an
w lock
w gt
x d
x f
x ce
y ou
y aml
z a
± Ĥ
· »
Ð ¸
å ·
å Ĩ
å ī
å Ĥ¨
ç ł
Ġ ul
Ġ virtual
Ġ lifecycle
Ġ åĲĪ
Ġ å°Ĩ
Ħ ä¿ĿçķĻ
Ķ ë
ĺ ģ
ļ Ĳè
$> '''<$
se qu
in voke
in cluded
re cent
re voked
at ory
er ing
er ation
er ous
Ġt la
Ġt ab
st re
en us
en force
sel ine
sel ves
Ġi gn
Ġi cons
al ter
de mod
Ġc n
Ġc ues
Ġf eed
Ġf requ
Ġf rac
Ġf urnished
Ġre pro
Ġre voked
Ġp c
Ġp id
Ġp hoto
te ll
an ums
ct ic
ro unding
Ġn a
Ġb For
Ġs ong
Ġs olve
Ġs cient
Ġs atellite
mp lots
Ġ# "
Ġo lder
Ġ' `
Ġ' ...
Ġd n
Ġd ang
Ġd yn
Ġd rive
Ġd uplicates
ad v
fi xture
co co
co vid
co pg
co ffset
pt cha
Ġm iddle
pe s
pe ll
ot ion
un expected
Ġis o
Ġis olated
id tracking
Ġfor cing
is dig
is Checked
ser v
Ġto gether
Ġdef ines
Ġan alog
th res
di ted
set Enabled
set StyleSheet
ĠT ri
key id
key word
con sumed
Ġh ad
Ġh av
Ġh mac
ol ate
Ġcon sum
(' {}
(' %(
(' *')<$
Re st
Ġ1 9
po v
ab is
ab lis
Ġl t
Ġ- ---------<$
to u
ver ification
ver bs
() :
Ġ[ {
Ġ[ ('
ĠS ave
ĠS IO
ĠS tyle
ĠI ts
ĠC I
ĠC urrent
ĠC annot
ĠC reating
ĠC ORS
ip y
ip po
and b
and y
Ġu gettext
Ġu sb
ction aries
ase pitem
Ġde limiters
ĠA ct
ĠA ns
## #
Ġ: -
Ġ: :
Ġst ark
Ġst uff
Ġco st
Ġco lo
Ġco efficient
Ġco ordinate
Ġco erce
Ġco vered
00 5
00 02
Ġr c
ĠF l
ĠF OR
ĠF ROM
Ġstr ategy
pro tected
ĠP o
ĠP RO
ex pref
us ion
Ġ` %
Ġ` _
per iod
Ġse ar
Ġg as
Ġg one
Ġg db
pre di
pre args
her oot
ms gs
ic all
ĠL ay
ĠL RU
tri ct
tri als
py pa
Ġdi ctionaries
ta ched
res olver
Ġexce pted
op le
), '
ST RE
Ġ< %
ho le
ho les
add Layout
ĠO GR
ĠV irtual
ĠV alidate
'] ](
Ġal g
In ventory
ĠE m
ON LY
Ġun pack
os ite
ĠW arning
20 19
loc ate
Key board
ĠB B
ĠB O
ĠB Y
ĠB oolean
new line
Ġtype Info
=' '<$
ĠN ormal
RE E
Ġsup press
iv ity
Ġlog its
Ġlog ged
min imum
Ġat omic
Ġat tached
Ġrange s
:// %
.. ..
ag reement
Ġ| _
da ily
Ex pi
ĠIn sert
ĠIn stance
Type Desc
Type ComboBox
Ġres olution
Ġ4 5
char det
wa velength
Ġcomp ut
Ġcomp osite
32 3
ĠR ange
ĠR NN
lin ked
config ure
method trace
Ġ>> =
Ġno me
ou se
ou te
Ġsh uffle
Ġsh rink
ren ce
Ġback slash
ant ic
ant ics
Ġcol l
Ġcol lis
Par sed
") :
56 2
ep s
ep end
count s
De mand
Ġac cel
Ġ/ *
Ġadd resses
select ion
Ġstart up
Ġ5 7
stream ing
Ġone Of
Ġtext str
Ġpy project
Ġz f
Ġz oom
ĠEx ec
ĠEx pression
print ables
doc info
Ġsub string
Ġsub sequ
Ġread only
ĠSe cond
)) )
match White
An al
Ġver ifier
Ġallow ing
Ġper ms
Ġper cent
Ġtrans lation
Ġtrans forms
SE P
temp dir
Ġab s
Ġinter cept
ĠKey DerivationFunction
fore ver
Ġup on
Ġup gr
=[ ],<$
UN SUPPORTED
ging Result
Ġcert s
Not ice
Not OperationalError
Ġtarget path
Ġcache able
CON N
38 0
script Data
script ors
return s
Ġ100 0000
Ġ100 54
PI P
Ġder ived
âĸĪ \
Ġtra ck
Ġtra versal
spec ifier
tra ction
tra versed
ä¸ į
ĠDe termine
bid ir
Ġcor rection
Ġcur rency
Ġselect or
mail to
HTTP Server
rs v
Ġwrite Byte
Ġbuild s
ome tries
Connection Pool
Model Mixin
bot h
men us
Ġro ute
Object s
Object Ptr
CS V
Ġsequence s
Ġsave path
Ġass ignment
normal ized
Ġexception Action
User Attribute
title s
åı ·
åı ĳ
the me
ĠPy Py
exec uting
State ment
Check er
RC NN
Start ing
post release
Ġ... )<$
color bar
ENT A
58 4
ident ifiers
Ġì ł
Ġenumer ator
Ġeval uation
Ġ', '.
serial ization
Ġ'__ |
HT MLE
âĢ Ŀ
final ized
ank s
ERROR S
Ġfollow ed
Ġaccess ible
NT LM
ĠCom mon
Py Variant
Py COMTest
Create d
ìĿ Ģ
Ġsuccess Action
Ġcharacter istic
Ġag reed
Ġ<< =
IP V
Ident ity
ĠBase SSLError
Ġ"/ *
ĠCreate Event
Ġnamed Items
skip Whitespace
LIN EST
Ġtri mmed
Le gacyVersion
ĠAl low
Ġqu ad
AG ON
Ġpe ople
Ref lectance
Ġnest ing
Sy mbol
torch data
tar info
ĠSSL v
ĠSSL Error
ĠExample s
Qt Core
Ġquote Char
Ġprotocol s
ĠInvalid Key
)- >
Client Error
Pass Arg
ĠIS O
å¤ ´
Ġdim ensions
Ġmodify ing
CU DNN
ãĢĤ """<$
Ġord in
NOT FOUND
Ġwidget s
Read Error
ĠJSON RPC
"> %
Ã© e
Dispatch er
tl b
Ġpop ulation
Ġbuil ding
cy cle
cy gwin
(', ')<$
åħ ĥ
dig ital
)+ "
Stream Handler
DD DD
ĠSystem NotOperationalError
Ġoccur rences
ĠSeaBASS Writer
Ġturn s
Ġstorage con
Whitespace Escape
è® ¾ç½®
Ġhyp erspectral
Ġpreserve d
RSA PublicKey
Ġpur poses
LU E
ĠDIS PATCH
ĠQuery Dict
WW W
pub s
tw elve
Ġpow er
Write Error
Write Report
æį ¢
ĠMessage Entity
åĩº æĿ
ĠInstall ationError
åŃĹ èĬ
AUTH OR
ĠInput s
UR CE
å¦Ĥ æŀľ
Change d
FFFFFF F
æİ ¥åı
Ġscal ed
ĠFormat ter
Vis itor
Ġintern et
Ġintern ally
ĠAd min
Ġrot ate
("* "):<$
æĮĩå®ļ åĪĹ
backward s
Common PasswordValidator
åĲį ç§
dur a
çĽ ¸
manage d
BY TE
æŃ £
è§ Ħä¿ĿçķĻ
semb le
Ġtun ed
Ġdescri ptions
comm asepitem
ĠWrap s
ĠBit Sequence
Ġ'{}' ".
IST S
Port s
Sent inel
Want ReadError
Want WriteError
peek able
DIS PATCH
ëĤĺ ìĿĺ
Dec rypt
MAG ENTA
Sim ilarity
mus ic
war ded
Ġbrowser s
Ġdevelop ment
Ġattack s
BLACK LIST
Private Format
Post Code
Ġè®¾ç½® åĪĹ
Mi B
Zip File
lar ge
nor mpath
éĿ ¢
Ġest ablis
poss ibly
Ġaltern ative
); \
Pow er
TP FLAGS
dl Name
Ġmar ked
ĠAsymmetric Padding
ALLOW ED
TRAN S
Ġspell ings
PROPERTY GET
IB UT
feed forward
Stat Result
ĠSTAT US
alphabet ic
Platform Error
cont iguous
ĠClo se
ĠProb ably
GetBucketRe plication
çŃĸçķ ¥çļĦ
Elli ptic
Skip ping
æ¯ ı
Ġé ļĲè
$>################################ ################################
Ġgu ar
ĠStruct uredData
Push Button
Ġintr ins
Ġdynam ically
ĠTH IS
Reverse Match
ĠSUP PORTED
baud rate
Ġinterpre ters
CONSTR AINT
çī ĩ
Ĺı æĮĩå®ļåĪĹ
ĠIdent ifier
Ġtech n
Insensitive Dict
GetType Attr
Numeric PasswordValidator
ä»» åĬ¡
Minimum LengthValidator
éĶĻ è¯¯
MEMBER NOTFOUND
Efficient Net
VOC AB
·» åĬł
çł ģ
ĠåĲĪ è§Ħä¿ĿçķĻ
Ġscient ific
Ġdang erous
isdig it
Ġhav en
Ġsubsequ ent
Ġupgr ading
UserAttribute Similarity
HTMLE ntity
LINEST ATE
WhitespaceEscape s
åĲįç§ °
Ġestablis hed
Elliptic Curve
ĠéļĲè ĹıæĮĩå®ļåĪĹ
CONSTRAINT S
ĠåĲĪè§Ħä¿ĿçķĻ çŃĸçķ¥çļĦ
UserAttributeSimilarity Validator
! #
! ".
" (?:
$ ")<$
' <
' m
' ',
( """<$
) =
) ("
) ],<$
* /<$
+ (
+ ')<$
, %
. /
/ '<$
3 56
4 70
5 98
6 56
7 4
7 86
= ':
> .<$
> ",
B asic
C y
C ar
C OD
C FA
D ense
D CB
D WORD
D etail
E AD
E mbedding
F r
F ill
F requency
G N
H int
H ub
H idden
J o
K ind
L et
L ong
L ines
M ismatch
N G
N x
N AL
N ull
N GE
N AM
O U
Q I
Q Icon
R T
R ad
R AN
S m
S AT
S upported
S ingle
S ection
T rial
U B
U CT
U tf
V C
V ec
W E
W Q
W elcome
W HITE
W IDTH
X L
Y k
Z ERO
] /
] .<$
_ :<$
_ ):<$
_ ',
_ ()<$
_ {}'.
a head
a ware
b i
b ig
c lib
c lock
c alled
c ircle
d y
d st
e mbed
e asy
f h
f uck
g lit
g pu
g athered
h r
h ub
h ind
h igher
i os
j pg
k er
l n
l ue
m igration
n r
n v
q aa
r at
r ho
r pm
s v
s in
s oc
t i
t mpl
t abs
u ates
v os
v endored
w atch
w ildcard
w lis
x ffffffff
y es
z illa
} %
© ì
» Ñ
¿ Ð¾Ð
Ð º
â ĺģ
ã ģ
ã ĥ
ä ¾
æ ı
ç Ĳ
è ´
è ĩ
è İ·åıĸ
é ¡
é Ľ
ë ı
ì Ĩ
Ġ ï¼ļ
Ġ vec
Ĳ ľ
Ĳ ìĨ
Ľ ĲìĨ
$> """
in spect
in strument
in serted
re use
re cognized
Ġt k
st arted
en a
en ted
al ert
de tection
Ġa ff
Ġa mong
me sh
me ga
ar se
ar bage
ar ctic
Ġc ategories
Ġf e
Ġf ol
Ġf ron
Ġf amily
Ġre fer
Ġre curs
Ġre plied
Ġre places
Ġre trieve
Ġre lax
Ġp rank
te gr
ur istic
an c
an ism
ro lled
ce ive
Ġn args
Ġn Lw
ge odetic
Ġin fer
lo pt
lo ren
ing Request
Ġs q
Ġs al
Ġs leep
Ġs aving
as set
Ġo ps
Ġo mega
Ġ' ?
ad ow
ad ict
Ġw v
Ġw Index
Ġw alk
co ped
Ġm m
Ġm id
ot rans
__ ))<$
__ ==
is atty
Ġto k
Ġan gle
ch anism
str s
di es
di ble
set item
set timeout
set Column
ĠT ag
ĠT uner
ve y
end headers
key words
con current
con stants
con tinuous
Ġ_ |
od le
sp icious
sp arse
(" __
== >
Ġth ough
ap pro
ap ane
(' ='
(' =',
um an
Ġ1 14
po logy
Ġl sb
Ġl bl
() ._
() `.
put request
ith readed
Ġ[ *
Ġ[ ['
ĠS ync
ĠS trict
Ġas set
ĠI E
ĠI d
ĠC atch
ĠC TR
ĠC LS
ĠC alled
Ġlo ops
Ġlo sses
ew idth
age s
ist ics
list en
Ġde p
Ġv c
ĠA P
ĠA re
ĠA nd
ĠA xis
nt ry
ment ion
Ġpar allel
Ġco mplex
ĠF A
ĠF low
ĠF unc
ĠF lat
Ġ{ :.
out ine
ĠD own
ĠD ump
per form
Ġse ctions
url parse
app le
Ġg cd
Ġg arbage
Ġpro duction
ang les
ĠL ab
Ġ__ _|
ub e
py serial
py OpenSSL
Ġdi ce
Ġdi alog
ta ct
ĠM any
ĠM utableMapping
ST ALL
ST AND
Ġ< ==>
ĠO k
Ġwh atever
sc rapy
mo re
ER CRE
Con venience
In formation
ĠE lement
Ġout er
Ġ3 01
Ġ3 128
Ġ3 07
date d
os age
ha ust
import s
util ity
ĠW ait
20 14
ĠRe sult
ĠRe cogn
om ics
im uth
Key Error
DE F
DE X
DE FIN
DE LAY
Ġ** `
ill er
Ġ`` -
=' \
ĠN ull
ans ion
Ġsup ply
ĠG o
ĠG ather
ĠG LOBAL
ĠG PU
ĠG aussian
Ġpath name
01 7
"] ]<$
Ġ| <$
FOR M
FOR WAR
Ġloc ator
32 4
ĠR el
ĠR ed
ĠR ound
AR C
ters wlis
') [-
ard apio
parse Action
not ice
TH ER
Pro file
with draw
inter p
fix er
Ġcol lector
do odle
St ack
sa f
SI V
ðŁ §
Ġsuper set
SSL Set
ĠCon troller
Ġlin ux
Ġlin ewidth
Ġac cepted
Ġac cents
auth token
Ġ5 17
pos ix
Ġtoken Map
'. "
30 4
30 8
gorith ms
vid vrd
Ġargs pec
cur se
find ers
Ġz xy
Ġid s
Ġ7 8
Ġclass ifier
cond itional
ĠQ MessageBox
An omaly
Ġ(" /",
Ġver ification
Ġ10 9
Ġper formed
Ġtrans formed
Ġtrans lations
SE D
no me
Se cond
trans action
Ġ'' ),
current Text
ĠKey s
filen o
RI ME
Ġwrap s
Ġcontinue s
Ġsign ify
Po se
38 3
]) ]<$
vis ible
Ġ'% (
Ġerr check
Ġmult ithreaded
Ġ100 1
IT S
IT Y
work ing
work ers
Ġmin us
Ġ& =
encoding s
Ġcontain ed
99 2
AB CM
48 6
ĠDe pth
... ')<$
Ġsome one
Ġsc ra
0000 00
He re
const ellation
ĠFor ce
36 8
cor pus
LA ST
NO WN
Ġ'. '.
46 7
]] ><$
dis criminator
Ġpl ugin
sy mlink
37 0
Model Admin
To o
Ġdel ta
pri mes
SU CCESS
difi er
80 90
exp ansion
Or der
Text RCNN
mac ro
ĠConfig uration
Ġhost name
cat id
cat ids
Ġshow ed
OF T
position s
ched Signature
Ġì ķ
Ġexec ute
13 9
gener ic
au dio
Ġleft most
Parse Error
Ġ', '
Ġword pieces
Ġref using
OK UP
Button Pressed
66 6
39 5
IS O
Ġshape s
ATTR IBUT
86 01
ìĿ Ħ
Date time
Ġskip ping
Ġour selves
è¯ ¥
è¯ ·
}) ;
real path
Ġfail ure
á´ į
Ġinstanti ated
GR ID
Ġ"/ ",
ĠFile NotFoundError
eta chedSignature
sock name
pow er
ĠEn gine
ä» £
ĠPre serve
Ġspecific ation
Sign ingRequest
chunk s
true div
AP P
ãĢ ģ
Ġunicode data
ĠCF String
ĠPO ST
Ġcontrol s
ĠNo ReverseMatch
Ġsock opt
Serial ization
PRO TOCOL
Ġcho ose
construct or
Ġextract s
Str ategy
lr u
Ġè ½
Ġcli p
Ġbuffer ing
DO WN
Web socket
Ġjoin s
Ġlook s
Interface s
sw itch
Ġcons ist
Ġrece iver
Ġlar gest
Ġpredi c
Ġpredi cted
fit ness
stru ction
clus ion
ĠIN TEGER
Ġoc curs
Ġlower case
Mo difier
ĠUnicode Encode
Ġedit able
Ġdec lare
ĠLo op
ĉĉĉĉ ĉĉ
results Name
MOD I
PY THON
ĠModel Form
ĠWeb IDLParser
Match First
MO VE
RES ET
Word pieceTokenizer
ĠRE PO
velo pe
Ġsm art
Oper ations
Ġpers istent
Ġsen der
ĠBu cket
crement al
SO UND
AND OM
Code c
å¼ ķ
Ġ'{} '.
Ġwho le
Query Set
ĠAN D
ĠPY THON
Ġsw lis
Ġsuffix ed
Ġxmlrpc lib
Net work
Ġ201 7
ĠCA ST
Ġwave band
ĠPoly gon
book mark
ĠDatabase Features
rd ns
ĠLe vel
ĠHe ader
("" ,
Stop Bits
Stop BandEdit
Comp iler
ĠGeneral Name
ìŀ Ĳ
Ġdat as
trust ed
Ġtermin al
ä¼ ļ
Ġpat ient
Ġ".. "))<$
ĠTake s
ĠGEOS Geometry
ĠÐ ³
ĠÐ ¿Ð¾Ð
Ġexact ly
Ġindic ates
29 4
æĺ İ
Ġsur vey
wheel s
Ġrespon s
Transform er
Ġanc illary
ĠPool Manager
Ġactiv ated
Ġdig its
pf PassBandEdit
å¾ ħ
alph anums
Ġrot ation
Ġindivid ually
____ /
ĠTar File
Ġprece ding
Ġ"# ",
ĠVer ification
ĠHMAC Backend
DateTime Field
Ġquoted String
ĠPermission Denied
dur ations
çĽ ®
ĠAuto Model
Ġentire ly
squ are
ê³ ł
Ġdescri bed
Ġunits Line
Decl ar
('/') [-
fold ers
rts cts
ĠCor rupt
Annot ations
My SQL
pers on
pag inator
å¹ ¶
Cl asses
Note s
Ġfriend s
COMP RES
Ġgrad ient
Pump Drive
Ġ"@ ",
ĠBert Tokenizer
ĠNe gative
Ġappe ar
RhoRadioButton Your
Scal ar
}` **
abstract method
ĠLoc al
#]* ))?
anim als
Ġden ials
coord s
ĠFore ignKey
resol vers
ĠWK T
Exp and
prun ing
multip ly
Ġsuccessful y
BR ACE
Batch Norm
mas ked
rm tree
Ġaz imuth
Ġmegab ytes
Ġqmix pump
PositionController Feature
ĠTele gram
ĠSy ntax
ĠLANG S
1798 0
Bin ary
Ġ"! "):<$
ĠMet adata
ALGOR ITH
âĸĤ âĸĤ
Pitch Roll
Sun Angle
ench mark
Ġaf terswlis
ĠSent ence
ESP ACE
Ġtran sp
Ġaccur ate
LIM IT
æĸ¹ å¼ı
ĠAuthentic ate
Ġgrammar s
cRotator Angle
åī į
ĠAns i
ĠFl ask
ĠLay er
ĠEm ulate
Ġordin arily
æŃ£ åľ¨
Ġguar ante
wildcard s
æı Ĳ
çĲ Ĩ
ĽĲìĨ Į
Ġfron t
loren z
otrans form
continuous flow
apane se
ERCRE D
ĠRecogn ition
ABCM eta
ATTRIBUT ES
ĠUnicodeEncode Error
SOUND S
! \
" }<$
" *,
" ---
' ;
' (?:
) ],
) [:]<$
* <$
- *.
. )
. ",
/ ~
0 323
1 10
1 50
2 96
3 00
3 19
4 22
4 37
4 43
5 206
6 2
6 8
6 15
6 28
6 555
7 3696
8 38
8 57
9 32
9 07
: ]):<$
> ',
? :
? ',
@ !#
A AB
B IO
B INARY
B lake
C I
C ustom
C LU
C ATION
C lick
D ML
D SP
D ispatches
E DI
E GG
F D
F l
F ind
F AL
F av
G B
G H
G iven
G ING
G cm
G uess
G REEN
G ood
H as
H andl
H LI
H IT
I gnore
I ED
I ResourceProvider
J S
L amb
L ibrary
M b
M ain
M IME
N l
N v
N once
N eed
O J
P R
P LE
P ADD
R X
R b
R c
R AB
R ULE
S z
S LI
S ince
S CR
S uppress
T C
T K
T otal
T uner
V y
V AS
V olume
W ho
W ould
W sgiDAV
W HO
Z hang
[ @
[ ],<$
] %
] \
] "<$
^ {
a T
a ste
b ang
b Interface
b rowser
b lake
b orderwidth
c n
c te
c as
c name
c ise
c df
c gi
c bb
c Loc
c amera
d w
d ad
d sa
d Expr
d kl
d Anomaly
e ch
e ous
e eprom
e lectra
f name
f ast
f spath
f rozen
g ID
g rc
g db
h result
h beg
h alf
i V
i fo
i comoon
j kl
j jf
k f
k TLS
k jj
l z
l sdk
l js
m value
m ality
m eral
n ix
n proc
n ghi
n Credential
o ssl
o cks
p Get
p acked
r ing
r sp
r atch
s f
s res
s nip
s andboxed
s á´Ģ
t ics
u lo
u med
v st
v type
v btest
v olatile
w wa
x E
x z
x istent
y eb
z h
z i
} (
} -
} }"<$
¨ ë
¬ æį¢
³ µ
Ê Ł
á ŀ
å Ŀ
æ Ķ
ç «
ç ´
è °
è Į
é ħ
ì ĭ
ì Īĺ
Ġ å
Ġ ue
Ġ ORANGE
Ġ à¶
Ġ å¯¹è±¡
ĥ åĽ
ĳ Ĳ
Ľ åĩº
ľ %(
Ń ç»
$> -----
$> """)<$
$> ~~~~~~~~
in p
in ction
re m
re pe
re name
re write
re store
re pository
er curial
Ġt ro
Ġt sp
Ġt ight
Ġt orrent
Ġ= ========
en ge
en ance
Ġi de
al tern
al iy
al iases
de ps
de cipher
de precation
de serialize
de terministic
Ġa mb
me ans
he st
he meral
Ġc adata
Ġc rl
Ġc wd
Ġc ircle
Ġf all
Ġf req
Ġf gd
Ġre create
Ġre pl
Ġre store
Ġre named
Ġre plication
Ġre tob
Ġre served
Ġp r
Ġp riv
Ġp ush
te le
ur ger
an alysis
Ġ" |
Ġ" -----
it ivity
Ġn l
ge red
Ġin p
ut down
Ġb w
Ġb om
Ġb org
Ġb oot
ing u
Ġs g
Ġs se
Ġs at
Ġs res
Ġs pect
Ġs ieve
mp sse
Ġe ds
Ġe vp
Ġ# ################
Ġo k
Ġ' :
Ġ' ;
Ġ' ..
Ġ' :%
Ġ' ::
Ġd rain
li fied
ad vance
def ine
def inition
Ġw sg
Ġw andb
Ġw wwa
Ġm is
Ġm iss
Ġm hash
Ġm ouse
un ame
un ted
un ary
un hexlify
Ġis partial
"" )<$
"" ))<$
"" ).
Ġ( <
Ġ( =
get list
get FilePath
get tempdir
is close
is null
is nan
int enance
Ġto u
Ġto bytes
Ġto pology
Ġdef used
Ġan si
Ġan alysis
th ous
th rough
ss Error
la ve
la ps
set ter
set Tab
ĠT arget
ĠT oml
ĠT YPE
Ġ""" ).
Ġnot Chars
', ),
od ate
Ġh g
(" ["
(" ```
iz ard
Ġcon tin
Ġcon sume
ed ge
(' #
(' /')<$
(' {:>
Re dir
um b
um ing
Ġ1 80
Ġex cluding
Ġl df
Error Handler
to gg
all ery
all enge
Ġ[ -
cl mul
ile Header
ĠS a
ĠS ite
ĠS TR
ĠS pell
Ġbe hind
am Role
path sep
ime zone
Ġ0 0
ĠC RL
ĠC ryptography
Ġ* ")<$
Ġ* [,
Ġor acle
text creds
Ġu aop
able String
able Command
Ġde leted
Ġv r
Ġv ary
Ġv desc
Ġv ocÃª
ĠA nal
ĠA cc
ĠA LL
mat ic
mat ched
type d
type info
Ġst icker
Ġco unted
Ġr ing
Ġr adio
Ġr saObj
ma intainer
ĠF ix
ĠF ips
ht m
pro ps
pro cessed
pro gid
pro posal
pro vos
ĠP K
ĠP UR
ĠP aste
ex ist
ex periment
us k
ly Result
ĠD EN
ĠD isplay
per cent
oc b
Ġte m
app y
app dirs
Ġg d
pre process
Ġpro du
Ġpro posal
Ġen g
Ġen cipher
Ġen closing
lib Exception
ms Office
ic Strings
ĠL SM
ĠL ifo
tri mmed
AT A
ub s
py win
py parsing
Ġma g
Ġma gn
Ġget proxies
Ġget mtime
Ġget lastmodified
Ġdi ffer
Ġdi vision
ta ke
op classes
ĠM in
ĠM ore
lic able
add User
ff ort
ĠO B
ĠO CSP
ĠV T
ĠV iew
sc ene
'] ='
mo ck
mo ize
mo ment
Ġch acha
Ġch allenge
Ġy es
Ġy max
ER S
Con nect
In Scope
if ar
if act
valid ated
load ing
FF ileHeader
ĠE cc
ĠE MPTY
ĠE yeb
Ġpre pa
Ġset Debug
Ġ3 06
Ġ3 60
Ġlist ed
com ing
Ġun expected
Ġun sort
Ġun encrypted
Ġun ders
ĠU SER
read the
Ġprint able
ĠW ell
ĠW ILL
Ġar cname
20 55
`` `")<$
ĠRe v
ĠRe set
ĠRe store
** ")<$
loc n
loc ked
Ġtest ExportKey
ĠThe y
im ate
Key Serialization
ĠB atch
ĠB IO
ĠB lake
ĠB lowfish
ĠB lue
DE G
DE K
DE CRYPT
new s
ĠH appy
pp rint
=' ''<$
ĠN I
ĠN on
uth headers
lit er
AD ATA
col lation
ans wer
ĠG it
request method
und ant
est ed
act ivation
En It
En crypted
---- <$
Ġnew lines
min utes
Ġat trib
unc s
:// '
:// ')
:// ``,
ac ing
state ments
scri ptions
EN V
EN DEN
lat ent
Ex plo
Ex cLoc
ĠIn line
Ġj kl
Type Map
Type To
Ġk pt
Ġres name
rain fuck
Ġ4 75
Ġ4 231
Ġdist inction
Ġcomp ose
32 11
32 79
AL ET
ĠR XE
ĠR amRole
write able
response EL
response description
') "
') :
Ġresponse description
Ġversion changed
parse Impl
has Only
has Ints
og gle
yn chron
context filter
context function
Pro perties
Ġhttp d
Ġhttp server
Ġuser data
Ġmax ExcLoc
Ġspec ifiers
use nix
Ġapp arently
16 8
16 46
Ġsh ips
ress or
(). ',<$
main Controller
St andard
sa arin
50 3
Data Key
Par ams
56 49
ep oll
ðŁ į
ix el
Ġformat ting
([ (
([ \
([ [[
open sea
ĠCon tinuousFlow
Request Server
De f
De coded
De lim
De EnIt
Ġany way
stream s
python paste
Ġlength s
mode xp
local ize
Ġmatch er
lp ush
lp ubs
Ġcom mit
30 40
Ġpy ftdi
Ġpy autogui
ĠEx port
ĠEx patParser
ĠReturn ing
Get Set
Get Class
Get Doc
sub classes
sub trees
Ġ7 7
doc string
Test PyVariant
Ġ{} ://
lower case
Ġopen ed
pi kp
Ġli busb
Ġ10 3
64 204
64 206
sign als
Ġper f
Ġserver Address
ne eds
ne ji
Ġframe s
Response Type
Response List
SE MI
no op
no logo
11 8
Ser ies
Ser ving
group Box
Se u
DI SA
Ġ'' '),<$
Ġmake py
LI KE
cipher mod
Ġinter cepted
decode d
Ġmod func
table Name
Ġlock List
Ġlock Res
hash able
UN IC
Ġwrap string
Not In
Not Open
process ors
98 14
EL FFileHeader
22 9
Return Type
Ġcache s
Ġmo unt
Ġmo ves
save As
vert ise
feren cing
Ġover written
Set Of
off line
off Strategy
Ġerr cond
return String
Ġmult icall
17 9
03 7
96 5
96 6
Ġgener ation
Ġgener ic
Ġmin Max
Ġdis abling
ative s
ick s
(_ ("
Ġder ivation
Ġder Int
Reg ressor
edit ables
eval uation
Time Interp
Ġparent s
Ġparent path
18 88
struct ured
57 33
57 374
ĠDe lete
... "<$
Ġsome path
Ġad vertise
App lyResult
mark ers
mark down
Ġselect ors
ten Edit
Ġsy scall
ĠTest ApplyResult
win xp
14 395
ĠSHA KE
AS Y
Path Name
15 16
parent heses
remove d
Connection Point
Token Stream
ï¼ Ľ
sy copg
To String
To Position
To One
To Many
To Columns
To TypeMap
Ġtable Name
GI S
Me m
case Tokens
Ġhandle s
very thing
Ġprob able
ĠPro file
çļĦ å¼Ĥå¸¸
Ar nCredential
The re
initial Velocity
sd jjf
ĠCo py
ĠSet up
ĠSet tings
ffe rence
zip ped
Ġshow s
34 4
34 939
std dev
connect or
Ġ"\ \
Server TestCase
(* (
ĠAn not
({ !
Group Tuple
safe string
ĠDer ive
ĠDer SetOf
ĠDist libException
Ġta u
Ġ... )`<$
sha alg
ĠĠĠĠĠĠĠĠĠĠĠĠĠĠĠĠĠĠĠĠĠĠĠĠĠĠĠĠĠĠĠĠĠĠĠĠĠĠĠĠĠĠĠĠĠĠĠĠ ĠĠĠĠĠĠĠĠ
ipe dia
åĪ Ļ
Ġ". /
plot lib
Ġì Ŀ
Ġì Īĺ
Ġexec uting
Ġprivate Key
Qu oted
Qu ota
---------------- --------
PID L
Version s
au g
Ġren dered
KEY S
Ġke pt
Parse Exception
Ad ding
Ġref lect
Ġob UserName
Ġlow key
Ġdomain s
author ity
COM POSITE
crc Type
src Url
ĠRequest Server
Ġnamespace Handl
Back offStrategy
active lock
Py So
cal ibration
Ġrandom ly
Create Instance
pair s
ĠParse Expression
Out er
Add Field
Tensor Shape
xml rpc
è¯ į
Ġdisplay ed
sph inx
Ġsrc Url
Ġinstanti ation
Ġgo ogle
GR U
NI R
Pre serve
Pre Code
element InScope
Valid ationError
Ext Map
Ext ToTypeMap
card s
ĠName space
Open Key
ĠEn coding
ðŁĮķ \
ĠAl ter
search String
ĠDAV Resource
59 03
Ġpe ek
ĠPre pare
Certificate RevocationList
Certificate SigningRequest
åĲ ¦
web dav
Module For
ĠSSL Context
IG H
ud ge
ĠâĢ Ķ
}. )<$
Template NotFound
Ġreverse Child
ĠCF B
ĠPO SIX
Ġkeep s
Ġsock type
æľ ¬
204 26
Ġimage s
ĠDistribution Point
DO T
SER I
sec no
chat s
Ġprop value
Ġprop ResponseList
:] ),<$
:] ],
At tenEdit
Case InsensitiveDict
Gener ic
PRE CONDITION
ĠImp licit
pat ience
Feature Type
âĶĪâĶĪ âĶĪâĶĪ
_( """
CLS CTX
Do mainController
Ġrecord s
down caseTokens
att n
Ġoperation al
ĠSm all
exit Rule
Ġtrust ed
href s
Int rospection
expi res
PL US
ĠValue s
Ġchannel s
ĠWeb DAV
ĠHyper model
Band AttenEdit
Per mission
Per centage
Ġpop ulate
Ġvocab ulary
ĠField s
----- "<$
Ġ] ),<$
ðŁĮķðŁĮķ \
NF K
åħ ³
åħ ¸
æł ·
requ iring
Ġcap acity
CHAR SET
ĠError Printer
rec iter
="" )<$
can onical
fc b
206 16
igned Int
Ġfree ze
ĠTh us
Ġpkg util
ĠSystem Exit
READ ME
Exec Error
Call s
Call back
From Geom
lex ible
istic Pose
prob able
STAR TED
Cache Dict
Ali as
rin ge
Select Parameters
ä¸ª åŃĹèĬ
ĠComp ute
xl t
Ġexport ing
forward s
Ġplace holder
BO SE
Flow Rate
standard s
Ġband width
Entity DeclHandler
CRE ATE
Graph ics
Retry able
short er
æĸĩä»¶ åĲį
By Ref
Ġhyp othesis
POL LIN
POL LOUT
Ġflat pages
Ġsimp lify
ĠAs sertionError
dav Provider
Ġrout ers
Ġrout ine
LINE COMMENT
("" .
("" )<$
67 204
ĠQuery Set
Ġmat plotlib
ĠToken Type
Ġtermin ated
Ġtermin ating
BAD PARAM
Ġweb site
å¯¹ åºĶ
As sertionError
Sa mpling
commit ment
Delta Data
Ġhard ware
Ġhyper model
Ġbutton s
546 57374
Sig Ver
Toml Preserve
micro second
Ġdid n
octe ts
00000000 00000000
åĪĨ çīĩ
New Enum
Plot Path
We ak
éĢ ī
Ġserve Files
delim itedList
Ġbro adcast
Ġ'* '
ĠSign er
ĠDoc umentation
ĠMac Status
META FILE
Ġifmatch list
ĠAuth orized
Ġactiv ations
Ġacc ident
Redirect s
Redirect ing
ĠFilter ArgumentError
SUB CLASS
SUB SCR
Ġconsider ing
Location Result
ä½ ľ
Ġ27 017
âĸĶ âķ²
IM U
nist pubs
Ġpen alties
\. ?)
ìĬ ¤
report Error
DEP ENDEN
Undefined Error
Ġwriteresult list
rsaKey DER
020 3040
020 5733
ĠIter ator
Ġpeer creds
Print ableString
Rot ation
mong od
Ġprin cipal
Ġbecome s
Engine ering
NEW LINE
NEW ENUM
+" -
DL L
Ġtun es
ĠCOME xception
ĠPass ing
postgres ql
Ġê° Ģ
åĬł å¯Ĩ
Multiple Match
Sent ence
[^ \
gu ild
amb urger
trip Test
ĠWAR RAN
Character isticPose
Ġprim ality
gradient s
overri des
analyser s
Ph one
fm mod
ĠLine ar
Ġassume s
ĠGeometry Field
cors headers
Ġfriend ly
assertNot Regex
778 11
EvalContext Modifier
CHA NGE
Gaussian Noise
Zero OrMore
lk kjj
lk sdjjf
sli ces
Ġefficient net
Ġms Office
ĠPort NotOpen
ĠEval Context
organ ization
organ izations
æľĢ åĲİ
Ġrelations h
>} .<$
EPOL LIN
EPOL LOUT
Rel ated
exer cise
Ġmeas ures
ĠInter face
506 070
ĠpointR x
ĠpointR y
ĠwsgiApp lications
CHECK ING
Local ConfigRegionalEndpointResolver
Sp ace
Uns ignedInt
Ġpay text
Ġmut ated
ĠVis ual
combin ation
Ġ?( .*)",
WINDOW S
Ass ociated
AUTO MAT
revert Class
Ġrepe at
Ġsatis fied
defer rable
(": /
Ġaddto retval
lpf stop
ĠParser Element
Ġsaf ely
Ġ------- -<$
Last Modified
Virtual Resource
æŁ ¥
ê² ©
thrott led
Ġhd rs
ĠCy gwin
UNK NOWN
Perform NIRCorrection
Acc umNames
CAN VAS
Gzip File
HY PER
Ma intenance
É¢ á´ĩ
æĬ Ľåĩº
Ġretrie ving
ĠToo Many
confirm ation
Requi red
Replace Key
ĠOb serv
Conver ters
ĠGetBuildFor Gateway
Caseless Literal
Ġactivelock list
permut ations
20746 86
Ġinherit ance
Av ailable
Cancel led
onential BackoffStrategy
alo ader
Ġhot fixes
ĠSU CCESS
COOK IE
carri ers
ĠEndpoint Resolver
OB J
Pri mality
Ġfrequ encies
Ġconsum ing
Ġ:: =
Ġsear ched
ĠLRU CacheDict
STRE AM
ĠNormal ize
eps ilon
Ġaccel eration
ĠCommon Request
æİ¥åı Ĺ
GetBucketReplication Result
Ġintrins ic
Ġtechn ically
EfficientNet B
nr z
nv lpubs
soc secno
é¡ µ
éĽ Ĩ
Ġfe at
spicious Operation
ĠCLS ID
ĠRed undant
ĠRound tripTest
ðŁ§ ¿
OFT WARE
ALGORITH M
ĠRecognition Exception
FAL SE
Guess Me
Lamb da
Nl Ro
PADD ING
dkl s
kTLS Protocol
lsdk jf
ljs df
pGet Anc
sá´Ģ É¢á´ĩ
¬æį¢ ä¸º
èĮ ĥåĽ
éħ į
Ġue f
Ńç» ĥ
Ġtro uble
Ġide a
aliy uncs
Ġeds nlp
advance d
Ġwsg idav
Ġwwwa uthheaders
Ġispartial ranges
thous ands
("[" ):<$
Ġldf lags
ĠCRL F
ableCommand Instance
ĠDEN IED
Ġprodu ces
ĠLifo Queue
ĠEyeb alls
Ġprepa res
readthe docs
2055 73696
KeySerialization Encryption
ĠBlue print
Explo rer
TypeTo ExtMap
ĠRamRole ArnCredential
hasOnly Ints
saarin en
Decoded Response
Delim iter
DeEnIt NlRo
GetSet UnsignedInt
GetDoc umentation
pikp ak
DISA B
UNIC ODE
saveAs List
Quota Used
ĠnamespaceHandl ing
PySo cks
ĠreverseChild List
ä¸ªåŃĹèĬ Ĥ
BADPARAM COUNT
54657374 205573696
\.?) ":
DEPENDEN CY
0203040 506070
0205733 14395
CharacteristicPose Dataset
ĠPortNotOpen Error
Maintenance Form
ĠObserv ableCommandInstance
èĮĥåĽ ´
0203040506070 8090
! "<$
! '.
# --------------------------------
' __',
( .*
) >
) ._
) ==
) )):<$
) ])
) %(
+ /
+ ='
- .<$
- '),<$
- ]*
. |
/ ><$
1 98
2 16
2 64
2 76
3 58
4 56
: ,
: ").
< <
= __
= ("
= ('
= (<$
? ?
? ([^
A re
A ve
A pache
B N
B o
B ATCH
C L
C or
C ap
D on
D NS
D usk
E sc
E OF
E scaped
F ER
F ree
F LO
F ilters
F ixed
G W
G ID
G rid
I gn
I mplements
J P
J IS
J apanese
K W
K enneth
L C
L exer
L ike
M T
M erge
O x
O VER
P en
P age
P arent
P ak
P layer
P UN
P iece
P ik
P RIVATE
Q Graphics
R AY
S ING
S how
S patial
T ri
T arget
T rained
T ARGET
T REE
T ADATA
U ES
U UID
V ariable
V ED
W Prober
W alk
W HIT
X Cert
Z ONE
[ ...
\ ",
] ',
] ')<$
] .__
] ",<$
] +=
_ '
_ ))<$
_ {}".
` -'
a N
a pe
a vi
a wait
b on
b anking
c size
c ator
c pl
c ategories
c riterion
d j
d on
d an
d uplicates
e il
e ck
e th
e mit
e of
e ffect
e Plot
f q
f ort
f amily
g am
g allery
h it
h ib
h ance
i id
i ation
i ed
j u
j it
k top
l s
l er
l son
l bl
n f
n id
n dims
n fk
o lic
r ray
r adi
s il
s dist
s atis
t t
t le
t len
t atus
t ight
t ld
t idx
u h
v c
v oc
v ari
v cc
w itch
w kb
w kt
w hole
x r
x FA
z er
} [
} ',
} ",<$
} /{
~ '
¡ æľī
¨ ĭ
¯ å¾
² ¡æľī
¸ °
¿ çĶ¨
¿ éĹ
Ã º
Ð ½
ã ħ
æ Ļ
æ µĭ
æ ²¡æľī
ç º
ç ¨ĭ
ê ¸°
Ġ ðŁ
Ġ ]:<$
Ġ quiet
ģ Ŀ
Į æĻ
se ded
in ical
in complete
in struction
re ci
re present
re ferer
re itz
re versible
on ic
er n
er ator
or dered
Ġt s
Ġt rap
st s
st rap
st icker
Ġi r
al ong
al tered
de que
de cryption
de tect
de veloper
Ġc b
Ġc data
Ġc rap
Ġc enter
Ġc eil
le aders
Ġf r
Ġf lo
Ġf end
Ġf et
Ġf start
Ġf ake
Ġf resh
Ġre th
Ġre ject
Ġre cv
Ġre cip
Ġre windable
Ġre mainder
Ġre applies
Ġre ferencing
Ġp lay
Ġp print
Ġp ast
Ġp ools
Ġp rf
Ġp seq
Ġp lots
te x
ur u
an ion
an chard
Ġ" )
Ġ" ",
Ġ" :"
ro gate
it ate
it able
Ġn map
Ġin cur
Ġin strlen
ut ers
ut os
ut coffset
Ġb id
Ġb ert
Ġb crypt
Ġb az
Ġb ene
Ġs b
Ġs l
Ġs quee
Ġs igma
Ġs quare
ame tri
as i
mp ered
Ġe li
Ġe ffi
Ġe idx
Ġe eprom
Ġe lapsed
Ġe ffort
Ġo d
Ġ' '):<$
Ġd l
Ġd v
li p
li ation
ad itional
ent ries
ent ropy
Ġw l
Ġw ish
Ġw orth
fi ve
fi df
pt ime
pt ure
Ġm lp
Ġm sb
Ġm atter
Ġm igrate
Ġm Before
Ġm Prev
Ġm enus
ot onic
__ `
ri val
un ce
un squeeze
"" ,<$
Ġ( {}
Ġ( .*)"))<$
ul ator
get url
get opt
is on
is ing
il li
il itate
int ype
int rospection
ch al
str Re
la ce
set Object
set Window
rom ote
rom otion
ĠT op
ĠT ai
end lines
Ġ_ ):<$
Ġh alf
Ġh anded
Ġh anging
sp ans
sp acy
sp awn
ry py
Ġth re
Ġth rott
Ġth ird
(' ../
Re size
Re cursive
qu oting
um ans
Ġ1 90
Ġex press
Ġex haust
ab out
ab if
to fB
() (
() ',
() }<$
() `,
par ametri
Ġ[ ("
ile ge
ĠS R
ĠS Y
ĠS und
ĠS pan
ĠS KIP
ĠS JIS
Ġbe am
ĠI mplemented
path name
ĠC ho
ĠC SS
ĠC lass
ĠC andidate
ĠC JK
ig hest
ip v
Ġ% .
Ġ% }<$
Ġ* ,<$
Ġde tail
Ġv owels
Ġ: ]
Ġco ol
Ġco ord
00 10
Ġr rs
Ġr atio
ĠF ac
ĠF raction
ĠF lexible
Ġstr ange
Ġ{ {
out FilePath
out Dir
ĠP h
ĠP i
ĠP art
ĠP ump
ĠP latform
ĠP romotion
ĠD an
ĠD EL
ĠD esc
ĠD WORD
Ġ` (
Ġ` __
Ġ` -.
Ġse m
Ġse u
url conf
et ree
assert s
Ġ2 9
Ġ2 50
Ġ2 04
Ġg round
Ġpro j
Ġpro ber
Ġpro vid
Ġpro ps
Ġen ables
Ġme di
Ġme chanism
ĠL IGHT
py ver
py autogui
Ġget list
Ġget url
res um
res ize
Ġexce ed
tp l
ĠM issing
ĠM PSS
add Dataset
model admin
ĠO N
pec ified
qual ified
mo val
Ġy min
ER IC
Ġal gorithms
Con sumed
time d
In stalled
ĠE dit
ĠE GG
ĠE lapsed
Ġpre fer
Ġpre release
Ġ3 3
Ġ3 08
Ġun install
Ġun sets
Ġun cleaned
Ġun quoting
ĠU NI
ĠU sually
ore set
ca de
ca ke
Ġ. -.<$
format ting
ding Here
ĠW ill
ĠW orld
Ġar rival
20 8
`` )<$
ĠRe direction
ĠRe ceive
ĠRe moval
om Anal
** (
ME TADATA
Ġare as
cess or
Key s
Key chain
ĠB lan
ĠB LUE
DE VI
ĠH EAD
ĠH umans
ken neth
Ġ`` (
ĠN ode
ĠN ag
Ġuse rid
col l
form set
ĠG REEN
ĠG ini
ĠG PIO
ir Correction
ity Error
ys Label
En hance
En dingHere
unc il
[: :
:// ',
Ġcl ues
ded ent
=" {
Ġbu gs
Ġso up
Ġle ad
Ġ| (
Ġ| _)
Ġ| .|
log out
lat in
update d
Ġj ar
Ġj it
reg istration
pr in
node list
wa v
Ġcomp ilation
Ġcomp anion
ĠR ation
ĠR ight
ĠR DR
ĠR oute
AR G
AR RAY
Ġurl s
Ġurl encode
lin alg
write s
write ln
Name space
Name Mismatch
comp uters
config ured
') ))<$
') ")<$
Ġbyte strings
pla cing
TT ON
iter ations
Ġ(' -
not ation
Ġno ise
context lib
10 84
10 272
Pro ceed
with out
Ġmax EndingHere
Ġevent let
Ġne ar
Ġapp lications
Ġapp licable
ren gth
ant s
Ġcol on
File System
do ption
row se
row Count
mand r
Ġ6 5
Ġ6 8
Data Ref
Data GOCAD
be am
") ),<$
Ġ@ @
SI S
ðŁ Ł
we ek
Ġla w
Ġcurrent Node
TE CH
TI ES
De tector
De letion
train X
train y
Ġ5 9
host s
Ġtoken ize
stream line
clo ud
uto ff
Ġtext ure
Ġcom DCB
Ġsu do
Ġsu itable
ĠEx pect
print er
Get Full
sub dir
Ġ7 1
Ġ7 5
Ġsp am
Ġsp ans
Ġsub packages
Ġpos ix
Ch unked
)) ))<$
Un iversal
ps f
ps k
Ġopen er
filter TypeComboBox
Endpoint s
ĠHTTP ConnectionPool
Ġver ifies
Ġ10 8
ffi liation
Ġ9 5
Ġper centage
Ġper mut
sent ially
FI ER
of s
DI M
ĠY EL
LI S
Ġinter mediate
current ly
Ġmod ulo
buffer ing
=[ [
=[ ],
UN IX
Ġcert data
man ent
ĠUn verified
ĠUn rewindable
Not Yet
shape s
98 12
98 50
98 15
98 24
98 13
98 39
98 07
98 43
98 47
98 41
98 09
40 8
22 3
Ġreq s
Ġpart ially
Ġmo ck
vert ical
]) ))<$
vis ibility
Ġover all
Ġover lay
17 0
IT ext
PE ERCRED
Ġdoc s
work er
Ġtorch text
Ġdis cord
={ <$
ci ency
Ġcontain er
Ġwhere as
99 7
AB C
eval uates
Time tag
package d
18 2
Ġsc ipy
link er
App Engine
flow graph
ĠURL conf
ĠURL Fetch
ĠURL Required
HTTP HeaderDict
('\ \
CT WProber
Ġman ual
Ġglob ally
dis position
Ġpl an
Ġpl us
ph one
ph ases
fail ures
go od
ĠAr g
pri or
ĠJ son
Me an
Al t
Ġro ll
compile d
gra b
Object Identifier
Ġprob ers
Text Input
Ġass umed
Ġass uming
Element Enhance
RO OT
ĠCo uncil
ĠSet s
ĠNot ably
ĠNot Supported
Ġnon amefile
HE IGHT
User Cancelled
âĸĳâĸĳ âĸĪ\
Ġsa hi
34 2
34 90
rit ic
the re
ĠPy PI
24 5
Server Error
top ics
gin x
gin es
Ġtmp dir
Ġta mpered
ĠGet ting
bar file
VER BOSE
wh at
foo file
Ġì ĽĲìĨĮ
ceback Type
>` ,
Ġinstall ing
No RootCert
ĠK IND
ĠK enneth
Ġë ª
Ġë ģĿ
force list
ĠSec ItemImport
ĠSec Keychain
Parse ElementEnhance
Iter ates
Ġword piece
~~ <$
serial izers
Ġob s
ĠSt at
ignore d
Item Type
Lo ok
Lo okup
Lo okupError
Tag Token
ĠNote s
ĠApp arently
ĠRequest Exception
Ġcount s
Ġstop ped
ĠUse ful
cal csize
`. `-'
Date tag
Ġsuccess or
è¯ ¢
Ġmask s
Ġcustom ization
ĠCheck s
INTER NET
Ġinte lligently
ĠerrSSL Unknown
ĠerrSSL Crypto
ĠerrSSL Internal
ĠerrSSL Host
ĠerrSSL Record
ĠerrSSL ServerAuthCompleted
ĠerrSSL Weak
ĠerrSSL XCert
ĠerrSSL NoRootCert
Timeout StateError
IP Address
imp lied
Ġ"/ ":<$
ĠFile Mode
SD N
SD O
skip Unless
Ġvoid ptr
ae mon
Ġtri angle
Pos itive
Ġdb name
Ġmain win
Sub set
Ġspecific ally
Ġfix ing
NN EL
Qt Widgets
}. {
54 01
Spec Filter
Ġrest ype
come s
ĠCF DataRef
ĠInvalid Token
Ġlimit s
Window Dark
Window Hint
Ġsql parse
indi cator
SP ACE
Ġè ¿
bl anchard
ds rdtr
Ġpa ste
Ġstep s
Gener ated
na ive
ĠMe thod
ĠMe mory
rot ation
Ġwait ing
Ġrece ive
Do ctype
Ġcorrespon d
"> </
button s
Ġattemp ting
Mo ve
ĠUnicode DecodeError
sk y
ĠZ ip
Ġhead ing
enter Outer
ĠLo ck
ĠLo ok
Ġ30 5
operation al
Control Loop
cookie jar
Ġconf using
Ġconf usion
Ġsens ibly
ĠHyper Model
Position Counter
Ġsymb olic
Band s
WORD S
non zero
non amefile
analy zer
Ġwheel s
(". /
(". ")[
Proxy Manager
Ġupload ing
Ġoptim izations
~~~~ ~~<$
åħ ¥
ê° Ĵ
separ ators
Ġcap able
tool bar
XX X
dat aloader
ĠâĸĪâĸĪ âĸĪâĸĪ
temporary Buffer
Ġ} }
Ġparticular ly
[[ ],
]== "
Byte Ptr
Byte CharSetProber
Call Error
pw uid
Ġslice d
(", ")
(", "))<$
prob lems
ĠDistutils Setup
ĠDistutils ExecError
Ġown ed
Ġbox es
Ġ`- .<$
Ġ`- '<$
Ġ`- `.`-'
ĠEU C
ĠEU CTWProber
ĠComp ile
ĠComp liant
Ġstatic files
Ġlon gest
API View
BO T
BO ARD
Clo sed
Hyper Parameters
short cut
Ġê² ©ì
è® ¡
è® ¿éĹ
Ġ"- "
ĠDis covery
ĠBlock s
Language Filter
hint s
Ġwave Subset
ĠLog in
ĠLog ical
authentic ated
Ġinterp olation
Ġrout ines
åĽ ¾
IF EST
Ġeas ily
Ġdot env
MB CSGroupProber
tw itter
adi ance
Ġexpi res
Ġhappen ed
89 384
kind ly
mk path
ðĿĹ ²
Distribution Analysis
Ġequal ity
Export Flags
Sig ma
Ġsur rounding
peer creds
Ġcast ed
ĠConnection Error
Ġaccording ly
ï¼ļ {
ĠTimeout StateError
åŃĹ åħ¸
Ġserve d
Ġ'* ':<$
ĠDec orator
ĠLanguage Filter
æłĩ é¢
rand n
Ġ202 1
Database Features
Ġactiv ate
errSSL ServerAuthCompleted
errSSL Would
Ġsuc ceed
ĠHttpResponse Redirect
lst m
got o
ä½ ¿çĶ¨
æĿ ¡
è¡ Į
Ġí Ļ
HTML Tags
Vis ible
patch ing
ĠAd ded
CharSet GroupProber
ĠStream Consumed
INPUT S
Peer Ep
âľ¨ {
Ġak a
Ġfoo file
racket s
('- ',
Ġrho Delta
Ġrho Vec
Ġrho Scalar
Ġcompla ining
Calibration File
çĻ»å½ķ è¿
DH Key
Sh ort
Ġpure ly
lack list
conver ters
HTTPConnection Pool
Ġassign ments
Axis System
CJ K
Part Parser
é¢ Ħ
perman ently
POOL BLOCK
SecItemImport ExportKey
SOCK SConnection
Boolean Field
Tra cebackType
^^ ^^
Ġtz name
Ġrestri cted
Ġlat in
trip let
æĺ¯ åĲ¦
Ph ysLabel
pag ination
Ġincrement ing
Ġ### <$
Cl s
jpe g
asy m
Ġmanage d
åı¯ èĥ½
âĸĳâĸĳâĸĳâĸĳâĸĳâĸĳâĸĳâĸĳ âĸĳâĸĳâĸĳâĸĳ
Body Error
Ġpag inator
Ġefficient ly
poss ible
Ġaltern ate
ĠWh ile
Ġbackward s
Ġappe ars
ĠChar acter
ìłģ ìĿĺ
Ġpreprocess or
Ġscan ning
Allow ed
green let
500 52
GDAL Exception
Handshake Fail
Train ing
Uns pecified
Ġexplo rer
ĠFast WordpieceTokenizer
ĠVis itor
ĠRrs Hyper
Ġ?( .*)"))<$
Title W
éĩ į
Ġmk dir
continue d
ĠNUM ERIC
Separ ator
Cookie Jar
CFDataGet Length
CFDataGet BytePtr
SecExternal Format
SecExternal ItemType
ĠerrSSLCert Expi
ĠerrSSLCert NotYet
ĠerrSSLPeer UserCancelled
ĠerrSSLPeer HandshakeFail
ĠEUCKR Prober
ĠEUCKR DistributionAnalysis
Multi ByteCharSetProber
kSecTrustResult Proceed
kSecTrustResult Unspecified
ĠEUCJP Prober
ĠEUCJP ContextAnalysis
MAN IFEST
Rect F
Sys CallError
æĢ ģ
Ġnc value
Ġ'| '.
Ġdefer red
Ġdecl ar
ĠOSS tatus
Ġ500 52
CONNE CTION
SetConsole TitleW
578 51
ĠCookie Jar
Ġtrig gered
Ġmonkey patching
Ġpenal ty
fake file
}âľ¨ âľ¨{
è· ¯å¾
ĠMB CSGroupProber
ĠMain Config
Construct s
ĠEs sentially
ENABLE D
Ġ|$)( .*)"))<$
ĠConnect Timeout
Ġfinish ing
Struct ure
Ġutili ze
wik i
æ° Ķ
ĠMand arin
ĠOver ri
ĠRho HBox
Progress Bar
Ġseek able
Chain Invalid
å¤© æ°Ķ
Dosing ServiceFeature
Over flow
Ġul x
Ġign oring
Ġcn x
Ġrepro duce
Ġ'... '<$
Ġcollis ions
Ġè®¾ç½®åĪĹ å®
Power Of
$>################################################################ ########
CFA rray
Let ters
NAM ES
Sm all
âĺģ âĺģ
ëı Ħ
Ġsq lite
ĠFunc V
ĠDown grade
withdraw n
saf ety
SSLSet Certificate
è¯· æ
ĠCFString Ref
Ġrespons ible
Ġtransp arent
Ġguarante e
422 61
$>~~~~~~~~ ~~~~~~<$
hemeral DHKey
Ġboot strap
Ġtou ched
ĠSa fe
ĠSpell Checker
typed file
DOT ALL
ĠWARRAN TIES
ĠLinear R
ĠTooMany Redirects
Cap abilities
Dusk Flag
Esc CharSetProber
Japanese ContextAnalysis
PUN CT
Pik Pak
WHIT ESPACE
[... ,
ePlot TimeInterp
fq dn
nfk c
tlen eck
ãħ ¤
ĮæĻ ¯
reci pes
Ġflo oding
Ġreth row
Ġrecip ient
Ġeffi ciency
ĠmBefore Prev
strRe pr
setObject Name
ĠTai wan
parametri ze
ĠSund ay
ĠSJIS Prober
ĠFac ilitate
ĠDesc ri
ĠMPSS E
ĠBlan chard
DEVI CE
kenneth reitz
ĠNag le
TECH NO
Universal Detector
ĠYEL LOW
ĠUnrewindable BodyError
AppEngine PlatformError
ĠSecItemImport ExportFlags
ĠSecKeychain Ref
ĠerrSSLUnknown RootCert
ĠerrSSLHost NameMismatch
ĠerrSSLRecord Overflow
ĠerrSSLWeak PeerEp
ĠerrSSLXCert ChainInvalid
ĠFileMode Warning
enterOuter Alt
ĠDistutilsSetup Error
Ġê²©ì ¶
è®¿éĹ ®
æłĩé¢ ĺ
errSSLWould Block
ĠStreamConsumed Error
SecItemImportExportKey Parameters
ĠerrSSLCertExpi red
ĠerrSSLCertNotYet Valid
è·¯å¾ Ħ
CFArray Ref
ĠerrSSLWeakPeerEp hemeralDHKey
" *
" ;
' ",
' ')
' ï¼Į
' (\
( %(
) })<$
) ]))<$
, "<$
- ":<$
. %(
/ '
1 37
2 50
2 36
3 10
4 40
5 01
5 37
6 80
7 55
7 80
8 509
9 23
: "<$
: '))<$
: "))<$
= ()):<$
> ``
> ".<$
? ')
? #]*
A I
A W
A z
A cl
A IR
A SIS
B r
B OM
B rotli
C D
C V
C SS
C EL
C ryptography
C ell
C reating
C ircle
C reation
D M
D ash
D ont
D ropout
E rr
F Y
F un
F atal
G PU
G rad
H i
H KEY
H DR
H IDDEN
I PE
I Unknown
J inja
J UMP
K ER
L B
L i
L AR
L ANG
L ATION
L inux
M C
M F
M g
M al
M IS
M ater
M ARK
N n
N ON
N umpy
N eg
O ff
O ps
O ffset
O ssError
P K
P i
P open
P ACK
P LICIT
P ALET
Q Q
Q V
Q LA
Q OS
Q PushButton
Q ProgressBar
R ed
R ank
R outer
S PE
S ink
S leep
S upport
S atellite
S OFTWARE
T f
U X
U nt
V al
V ary
V END
W ritten
X SL
X Slice
X DG
Z A
Z IP
Z ATION
\ ">
] :
] <
] >
] ?
] '<$
] ))
] [-
] "),<$
] |%
_ ",
_ ")<$
_ ",<$
a de
a iter
b g
b p
b sp
b crypt
b link
b Num
b pf
b rotli
b roadcast
c ial
c map
c annot
c rt
c ibly
c ena
c ifar
d antic
e ff
f aa
f onts
g ree
g bd
g kf
h ack
i w
i ro
i op
i req
i explore
i mag
j O
k pt
k ag
l on
l just
l cid
l leg
l chemy
m ce
m up
m cl
m ari
m ismatch
m gf
n ected
n irCorrection
o pe
o ms
o ked
p or
p ull
p du
q x
q y
q mix
r add
r ant
s up
s ine
s Test
s Config
s peed
t end
t ol
t ms
t gt
t gz
u ity
u dio
v v
v owels
w indows
w ater
w orld
x on
x put
x min
x ac
y e
y t
y y
y ield
y ee
z oom
{ "
¡ ¨
¥ ½çļĦ
¦ ¬
¦ »
¦ ģ
¨ ê³
¬ ¸
¬ åĤ¨
¸ ħ
¼ è®¾ç½®
Ã ³
Ã ł
Ñ ĥ
Ñ Į
á Ł
â ľ
ã Ĥ
å ĳ
å ŀ
å ¥½çļĦ
æ ³
æ ģ
ç Ĥ
ç ¦»
é ĺ
ë ²
ë ¦¬
Ġ gs
Ġ .__
Ġ 56
Ġ çļĦ
Ġ !")<$
Ġ ãĢĤ<$
Ġ mpjpe
Ĥ åºĶ
ħ åĲ
ħ ëł
Ĩ åĪĨ
ĩ æľŁ
İ »
Ļ æĮĩå®ļ
Ļ æł·
$> -
$> ]
$> ))<$
se qual
in v
in ate
in Out
re o
re late
re stri
re dist
at ible
er ry
Ġt id
Ġt il
Ġt ap
Ġt ail
Ġt proxy
Ġt tl
st h
st and
st udent
en di
en tered
en gines
Ġi te
Ġi id
Ġi ou
Ġi req
Ġi ris
Ġi sequal
al ink
al abel
al vr
al chemy
al locate
de q
de cor
Ġa a
Ġa mp
ar ing
Ġc lock
Ġc ir
Ġc reation
Ġf k
Ġf oc
Ġf desc
Ġf riday
Ġf lex
Ġf ire
Ġf ood
Ġre a
Ġre ct
Ġre vision
Ġre ferer
Ġre placing
Ġp i
Ġp ing
Ġp us
Ġp ic
Ġp layer
Ġp ps
Ġp idx
Ġp wd
Ġp sycopg
ur a
ur s
ur ge
an cy
Ġ" ;
Ġ" âĢ
Ġ" )"<$
Ġ" ~/.
Ġ" âĸĵâĸĵâĸĵâĸĵ
ro me
ro om
ro aming
ce eded
ce fully
Ġn th
Ġn ic
Ġn threads
Ġn tob
Ġn atural
Ġn tou
Ġin voke
Ġin voked
Ġb r
Ġb t
Ġb al
Ġb es
Ġb abel
Ġb ulk
Ġb orderwidth
Ġb urlap
lo yee
Ġs x
Ġs ig
Ġs ld
Ġs keleton
Ġs pectral
Ġs za
as px
Ġe t
Ġ# '
Ġo obj
Ġo mit
Ġo ssl
Ġo cc
Ġo wo
Ġo mitted
Ġo Player
Ġif ace
Ġ' $
Ġ' ^
Ġd B
Ġd ll
Ġd types
Ġd rag
Ġd aemon
ad b
def inite
Ġw Flags
Ġw intypes
fi d
pt odate
Ġm and
Ġm ixin
Ġm initerm
__ ()
__ ["_
un ion
un def
un wrap
un trusted
Ġ( \
Ġ( ))<$
Ġ( )):<$
ul ating
id V
id ity
get mtime
get pid
get filesystem
get Frequency
Ġfor warded
is ode
is closed
is olated
il led
val or
ck y
Ġdef ining
Ġan g
Ġan ch
xt ime
xt ures
xt erm
xt icks
ch ive
th ree
name list
ers core
ers cript
di alog
set H
set state
set Content
set OK
set Section
up grade
ĠT RI
end ar
end of
end Menu
Ġ""" **
key file
Ġnot directed
Ġ_ *
Ġh ours
Ġh coords
Ġh ighest
sp rite
(" +
(" ~/.
(" ***
ap q
ed a
value d
(' &
(' ')<$
(' ['
Re pair
Re ading
Re ferer
qu ad
qu ota
um idity
Ġ1 997
Ġex e
Ġex am
po sed
Ġl d
Ġl s
Ġl it
Error s
Ġ- <$
from timestamp
tr unc
tr ashed
to json
ver ning
() ),
() '.
es Data
ĠS c
ĠS p
ĠS upported
ĠS cal
ĠS pat
ĠS can
ĠS creenShotBot
Ġas k
Ġas semble
ĠI ID
ĠI Dispatch
vi con
ĠC LI
ĠC Python
ĠC heroot
ĠC Compiler
Ġ+ "
ig uity
age ment
Ġ* /\
text ure
Ġu ptodate
data Type
list ener
Ġde le
Ġde cipher
Ġde cay
Ġde precation
Ġv list
Ġv endor
ĠA st
ĠA li
ĠA ST
ĠA ttribute
ĠA sync
Ġ: ],
type lb
Ġst ation
Ġco co
00 6
Ġr fc
ĠF loat
code Error
pro be
ĠP R
ĠP ri
ĠP IL
ĠD C
ĠD raw
ĠD ynamic
Ġname prep
per c
Ġse curity
url split
Ġ2 24
app author
args pec
Ġg ithub
Ġg iving
pre ce
pre view
pre training
pre tokenization
Ġpro g
Ġpro mpt
lib Comp
ĠL et
ĠL iteral
ĠL ocation
ĠL ength
ĠL ike
file List
py openssl
py ftdi
Ġkey func
Ġwith lock
OR IG
fig let
Ġexce eded
op code
op ulate
ĠM OD
ĠM NIST
ĠM SDN
ST S
ST GM
add er
ff f
size hint
[' %
[' _
ĠO ur
ĠO CT
ĠO PT
Ġresult Attr
ĠV B
ĠV ER
__( _
sc id
qual ity
'] ),<$
'] ),
'] }")<$
'] }\
mo use
ER ATED
ER VED
Ġal ive
Ġal ert
Ġal info
Ġal though
Ġal located
Con cept
ens ional
In correct
In Channel
In strument
In cremental
field Length
if ted
load File
ĠE OF
ĠE ntry
Ġout file
Ġpre tend
Ġ3 9
ON T
Ġwe ak
Ġwe bb
Ġun i
Ġun able
Ġun like
Ġun escape
ĠU TC
ca ptcha
Ġ. /
Ġ. ._
format ted
IN S
IN CRE
Ġx min
Ġx Slice
rap per
ĠW indow
ĠW PS
ĠW HER
20 12
20 120
ĠRe f
ĠRe cord
ave Written
om it
Ġtime Obj
** \
** "<$
ME M
back ground
version id
ĠB x
ĠB yte
ĠB ody
ĠB RIGHT
ĠB atteryProvider
ĠB ITS
ĠB ASIS
new style
ĠH LI
ĠH EX
ĠH ELP
Ġtype Attr
Ġtype Kind
pp s
Ġ** {
Ġ`` "{
=' <
=' {}
=' ./
ĠN ET
RE VER
mb cs
dict s
xy z
und erscore
": "
Ġnew Anc
unc ased
ac ific
EN TER
01 3
01 6
da o
lat itude
update s
Ex cel
sing ular
split s
ĠIn stanti
ĠIn complete
ĠIn strument
Ġj udge
reg ression
Ġfil eno
Ġ4 4
char acters
Ġdist ro
Ġdist ingu
Ġloc ated
32 6
ĠR ANDOM
Ġerror Log
') ],
root s
iter bi
Ġ(' %
10 6
result CLSID
Ġmax Size
ific ations
inter net
inter active
inter rupt
inter section
inter cepted
fix ed
16 2
16 4
16 6
Ġ\ __
Ġ\ ___/
Ġcol no
Ġconfig ur
Ġother info
File Dialog
cert file
cert ifi
do es
do ctype
direct ive
token iter
token ized
St age
row th
Ġca used
sh utdown
Ġ6 2
Ġ6 64
Ġ6 37
Data Source
") [-
try Parse
we ather
we ighted
ĠCon sole
Ġla ck
Ġsys config
TI AL
Ġ/ <$
ay ment
Ġadd ition
fil t
Ġ5 4
pos Data
pos als
LO OKUP
mode s
Ġtext s
30 81
Ġpy pi
Ġpy torch
Ġpy tz
Ġpy dantic
Ġsu a
cur dir
block visit
gn uradio
PO INTER
Ra ster
Get Name
Get Ref
Get BuildFor
Get Driver
Get Good
Get Short
sub types
sub scription
doc tests
Ġsub value
Ġsub type
Ġsub mit
Ġsub trees
Test ByRef
Ġ{} .
Un recognized
cache s
Ġopen py
pi ck
ĠQ Header
Endpoint Address
su bj
Ġload s
Ġdict s
dist ro
Ġper haps
sent ropy
Ġtrans lated
temp or
temp file
iss uper
11 20120
group er
Ġbreak ing
trans formed
DI CT
Ġmake HTMLTags
SA FE
cls ctx
=[ ('
UN I
man agers
RI TY
Not Http
Not Chunked
Ġsign alling
ide s
Ġend ing
Ġend QuoteChar
98 2
98 7
Ġtag ging
trib Dict
Ġtarget s
arg max
Ġreq IID
CON TF
[- \
Ġmo difi
Ġmo ved
Co mplex
]) ==
return TypeDesc
Config Parser
03 6
Ġoper ating
Ġfind ing
Ġ& &
Ġinitial State
mon otonic
Ġroot s
99 3
âĸĪ âĸĳâĸĳâĸĳâĸĳâĸĳâĸĳâĸĳâĸĳâĸĳâĸĳâĸĳâĸĳ
Reg istered
GE OM
GE OME
Bucket çļĦ
Ġtra cking
48 0
48 5
eval ctx
eval uator
eval contextfilter
Time Field
ĠX OR
ĠX DG
tra cker
tra jectory
ĠDe v
ĠDe bug
ĠDe vice
ĠDe codeError
IO Error
... '
... `")<$
Ġsome how
Ġsome where
install er
CH R
CH AT
Ġcor rs
App endMenu
private key
Ġsy m
fir des
He ad
ĠTest Case
HTTP S
cor por
Ġexp lan
pop ulate
pop Query
Ġ'. '):<$
Ġwrite able
environment function
15 8
15 9
âĶ Ĭ
Ġpl anes
async io
mult il
Model Form
SHA KE
To Class
To Win
To Copy
handle web
ĠJ o
Me di
Me dia
SU DO
Ġlink er
Ġlink ing
Al gor
width s
Ġro utes
OS X
exp onent
Ġprob s
ĠPro jected
Or deredSet
Ġsave point
mac ros
Ġoff Color
initial ise
ward s
ĠNot ice
ĠNot ification
ĠST AR
ĠST OP
ĠST ATE
ĠST OPBITS
QU I
User Request
130 7
34 56
ĠPy USB
ĠPy ObjectPtr
exec ution
26 00
rection Level
ATE GOR
Ġstri des
Invalid ArgumentError
Ġarg types
show Grid
Check s
Check Args
Ġtrain able
oper ators
Ġ"{ :.
Ġvar char
Ġ... ]<$
ĠGet Object
ĠGet Anc
ĠGet ModuleFor
change s
Value Dict
58 8
long itude
Ġpoint ing
Ġexec ution
Qu it
Ġë §
---------------- ---------<$
tf lite
Ġlocal host
Parse Next
Sec Identity
ĠSt orage
sig ma
ĠApp le
ĠApp Dir
imple mented
Ġcount ry
ĠData Loader
Log gingResult
lim ited
limit ations
Import Error
ĠGener ator
Base Model
Ġimp lied
tensor flow
tensor board
Create s
Create Model
distri buted
Ġ20 20
Ġdifferent ly
Ġchunk size
Ġverbose Level
EX T
Out Channel
rt PIDL
Ġ[[ [
Poly y
language s
(? :\
riter ia
}) ")<$
Ġcustom er
\\ [
pool manager
Ġgo verning
Format ting
GR AP
GR AY
Url s
spect ral
des ktop
mary Information
queue d
queue s
ĠBase Exception
ĠBase Model
Ext ended
.* )<$
=_ ("
Ġshort cut
Ġposs ibility
Ġiterable s
sock s
LIN K
LIN UX
Open State
multi path
Le ft
ping info
Ġthread s
ient ation
Ġqu ot
Ġqu ite
Ġqu ant
hell Dispatch
Ref resh
Ref Sys
ĠPre Trained
Ġcertificate s
Ent ries
Sub List
torch text
Ġê ·
Ġê ³µ
Ġspecific ations
compat ibility
Python COM
âķ ¯
IG INT
IG NUM
Ġ"_ "
Hash Context
Qt Gui
54 4
layout s
ĠInvalid Version
export s
31 2012
Client Exception
Filter Block
Ġkeep dims
BU TTON
Public Numbers
pump drive
indi rectionLevel
Ġcho sen
ĠIS hellDispatch
prop Map
pipe lines
Str Field
Ġè İ·åıĸ
Ġè ¡¨
Ġaccept able
At temp
free desktop
ĠUser Fav
Message s
Interface PostCode
Ġsort ing
TO GG
åĬ ¨
ĠCrypto Bucket
Node Bound
kernel s
let ter
abc def
Ġcomplete ly
Ġmy object
78 9
PAR SER
Ġhead s
expi ry
Hel p
Ã© es
ros sentropy
ĠDi fferent
Ġconf lict
ĠSer vice
Ġsens itive
Ġsens itivity
Output Character
RES ERVED
ĠDo Action
ĠHttp Request
ĠRE DIRECT
analy tics
ĠField DoesNotExist
ĠQu ote
cy an
åŃ Ĳ
çĶ Ł
Ġsm tp
ĠPer centLt
Command s
Update Secret
gre es
gre SQL
æł ¼è®¾ç½®
separ ate
control service
íķ ´
ĠâĸĪâĸĪ âĸĪâĸĪâĸĪâĸĪ
Ġ} }'
VAR IANT
ç» ĵ
ĠTLS FeatureType
('/ ',
ĠSystem StatusProvider
Ġdecrypt or
'* (
medi um
Ġ'{ {
Impl Type
ĠResponse Error
ĠResponse NotChunked
ĠThere fore
ç½ ĳ
Ġrecent ly
uni xtime
typelib CLSID
LOG GING
optim izers
Build Hidden
ä¸ª Split
Ġsw list
bound s
BO X
PU B
So ft
Ġæ ·»åĬł
ĠSQL ite
Ġ201 3
çĶ¨ è¯į
Del ay
Ġau dible
short name
Ġser ving
ĠPath Metadata
aria DB
POL Y
Run ner
Run timeError
slice d
Ġsimp lified
authentic ate
xB F
Ġremo val
Ġpur ge
cons istent
ĠLe ft
ĠHe atmap
Ġupper case
Operation ClientError
Stop BandAttenEdit
ĠCON NE
Ġboard s
xx x
Ġescape s
ĠFtdi Error
ĠWin Style
Ġcomm only
Collection Property
ĠServer Exception
Ġsk y
ĠCal ibration
ĠOption ally
-------------------------------- --------
ĠGEOS Exception
mem cache
ĠAt tribDict
ĠVariable s
voked Certificate
æĮ ģ
Ġreport s
Ġplot Tree
ĠTry ing
ĠOF T
Process or
Process ing
Ġindic ating
Toml Encoder
Toml Numpy
åĪĨ ç±»
velop ment
è½ ¬åĤ¨
éĢ ĤåºĶ
Ġserve s
Ġhigh bit
ENUM ERATED
Tr uncated
ìł ķ
Ġnor ms
Ġnor med
Record Path
Record Delimiter
Change Double
Ġdig it
ĠSO URCE
Ġlex ing
SUB TREE
Variant SafeArray
Win Style
ä½ į
æİ ¥
Ġexpect ing
ĠSH CONTF
Ġabort s
Policy Type
Could n
å¾ Ĺ
roll back
ĠAll Converters
redu ction
SELECT OR
ĠGenerate Flow
eng lish
ĠSpec ial
ĠSpec ify
ĠSpec Filter
ĠDispatch er
ĠDispatch BaseClass
Undefined ExecutionError
Success fully
ðŁĮĵðŁĮĵ ðŁĮĵ
ðŁĮĵðŁĮĵ ðŁĮĵðŁĮĵðŁĮĵ
Gateway Service
Ġak id
('- ')<$
Sto re
ia Lite
pus hed
Ġpacket s
progress Bar
ĠMark er
Console OutputCharacter
ĠNT LM
Safe Dump
Axis Item
Pipe s
Pipe line
WITH OUT
ç® ¡
Ġdump s
ĠSplit Range
Ġaddr info
Configuration Value
Ġsymlink s
SOCK ET
('/') [
ĠColumn DataSource
ĠMulti PartParser
ĠMulti ValueDict
Make ReturnType
Tra cker
Ġcare ful
LOGI E
ĠHTTPSConnection Pool
Dec imal
sur face
war mup
ä¹ Ł
å¹ ³
ç¬ ¦
Ġincrement al
ĠCS V
ĠCS RF
Ġdevelop ers
ĠPost GIS
ĠModule NotFoundError
Contain s
TRAC T
Ġenter ing
ĠUndefined Error
CLASS ES
Scheme Unknown
}" ``
åĮ ħåĲ
éĹ ´
Ġesc Quote
assertNot Equal
ĠEN V
ĠBad Account
Post process
åĲİ çļĦ
lar gest
Ð° Ð
Ġascii Letters
Initial ize
ĠEX ISTS
ĠUSB Error
è¡¨ ç¤ºè¯»åıĸ
leave Whitespace
Ġeg gs
Ġmar sh
exact ly
EndTag OpenState
Allow Quoted
//////////////// ////////////////
Ġspell ing
æłĩçŃ¾ æĭ
awn DuskFlag
PROPERTY PUT
uu uu
Ġcr ash
Ġdur ations
valve gateway
ĠSu ccess
resol v
prun e
Ġgeo PhysLabel
BACKEND S
Active Object
Active State
112 312012
Live Channel
NORM AL
cumul ative
Ġç» ĻæĮĩå®ļ
anno unce
Ġwater mark
ĠAb stract
ĠBot h
ĠBot tleneck
Ġrespect ively
Ġaddto sections
Ġcalibration Map
UserQos InfoResult
Ġsaf ety
hier arch
æĹ¶ éĹ´
åįķ åħĥ
Ġ------- <$
"^ (?:
horizontal Header
nav Group
Ġfact ors
Reset Content
']] ><$
Ġ404 4
markup safe
Ġtrig ger
ĠCONDITION S
Ġpenal ized
Ġsuggest s
Ġsuggest ed
412 112312012
Handle Exception
Loss Type
Top icStrings
½çļĦ éĢĤåºĶ
è¾ ĵ
èĢ ħ
Ġfold ers
ä¿¡ æģ
åģľ çĶ¨è¯į
876 5
GENER AL
Mac OSX
Que st
Video Graph
Ġbran ches
Ġss lopt
ĠOper ation
ï¼ī <$
æĸ° çĻ»å½ķ
PROCESS ES
Metrics Type
Document s
Ġinvolve d
åı¯ä»¥ æİ¥åıĹ
Ag ent
BP FileSystem
Cors Result
NA Error
Some thing
VIIR S
bH aveWritten
Ġna ive
ĠbFor Demand
ĠCurrent ly
predi ctions
Inventory Configuration
ĠBO OL
Ġshrink ing
Ġintercept able
Ġìł ķ
Ġ'__| <$
å¤´ éĥ¨
EllipticCurve PublicKey
ĠåĲĪè§Ħä¿ĿçķĻçŃĸçķ¥çļĦ id
glit ch
èĩ ´
Ġfol ded
ĠnLw NIRCorr
Ġwv Interp
ĠFA ILED
ĠGo ogle
symlink s
Ġè½ ¬æį¢ä¸º
Ġpredic ate
Declar ation
#]*))? "<$
ĠSyntax Error
ĠAnsi ToWin
æŃ£åľ¨ éĩį
319 412112312012
SLI CE
TK IND
cas cade
snip pet
åĿ ĩ
è° ĥ
Ġsat navGroup
Ġspect ra
Ġ'.. ',
Ġcontin uation
ĠOB JECT
moment um
ĠGit Hub
Ġattrib s
ĠInline Keyboard
PathName W
ï¼Ľ <$
ToMany Field
NIR RadioButton
NFK C
åĪĨçīĩ å¤§å°ı
Ġrelationsh ips
AUTOMAT IC
é¡µ éĿ¢
ĠCLSID ToClass
éħį ç½®
fort un
hib it
satis fied
Resize Mode
ĠSY STEM
Ġrrs NIRCorr
ĠPh one
Ġground truth
ĠUNI X
Ġposix path
ĠJson Response
ĠNotSupported Error
Ġëª ¨ë
ĠStat ic
adiance Group
çĻ»å½ķè¿ ĩæľŁ
é¢Ħ æµĭ
Ġè®¾ç½®åĪĹå® ½çļĦéĢĤåºĶ
PikPak Down
ãħ¤ ãħ¤
TECHNO LOGIE
310 294
8509 9
Acl Result
AIR TABLE
Grad ient
LAR GE
Mal formed
MIS MATCH
Mater ial
QLA lchemy
VEND OR
XSL TH
]|% [
brotli py
kag gle
mari adb
nirCorrection Satellite
¨ê³ Ħ
çĤ ¹
ħëł ¥
ĨåĪĨ ä¸º
erry IMU
endi x
Ġflex ibility
Ġ"âĸĵâĸĵâĸĵâĸĵ âĸĵâĸĵ
Ġnic er
Ġmixin s
getfilesystem encoding
setSection ResizeMode
ĠTRI ANG
ĠSpat iaLite
libComp atible
Concept ual
ĠEntry Point
Ġwebb rowser
INCRE MENT
ĠWHER E
ĠBody NotHttp
='{} _{}'.
REVER SE
ĠnewAnc Group
ĠIncomplete Read
GetGood Dispatch
GetShort PathNameW
TestByRef Variant
ĠQHeader View
issuper set
GEOME TRY
Ġexplan ation
handleweb Error
ĠNotice Reference
ĠNotification Window
ĠAppDir s
GRAP H
spectral Reflectance
pumpdrive controlservice
Ġè¡¨ ç¤ºè¯»åıĸ
TOGG LE
ĠPercentLt HBox
TomlNumpy Encoder
ChangeDouble SafeArray
SafeDump er
åĮħåĲ «
ĠBadAccount Info
AllowQuoted RecordDelimiter
æłĩçŃ¾æĭ ĨåĪĨä¸º
valvegateway service
Ġç»ĻæĮĩå®ļ åįķåħĥ
ä¿¡æģ ¯
æŃ£åľ¨éĩį æĸ°çĻ»å½ķ
319412112312012 1120120
Ġè®¾ç½®åĪĹå®½çļĦéĢĤåºĶ æĸ¹å¼ı
ĠBodyNotHttp libCompatible
Ġç»ĻæĮĩå®ļåįķåħĥ æł¼è®¾ç½®
! )<$
! ')<$
! `")<$
" +
" [
" ``
" âľ
# :
' __
' ')<$
' '))<$
' },<$
( ~
) ``
) **
) (?:
) <=
* ="
* ).<$
+ )
+ _
+ ',
+ '.
- ]+
/ *
/ ")<$
/ ]+
0 12
0 40
1 36
3 55
5 13
6 35
7 91
8 10
8 98
9 77
: (
: /
: ]:<$
; ").
= (),
= {}'.
> "
> ')<$
> ",<$
> /',
? "
? )<$
? ",
A Z
A m
A ge
A pi
A fter
B X
B l
B ut
B atteryProvider
C IP
C ORD
C lear
C riterion
C IText
D yn
D raw
D epend
E c
E m
F K
F X
F Z
F our
G Y
G AN
G PIO
H Z
H VM
H umidity
H STS
I m
I ENT
I VE
I DEN
K F
L K
L a
L ow
L ES
M as
M id
M ER
M ay
M OS
M AND
M atter
M AIN
M ention
M AIL
N C
N H
N p
N UL
N ED
O k
O TT
O racle
O CSP
P B
P n
P oll
P ayload
Q K
Q x
Q y
Q RectF
R r
R UN
R ender
S R
S s
S ound
S creen
S hi
S uper
S KIP
S creenShotBot
T U
T g
T wo
T oggle
U I
U TH
U TI
U tilities
V ocab
V ocÃª
W V
W v
W he
W ork
W rong
Y ield
Y angle
Z a
\ _
] '
] `
] ".
] )):<$
] ):
] ])
] ={}<$
^ -
` \
` _
` {
a ffiliation
b m
b all
b ile
b im
b Length
b Descriptor
b urlap
c ite
c ust
c ross
c andy
d H
d Dict
d ash
d buf
e ca
e led
e dited
f ers
f to
f dd
f select
f no
f requency
f lip
g m
g oc
g ow
g ang
g file
g ence
g iven
g ps
g ain
h ip
h old
h inx
h orse
h amburger
i B
i add
i exact
k ill
k ps
l Z
m one
m ale
n A
n u
n ed
n Lw
n atural
o a
o q
o Button
p z
p se
p layer
p unct
p Sublabel
p ixel
r v
r st
r split
r just
r partition
s al
s ct
s pe
s che
t ip
t read
t orrent
t fidf
u ic
u count
u ght
u gettext
u fb
v g
v line
v env
v bar
v fc
w Y
w al
w it
w as
w nd
w ide
x max
x off
y W
y an
y code
{ %
{ <$
} }<$
} ":
} :{
¡ Ĩ
¢ å¼ķ
£ Ģ
¥ å¹¶
§ ĭ
¨ í
© º
¬ ´
¶ æĢģ
¹ ©
» º
½ åº¦
Ð ¹
Ñ ī
Ñ İ
Ñ ı
á ¹©
å §ĭ
å »º
æ Ħ
æ ļ
æ ¡Ĩ
ç Ĭ
ç ©º
è ¶
è µĭ
ê ±
ë ¯
ì ¹
ì Ľ
ï ¸
Ġ que
Ġ jo
Ġ qui
Ġ },
Ġ åı
Ġ ðĿĲ
Ġ velocity
Ĥ ¤
Ĥ åģľ
ĥ ĮæĻ¯
Ħ á´ı
Ī å¯¹åºĶ
Ĭ Ĭ
Į Ģ
Į ìķĦ
İ "]<$
Ĵ Į
ĸ ´
ľ Ħ
ľ èī²
ľ ìĪĺ
Ŀ ç¦»
ŀ æİ¥
$> *
se ss
in tegr
re ator
re ported
re install
re tail
re covery
re vocation
re trieve
re mainder
re configure
re curse
at in
at tach
at omics
er ate
or ables
or ientation
Ġt d
Ġt ot
Ġt ty
Ġt iming
st al
st it
st ors
st raint
Ġ= >
de velop
de tach
de scriptors
de cessor
Ġa sp
Ġa bu
Ġa pos
Ġa part
Ġa doption
me ter
me tic
he uristic
he bang
ar ge
ar row
ar ches
ar ison
Ġc file
Ġc rypt
Ġc map
Ġc rop
Ġc riterion
Ġc ardapio
Ġc utoff
Ġc reator
le br
le fto
Ġf re
Ġf ace
Ġf rag
Ġf raction
Ġre d
Ġre view
Ġre construct
Ġre covery
Ġre cogn
Ġre projection
Ġre presen
Ġre compiled
Ġp size
Ġp loc
Ġp aper
te ach
ur ser
ur ope
an to
an ity
an onymous
Ġ" :<$
ct c
ct l
ct ag
ro ve
it ness
ce d
ce lebr
Ġn s
Ġn head
Ġn bsp
Ġin strument
Ġin PlotPath
Ġin corpor
Ġb f
Ġb as
Ġb ig
Ġb dist
Ġb iases
Ġb ann
lo sses
Ġs ct
Ġs ns
Ġs rs
Ġs asGroup
ue l
as c
as ure
as Keyword
mp eg
Ġe lev
Ġ' :<$
Ġ' //
Ġ' >=
Ġ' ~'
Ġd ark
Ġd ense
Ġd dz
Ġd osage
ad j
def n
Ġw al
Ġw atch
Ġw ide
Ġw kt
Ġw intype
fi cial
co mpleted
co vered
Ġm ist
Ġm us
Ġm icro
Ġm argin
ke w
__ '<$
__ ")<$
__ "),
__ ().<$
ra b
ra j
ri er
un m
un ch
un ded
un parse
un register
un finished
un cher
un ycode
Ġis dir
ul y
id le
get default
get ters
is k
is oc
is sub
il Bert
Ġto ml
Ġdef inite
el low
ch dir
ch mod
ch ero
th ird
ers ist
ers istent
str ptime
di ag
la uted
la pping
set Validator
set Formatter
set Font
mport s
up s
up id
ĠT itle
ation Candidate
con structed
con tact
Ġ_ :<$
Ġh i
Ġh ub
Ġh our
Ġh arm
ect ure
sp r
sp ro
sp inner
(" (
(" =
(" |
(" .*
Ġof ten
ol en
ap ted
Ġcon j
Ġcon crete
(' $
(' ~
(' )')<$
qu ate
qu ant
ass ociated
Ġ1 31
Ġimport er
Ġimport able
Ġl w
Ġ- .
Ġ- -----<$
to pt
to string
() "
() ")<$
() )[
par ty
par allel
ith metic
Ġ[ %(
Ġ[ ]]<$
cl inical
ĠS W
ĠS crypt
ĠS ample
ĠS ection
ĠS cript
ĠS IGINT
Ġbe g
Ġas pect
Ġas king
Ġas XML
", )<$
", ".
am a
vi p
ime ter
ĠC ur
ĠC lear
ĠC ancel
ĠC lick
ĠC BC
ĠC RIME
Ġ+ ")
Ġlo oked
ise ct
ip ants
Ġ% }
Ġ* **
bu ilder
bu ilt
data Size
list a
Ġde vi
Ġde mod
Ġde conv
Ġde tokenization
Ġde letion
Ġde scriptors
Ġv s
Ġv t
Ġv endored
ĠA RE
ĠA ccess
ĠA UTH
Ġ: \
Ġ: ",
Ġ: ].
Ġst ub
Ġst ops
Ġst ret
Ġst ages
Ġpar dir
00 3
00 4
00 04
Ġr m
Ġr gbd
ma ker
ĠF S
ĠF IL
ĠF UNCTION
ĠF LAG
ĠF rozen
ĠF IND
Ġstr g
Ġstr ong
Ġ{ :
Ġ{ **
pro d
pro posals
out ines
out ube
ĠP ut
ĠP RE
ĠP RI
ĠP asses
ĠP opulate
ex am
us able
ĠD epend
ĠD etachedSignature
Ġ` ``
Ġ` ``<$
Ġname Rest
per centage
url pattern
et ter
che cked
Ġ2 26
Ġ2 70
Ġdata At
Ġg athered
fo x
fo ur
fo reg
pre ference
Ġpro cesses
Ġen igma
Ġen velope
Ġme th
ĠL a
ĠL if
ĠL oss
ĠL IS
ĠL ONG
ĠL ibrary
file tree
tri angles
py plot
Ġget ter
Ġget cwd
Ġget Parent
Ġget pwuid
Ġdi ac
Ġdi ameter
Ġdi vide
ext rap
ext ended
ta u
ĠM ap
ĠM ask
ĠM AY
ĠM ariaDB
ST AL
ST OP
ST DO
ĠĠĠĠĠĠĠĠĠĠĠĠĠĠĠĠĠĠĠĠĠĠĠĠĠĠĠĠĠĠĠĠ ĠĠĠĠĠĠĠĠĠĠĠĠĠĠĠĠĠĠĠĠĠĠĠĠĠ
add ition
ff b
are n
model view
ĠO G
ĠO ptions
ĠV ar
ĠV CS
Ġon Color
Ġwh ite
ure ml
sc i
qual name
Ġ> .<$
'] })<$
'] )]<$
mo dification
Ġy aml
Ġfile Name
kw ds
Ġal ph
Con trast
Con nected
instance s
In it
In sert
In File
In dent
if ace
load ers
FF IC
ĠE l
ĠE num
Ġout msg
Ġout FilePath
Ġpre fers
Ġpre decessor
Ġset ResultsName
Ġ3 1
Ġ3 84
Ġwe ighted
Ġun ary
Ġun available
Ġun named
Ġun quoted
Ġun finished
ĠU P
ĠU V
Ġprint ing
date Tag
Ġ. *<$
IN V
IN STALL
IN CLU
Ġx x
Ġx or
ĠW rong
ĠW HITE
20 17
`` ),<$
ĠRe qui
ĠRe mote
ĠRe vokedCertificate
om al
Ġtime i
string ify
mple tion
im ic
im read
im ization
cess ation
ĠB OM
ĠB RO
ĠB BA
ĠB ASE
ĠB LACK
ĠH KEY
ĠH AND
ĠH OT
word vec
Ġ`` --
=' %
=' ')<$
=' --
ĠN orm
ĠN AME
ĠN ested
Ġdefault dict
AD V
RE PL
col lector
Ġsup pressed
Ġsup erscript
label tool
ĠG io
ĠG zip
ty es
Ġdo ctag
dict Entries
Ġlog ical
test X
test y
test ing
est roy
min Len
join er
ition ally
ac cepted
Ġcl f
Ġint s
Ġint rospection
=" *
=" \
=" _
=" %(
Ġ| \
Ġ| |
log ged
bytes like
Ex ists
dd x
ĠIn clude
ĠIn stead
ĠIn secure
reg ate
Ġk illed
Ġfil t
Ġhe apq
Ġdjango Project
Ġ4 43
default Exception
default Start
default Success
char List
Ġdist mat
sg d
Ġcomp iling
32 1
AL G
AL TER
ĠR ob
start s
start Action
Ġurl pattern
Ġurl patterns
Ġext ran
lin er
config Path
num eric
') ])<$
') ],<$
Ġbyte string
ard own
max len
max Len
max Spec
max Matches
iter values
Ġ(' .'.
not ifications
TH RES
Ġno ob
output Directory
with in
Ġmax len
Ġmax Matches
Ġspec s
Ġspec ially
object ive
ari o
Ġapp ended
16 01
Ġsh own
Ġ\ __,
rc data
Ġcol s
TR ACK
TR AIN
File A
File system
do ptions
direct ories
St rength
row n
sa mp
Ġca ption
Ġca ching
sh ip
Ġ@ _
HA N
Ġsuper class
debug Actions
Ġ8 2
Ġ8 08
ich r
ich at
ĠCon versions
ĠCon straint
content types
Request Warning
TI CAL
TI FIER
select able
02 7
02 9
Ġstart Action
Ġ5 1
ba seline
LO P
LO CATION
'. ")<$
local ized
Ġsize of
lp fp
Ġparser s
AC TION
Ġpy qt
Ġsu cc
Ġsu fficient
check ing
find iter
Ġz lib
ĠEx cel
sub net
sub traction
Ġ7 4
Ġsp here
Ġsp hinx
Ġsub set
Ġsub mitted
Ġdirect ives
Ġiter ate
Ġ{} ).
Ġ{} ...".
List ener
List Object
ĠQ Standard
An oms
ĠHTTP Server
(), '
Ġ10 4
Ġcal Files
dist s
Ġ9 9
Ġper mitted
ne ver
Ġcontext lib
SE CON
SE CRE
no v
11 18
): ]<$
Se aBASS
Se aBASSHeader
FI VE
of actor
DI A
Ġent i
Ġent r
ast imezone
ĠY ield
ĠY OU
Ġ'' ',
Ġval ve
Ġab ility
Ġab spath
Ġinter rupt
mod ulation
Ġmod Root
Ġup loaded
=[ ])<$
copy fileobj
hash ers
UN TRY
Ġcert Path
Ġattr name
RI DE
Ġwrap ping
Ġsign atures
Ġend Tag
Widget Item
98 5
22 1
22 5
22 7
CON TEXT
ui ck
38 9
]) ),<$
]) .__
Ġnext Level
Ġover lapping
Set ting
Set Point
by e
Ġsee king
Ġpla in
right s
(( ?:
Ġfind s
Ġgener ating
Ġmin utes
Ġ& <$
Ġdis allow
Ġdis connected
Ġdis covered
Ġignore Expr
loss plot
Ġopt parse
Ġtf lite
ci text
mon itor
Reg istry
Reg OpenKey
**** ***
parser s
STR UCT
Ġtra jectory
77 0
77 3
eval uated
Time Unit
18 1
18 8
18 46
struct ure
tra iling
57 6
57 66
ĠDe precated
ĠDe leting
ĠDe velopment
KE EP
... ]]
Ġsc roll
Ġsc rolled
Ġsc ratch
Ġad vi
Ġcur item
Ġ12 3
link finder
prefix sum
dim ensional
He aders
HTTP Response
Ġchange list
14 3
cor outine
pop ulation
46 2
46 6
]] ],<$
Path Metadata
Ġman agers
dis c
ome ga
sy ntax
37 3
Model Serializer
To Dense
pri sing
ĠJ UMP
Ġim t
Ġim antics
Me mber
gr u
Ġro om
Ġprob ability
Header Label
Ar chive
CS RF
Or Str
Ġview set
Ġauto commit
ran ch
Ġpri ce
Ġhost s
Com m
Com ments
cat alog
normal s
2016 4
Ġclient s
initial ize
Ġprefix ed
Ġmark down
Ġstream ing
auto commit
tree view
ĠNot Any
first QuoteChar
HE EL
du cer
34 7
rit ical
std call
Ġreplace HTMLEntity
Ġbuf len
19 7
24 7
Ġ"\ ''))<$
Ġdir names
Ġclo ser
Ġclo ud
top level
esc Char
esc Quote
Ġvis ual
Check Var
RC LE
Ġtrain er
Inter val
Ġtmp l
76 8
Ġvar name
Ġcolor ama
change log
ĠĠĠĠĠĠĠĠĠĠĠĠĠĠĠĠĠĠĠĠĠĠĠĠĠĠĠĠĠĠĠĠĠĠĠĠĠĠĠĠĠĠĠĠĠĠĠĠ ĠĠ
ĠĠĠĠĠĠĠĠĠĠĠĠĠĠĠĠĠĠĠĠĠĠĠĠĠĠĠĠĠĠĠĠĠĠĠĠĠĠĠĠĠĠĠĠĠĠĠĠ ĠĠĠĠĠĠĠĠĠĠĠĠĠĠĠĠĠĠĠ
Value s
Ġtensor s
Ġtensor board
Ġ". ":<$
Ġì Ħ
Ġì Ī
Ġì Ļ
Ġì ľĦ
annot ate
72 96
Qu anto
Ġë ı
Ġë Ĳľ
wsgi ref
04 4
au x
08 7
Ġke k
Ġlocal ized
Ġ', '<$
View ed
np z
Ġ'__ ',
âĶĪ âķ²
âĢ Ļ
âĢ ľ%(
ĠMo dified
author ization
send code
ĠData Pipe
Back ground
ĠCom bined
Py Qx
Create With
EX E
Ġ[[ ...]]
UP LOAD
è¯ Ń
Up per
Ġcustom ize
á´ ħ
visit or
Timeout Error
Pre hashed
Ġterm ios
35 9
IP v
ĠBase Admin
sm art
Ext ract
skip ping
skip Ign
tuple s
Ġ32 1
Ġposs ibly
fetch one
fetch all
Open Tag
Line End
gen itor
ĠAl ways
ĠAl though
ĠCh at
ĠCh annel
Ġresource s
AG ES
Wh Y
curs ors
VE LOP
Ġconvert WhitespaceEscapes
Ġscript Data
tar ball
âķ ®
âķ Ń
AP PS
]* (
Ġge otransform
Spec ial
Spec ify
Ġclean sed
Ġbo ok
Ġbo dies
ĠAPI s
ĠInvalid Requirement
Window LightLineEdit
Ġpred s
06 8
06 02
ĠNo Capabilities
Ġpost Parse
Ġkeep db
Ġsock s
PRO V
mar ily
any OpenTag
Ġextract or
fragment s
å¤ ±
å¤ ¹
å¤ ĸ
Ġè ĥĮæĻ¯
Ġaccept ing
SER T
bit r
stack level
stack over
ĠCommand Execution
At tention
Ġrepresent ative
Point F
ĠAdd itionally
Gener al
PRE TER
over lay
Ġfragment s
ĠMe dia
CO UNTRY
dot s
Ġrece iving
common HTMLEntity
å® ½åº¦
Ġconver ts
ĠIN TER
ĠIN DEX
000 5
HEAD ING
down loaded
LOW ING
ĠJSON Field
åº Ĺ
Ġmy py
ĠSm ith
expand tabs
Ġstandard s
Ġcomb ination
78 5
sk i
ĠZ IP
Ġhead less
enter Rule
convert WhitespaceEscapes
ĠLo ad
ĠLo okup
ĠExt raction
ĠWord pieceTokenizer
Ġauthor ization
75 3
ION S
ĠDi rectory
Control ServiceFeature
Ġusers File
Ġident ity
400 1
MO UNT
RES OL
VAL UES
ĠDo es
ĠRE D
ĠRE MOVE
ĠTime AxisItem
ĠField Error
ĠQu it
Ġmapping s
ĠPer haps
Ġmeta var
Command Error
ðŁĮķðŁĮķ ðŁĮĹ
(', ')
SC REEN
STAT ION
transform String
transfer red
Ġfun ny
ĠText File
ĠText Rank
Ġ_(' âĢľ%(
Res olve
CLO SE
Ġencode s
Ġapply ing
Ġfl t
Signature Context
COL ORS
conv s
ĠSystem Error
ĠObject Annotation
READ ONLY
Ġsite s
Ġsite map
ä¸º åŃĹåħ¸
)] ['
Su bject
same file
sink s
æĪ ĸ
('. ',
Controller Feature
AU SE
Di ctionary
Di fferent
WA KE
rin ho
ĠComp iler
Password Has
fs r
xl m
äº Į
äº Īå¯¹åºĶ
Ġsw ig
(': ',
Ġtrunc ation
Clo ud
Ge topt
Rho Rad
Ġæ Ĺ
Ġæ ĬĬ
ĠCol lect
Hyper linked
æĸĩä»¶ å¤¹
è® Ńç»ĥ
ĠDis ables
LIC ATION
Ġappro ach
)( \
>< &
segment s
segment ation
Ġflat att
Ġ({ !
Ġbegin s
ĠAs sert
Ġunquote Results
ðŁĮĵ ðŁĮķðŁĮķ\
Ġinterp olated
ĠDatabase Client
Ġimplicit ly
Ġcs rf
ĠLe gacyVersion
indent ation
ĠHe aders
IF Y
Ġfore ground
Ġeffect ive
Ġdot s
System StatusProvider
tw ofactor
ìŀ ħ
ĠHo ok
ðŁĮĶ \
Ġtermin ation
Menu Item
Ġip v
Ġ"* "
Ġ"* ":<$
Ġ".. ":<$
ital ize
ĠCal c
Ġ|_| \__,
configuration service
å¯¹ äºİ
'^ /
depend ency
mem cached
ĠReg Error
ĠRa w
Ġcause s
Force S
follow ing
poly gon
Ġplot Delta
Ġhard s
Ġexclude Chars
ĠAc cording
ĠGe o
Eval uator
micro seconds
Ġsur prising
ĠSome times
proto buf
Files Handler
neg ation
plural ize
ĠCertificate RevocationList
JSON Encoder
New Message
éĢ ģ
Ġ"& %
Ġexit ing
ðŁĮĴ \
Ada pt
Sc ene
ĠTrans action
Ġacc umul
Ġacc ented
dense net
Ġleave Whitespace
æĿ ¥
Ġexpect s
comma Item
Ġscal ar
Ġscal ars
IM AL
Try ing
Vis it
drop down
drop while
pf StopBandEdit
record s
Ġmer ging
Ġmenu item
Ġorg an
ìĿ´ í
ĠMySQL db
cap italize
Ġ655 35
Act ivation
dispatch er
rece ivers
ĠSupport s
Ġgre ater
ĠWhe el
dific ations
ĠStart ing
Ġadapt ive
Drive PositionCounter
Schema Editor
mong o
Ġá´ Ģ
Ġes Data
ĠPos itional
ĠPos itive
è¯»åıĸ åĩºæĿ
Close Tag
BY TES
squ ared
è§ £
é¢ ľèī²
ĠPass word
comm un
gu ide
component s
Unit Prefix
ðŁĮĶðŁĮĶ ðŁĮĶðŁĮĶ
ðŁĮĸðŁĮĸ ðŁĮĸ
ðŁĮĸðŁĮĸ ðŁĮĸðŁĮĸðŁĮĸ
ðŁĮĴðŁĮĴ ðŁĮĴðŁĮĴ
ðŁĮĺðŁĮĺ ðŁĮĺ
ðŁĮĺðŁĮĺ ðŁĮĺðŁĮĺðŁĮĺ
SY S
SY STEM
Sim on
gan ization
sur rogate
å¸ ¦
('" ',
ĠPost process
ĠPost greSQL
Ġgra b
ĠLine String
Ġcanonical ize
ASC ADE
screenshot bot
âķ± âĸĶâķ²
Site map
hyp othesis
åĮ ĸ
åĮ Ĺ
Ġesc Char
ĠBad Command
ĠHash Backend
Enable PercentLt
Deprecated In
CHA NNEL
packet s
sli ding
selected Point
Ġfi xture
Ġfi xtures
Ġinf inity
Ġms gs
ĠDate TimeField
hour s
Initial ization
ĠEval uated
ĠGDAL Exception
")) ("
SECU RITY
íķľ ëĭ¤
Align ment
ä¸Ĭä¼ł è¿Ľåº¦
Ġum lauted
Ġtell s
unquote Results
ĠAsymmetric VerificationContext
Ġcore api
Ġmeas ure
ĠHidden Text
ĠInter p
Ġcalc ulated
Ġscan String
Ġìŀ ĳ
Ġìŀ ħëł¥
Local Type
æłĩçŃ¾ è¯»åıĸåĩºæĿ
ä¸ĭè½½ çļĦ
Current Version
Pa use
Split ter
super seded
¥çļĦ æłĩçŃ¾è¯»åıĸåĩºæĿ
Ġpay ment
Ġembedding s
Ġden om
Ġtool bar
ĠTemp orary
ĠTemp Directory
endQuoteChar Len
Ġ26 16
Ġprepend ing
ĠWK B
Parameter Numbers
quoteChar Len
customer Id
Ġidentify ing
çŃī å¾ħ
Ġflatten ed
attrib s
Ġaz ureml
Ġrepe ated
Ġsatis fy
defer red
thumbnail s
(": ")[
ĠCustom er
Ġmegab tyes
Ġqmix sdk
ĠMove ToPosition
LEVEL S
æŁ Ĳ
Ġquestion er
Ġsil ently
Ġ'| '
ĠPackage Finder
Ġ|__ |
ðŁĮĳðŁĮĳðŁĮĳðŁĮĳ ðŁĮĳ
({} )".
TW O
è· Ŀç¦»
è¾ ¹
arm up
Ġba seline
('{ {
quer ys
ĠACC y
ĠPublic Format
ĠBLOCK SIZE
OPTION S
ä¿¡ åı·
priv ilege
¸ë į
åľ Ĩ
Ġbran ch
Ġsli ces
ĠTrunc ate
ĠSI ZE
ĠSchema Editor
Ġdecor ated
macos x
ĠPip Error
ĠPip Session
Ġlocate ship
ï¼ī ")<$
ĠProject State
ĠGeneric ForeignKey
swap ped
åŃĺ ä¸ºåŃĹåħ¸
åĻ¨ é¢Ħæµĭ
"/ "
'} ),<$
cClean PitchRoll
cClean SunAngle
å· ®
Ġå°Ĩ ä»»åĬ¡
stre rror
ĠTri e
ĠCI RCLE
ĠPRO TOCOL
Ġcomput ation
ĠSecond s
ĠnamedItems Only
DDDD DD
ĠMessageEntity Mention
åĩºæĿ ¥çļĦæłĩçŃ¾è¯»åıĸåĩºæĿ
ĠBitSequence Error
=': ',
COD ING
WQ w
$>""" (
Ġaff inity
Ġrecurs ion
setColumn Width
uman ize
ĠStrict Version
ĠAxis System
ĠFlow Rate
perform ance
ĠLab eled
STAND ARD
ĠElement Tree
DEFIN E
FORWAR D
Ġfailure Tests
Codec Info
çĽ® æłĩ
COMPRES SION
continuousflow configurationservice
Fl uid
}- {
ç´ ¢å¼ķ
repe at
Ġamb iguity
Ġ################# #######<$
togg le
ĠSTR ONG
ĠPUR PLE
Ġgd cat
Ġmag ic
Ġmagn et
ĠsetDebug Actions
Ġunders cores
ĠRestore DrivePositionCounter
Ġcommit s
neji Annotations
ĠìĿ ´
Ġpeek able
SERI ALI
guild id
pGetAnc HBox
Cor rupt
Walk er
cpl x
gam ma
ern ally
Ġbid irectional
Ġeli min
Ġdl Name
abif lags
ĠSR ID
ĠCho ice
Ġcoord s
ĠDEL ETE
Ġmedi ums
resum able
GetFull UserRequest
ritic als
implied TagToken
WindowDark LineEdit
ĠCompile Error
shortcut s
ðĿĹ² ðĿĹ
ĠOverri de
$>######################################################################## #######<$
è¯·æ ±Ĥ
ĠLinearR ing
Ġê²©ì¶ Ķë
Br ush
LANG U
MARK ER
lleg al
sup plied
tol er
xon xoff
åŀ ĭ
æ³ ¨
Ġtil ded
Ġpus hed
Ġ"âĢ İ"]<$
Ġsld jf
Ġmand atory
idV RD
Ġanch or
('& (?
ĠAttribute s
prece ding
ĠOCT AGON
ĠVER SION
Ġweak ref
Ġunlike ly
ĠHEX AGON
ĠNET RC
ĠInstanti ate
Ġopenpy xl
pick le
tempor als
âĸĪâĸĳâĸĳâĸĳâĸĳâĸĳâĸĳâĸĳâĸĳâĸĳâĸĳâĸĳâĸĳ âĸĳâĸĳâĸĪ\
Ġê³µ ê²©
åĪĨç±» åĻ¨é¢Ħæµĭ
ðŁĮĵðŁĮĵðŁĮĵðŁĮĵðŁĮĵ \
Ġëª¨ë ĳĲ
Ġ"âĸĵâĸĵâĸĵâĸĵâĸĵâĸĵ âĸĪâĸĳâĸĳâĸĳâĸĳâĸĳâĸĳâĸĳâĸĳâĸĳâĸĳâĸĳâĸĳâĸĳâĸĳâĸĪ\
ĠTRIANG LE
"âľ Ĺ
CIP HER
Dyn o
Im g
IDEN TIFIER
Mas ked
Mid Pos
Whe el
bDescriptor Type
dash board
fselect ComboBox
goc ad
gow itness
sche mas
yan ked
¥å¹¶ èµĭ
æĦ ı
æļ Ĥåģľ
çĬ ¶æĢģ
Ġjo b
Ġabu se
arrow head
lefto ver
Ġrepresen ted
urser y
celebr ities
Ġincorpor ates
Ġbas is
Ġelev ation
Ġmist ake
issub set
chero ot
Ġharm ful
(".* "):<$
clinical Notes
Ġ+") ;").
ĠdataAt Lambda
foreg round
ĠLif e
filetree Widget
Ġdiac riticals
STAL LED
STDO UT
FFIC IENT
INCLU DE
ĠRequi res
ĠBRO WN
ĠHAND LE
ĠNorm ally
REPL ACE
Ġsuperscript s
ĠInsecure RequestWarning
defaultException DebugAction
defaultStart DebugAction
defaultSuccess DebugAction
ĠRob ert
Ġextran eous
maxSpec ified
THRES H
ĠQStandard Item
ĠnextLevel Indent
5766 93
HeaderLabel s
Archive View
ĠëĲľ ëĭ¤
PyQx Qy
ĠBaseAdmin Plugin
skipIgn orables
ĠCommandExecution Status
PasswordHas her
äºĪå¯¹åºĶ id
RhoRad oButton
ĠæĬĬ åĪĨç±»åĻ¨é¢Ħæµĭ
Ġìŀħëł¥ íķĺ
ĠMessageEntityMention Name
åĩºæĿ¥çļĦæłĩçŃ¾è¯»åıĸåĩºæĿ ¥å¹¶èµĭ
ĠæĬĬåĪĨç±»åĻ¨é¢Ħæµĭ åĩºæĿ¥çļĦæłĩçŃ¾è¯»åıĸåĩºæĿ¥å¹¶èµĭ
ĠæĬĬåĪĨç±»åĻ¨é¢ĦæµĭåĩºæĿ¥çļĦæłĩçŃ¾è¯»åıĸåĩºæĿ¥å¹¶èµĭ äºĪå¯¹åºĶid
! "
! '<$
! ),<$
" -
" }
" '<$
" ``.<$
" *.<$
" });
$ %
$ '),<$
$ {:.
& "
' -
' ``
' '.
' })<$
' ...'
( ()):<$
) ()<$
) (<$
) //
) [-
) }</
) ([\
* '
* "<$
* ).
* "])<$
* [@
* ?"
+ .
+ -]*
, )).
, :],
, @!#
- (
. ")
. ``,
. {}".
. ```")<$
/ ",<$
/ ></
0 56
0 64
0 52
0 306
1 992
2 98
2 48
2 77
2 14
2 15
2 37
2 90
2 75
2 14748364
3 16
3 02
3 48
3 34
3 20616
3 373
4 02
4 38
4 77
4 247
4 753
5 20
5 48
5 80
5 26
5 407
5 225
6 12
6 32
6 30
6 77
6 26
6 51
6 21
6 207
6 1646
6 006
7 12
7 38
7 18
7 57
7 46
7 26
7 45
7 06
7 417
7 179
7 965
7 158
8 20
8 12
8 26
8 35
8 78
8 93
8 409
8 486
8 3211
8 223
8 588
9 01
9 10
9 57
9 19
9 45
9 53
9 306
9 503
: ",<$
: }<$
: ``,
< "}
= <
= ((
> ),
> %(
> ``<$
? |
? ')<$
? """<$
? ?<$
? ```
A K
A MP
A VER
A AM
A sk
A verage
A AU
A rea
B D
B F
B H
B I
B m
B n
B est
B STR
B US
B ABLE
B LAKE
B lowfish
B ROW
B wY
C w
C OR
C ES
C alled
C TED
C AP
C NN
C IF
C ategorical
C kl
C ILL
C ardapio
C IMAL
C ASCADE
D g
D y
D an
D ay
D uration
D isplay
D ays
D osage
D etachedSignature
D awnDuskFlag
E B
E W
E y
E DE
E ach
E poch
E very
E ither
E cc
E OK
E poll
E AG
E MB
E BB
E IB
E MPTY
F B
F P
F ar
F iz
F RE
F lat
F ET
F ld
F ULL
F older
F loor
F SM
F uck
F DL
G Z
G t
G y
G re
G ot
G am
G IT
G RC
G Hash
G HASH
G HI
G INE
H V
H a
H b
H c
H g
H s
H EN
H ref
H ome
H ob
H DF
H ChaCha
H az
H ours
H IGH
H METAFILE
I A
I J
I Y
I b
I c
I j
I AL
I Stream
I em
I Metadata
I Storage
I ConnectionPoint
I oq
I llegal
J L
J g
J z
J AF
J lu
J DM
J Gt
J Ib
K L
K b
K y
K z
K SS
K ras
K Gu
K Dy
L F
L Q
L ate
L ING
L mv
L gr
L HV
M W
M X
M d
M ul
M sg
M ask
M UL
M utable
M II
M atched
M otor
M GF
M ercurial
M CharacteristicPoseDataset
M JL
N R
N ID
N AN
N OP
N EL
N ae
N ever
N Bit
N adam
N JDM
O W
O X
O d
O z
O TE
O LS
O rig
O AE
O hg
O cte
P m
P w
P in
P ing
P late
P ING
P QL
P ABLE
P TED
P sq
P ippo
P RIME
P ayment
P HVM
P LICATION
Q p
Q Widget
Q RST
Q FR
Q WA
Q Table
Q Dr
Q uick
Q PointF
Q Bm
R Q
R u
R en
R ab
R bj
R ip
R out
R AD
R ight
R NN
R AW
R adianceGroup
S Q
S Z
S f
S k
S q
S ame
S li
S ync
S ide
S CT
S can
S tep
S andbox
S alsa
S peed
S quare
S coped
S WQw
T w
T z
T ew
T ake
T ODO
T DES
T VB
T ape
U s
U ri
U RE
U plo
U CTION
U sb
U ìĿĺ
U DRouter
U Hs
V u
V x
V Length
V ars
V aT
V idVRD
W C
W Y
W d
W i
W n
W t
W Ê
W OR
W ER
W ait
W xA
W ANT
W XY
W OX
X P
X UL
X ChaCha
Y Nx
Y LC
Y Pi
Z G
Z il
Z LI
Z cd
Z oom
Z OW
[ .
[ ]<$
[ ],
\ ""
\ ___/
] ^
] }
] }<$
] !=
] ().
] `<$
] =[
] })<$
] ``.<$
] `,
] }.{
^ |
_ (<$
_ "]
_ ':<$
_ '):<$
_ %(
_ ')[-
_ :").
` "
` '<$
a Q
a j
a ed
a ir
a ac
a GR
a Clean
a Ky
b ro
b str
b ba
b db
b Test
b org
b script
b For
b rl
b order
b zip
b fr
b idden
b fc
b dc
b enchmark
b Mb
b Vy
b rowse
b rackets
c C
c p
c la
c ir
c da
c ant
c be
c script
c adata
c rs
c ular
c proto
c FILENAME
c PitchRoll
c SunAngle
c rossentropy
c NJDM
d X
d h
d q
d al
d ys
d ark
d ater
d ilation
d Handle
d Wv
e a
e ad
e very
e lem
f W
f x
f ad
f type
f tp
f names
f div
f rag
f ae
f alling
f atal
f lict
f PQL
g b
g as
g ist
g reate
g mpz
g old
g ids
g lish
g QK
g BwY
g LQ
h l
h and
h util
h reads
h Jlu
h KDy
i co
i list
i mat
i ator
i irst
i ased
i hbeg
i Redir
i HZ
i GZ
i QDr
j et
j Wn
j ZOW
k C
k c
k i
k ule
k ref
k Len
k RX
k Np
k Pw
l name
l stat
l Ox
l Nn
m q
m id
m ute
m ero
m allow
m initerm
m LP
n Q
n j
n l
n pt
n ight
n ail
n Or
n cryption
n templates
n ëĭ
n æľ
n fc
n Usage
n ginx
n Ã©es
n largest
n Us
o S
o z
o mp
o ser
o bot
o Yk
o hbeg
o QWA
p q
p In
p lease
p av
p ped
p ink
p State
p Names
p itch
p Rc
p onentialBackoffStrategy
p romote
p adder
q bf
q Sz
q rst
q Qp
q Vx
r h
r u
r up
r len
r lock
r Type
r find
r buf
r ws
r shift
r bufsize
r Tw
r Vu
s X
s len
s low
s pected
s String
s Len
s imp
s lot
s NotFound
s alsa
s ieve
s lave
t or
t te
t pe
t un
t one
t ile
t path
t age
t String
t desc
t gui
t Cs
t iming
t ifact
t Ss
t JGt
u il
u ations
u Ar
u ven
u vs
u aop
u spro
v R
v an
v ad
v list
v len
v low
v desc
v si
v bs
v xl
v bscript
v jWn
w file
w orm
w ful
w tf
w izard
w xyz
w BX
w KGu
x M
x h
x ba
x bc
x chacha
x imate
x oz
x wBX
y m
y r
y label
y ticks
z ew
z ily
z did
z Bn
z Tew
{ <
{ {
{ ")
{ ">
{ "<
| /
} """<$
} ')
} ={
} ."<$
} "{
} ::<$
} {:>
} ^{
} ï¼ī")<$
¡ ç®Ĺ
¢ ðĿĲ
¦ ĭ
ª åĪĹ
® æĶ
¯ æĮģ
± ìĬ¤
³ ´
¶ Ģ
¸ å¦Ĥ
¹ ìĭ
¹ æĹ¶éĹ´
¼ Ð¾
¾ çļĦ
¿ åº¦
Ã §
Ã Ń
Ñ Ĩ
Ñ ĩ
Ò ĵ
å Ł
æ ·»åĬł
æ ¸ħ
ç İ
é ª
é ķ
ë ª
ë ¬´
ì ĸ´
Ġ ur
Ġ ]))<$
Ġ })
Ġ ä»
Ġ åħ
Ġ åıĸ
Ġ æĸĩä»¶
Ġ ðĿĹ
Ġ à·
Ġ utc
Ġ ï½
Ġ íķĺ
Ġ åıĤæķ°
Ġ Ñģ
Ġ å¾ħ
Ġ áŀ
Ġ ^^^^
Ġ å¤ĸ
Ģ åĩº
Ģ á´ı
Ģ ìĿ´í
ģ °
Ĥ è§
ĥ ģ
ĥ çŃĸçķ
ĥ ĢìĿ´í
Ī æĿ
ĭ Ģ
ĭ É´
ĭ åĲİçļĦ
į åĬ¡
ı æĺİ
ı Òĵ
Ĳ ĺ
ĳ ëĭĪëĭ¤
Ķ ë©´
ķ ìĬ¤
Ļ äº
Ľ çļĦ
ľ sá´ĢÉ¢á´ĩ
Ŀ ¼
Ł è®¡
ł ìĿĺ
Ń BucketçļĦ
$> `
$> --------
$> %(
se x
se er
se aBASSHeader
in c
in de
in headers
in direct
in fer
in stead
in active
in Table
in Tree
in correct
in FilePath
in finite
in strlen
in AccumNames
re ment
re places
re named
re structured
on s
on load
on avi
on Kras
at ypes
er rer
er onKras
or o
or sel
or ite
or row
Ġt I
Ġt ve
Ġt end
Ġt ic
Ġt ft
Ġt ick
Ġt uner
st ick
st acle
st acked
st Classifier
st ucount
en ing
en ess
sel ae
sel enium
Ġi par
al one
al ready
al iyun
al Results
al iased
de e
de te
de mand
de crement
de conv
de tokenize
de cod
de tokenization
de scriptions
de lpfp
Ġa i
Ġa od
Ġa cl
Ġa qui
Ġa gg
Ġa mt
Ġa wful
me tri
me moize
ar ate
ar lier
ar tofB
Ġc u
Ġc le
Ġc red
Ġc ity
Ġc ses
Ġc ffi
Ġc mt
Ġc dtype
Ġc licked
Ġc ategorical
Ġc umul
Ġc heroot
Ġc SHAKE
le Type
ion er
Ġf g
Ġf o
Ġf ul
Ġf sp
Ġf dex
Ġf score
Ġre c
Ġre name
Ġre write
Ġre cor
Ġre using
Ġre versible
Ġp g
Ġp x
Ġp tr
Ġp url
Ġp ax
Ġp fp
Ġp att
Ġp rng
Ġp aster
te am
te tag
te ts
te oro
ur als
ur tle
an ext
an ner
an alog
Ġ" $
Ġ" //
Ġ" âĸ
Ġ" ...
Ġ" </
Ġ" âķ
Ġ" (%
Ġ" ```
Ġ" âĸĳâĸĳâĸĳâĸĳâĸĳâĸĳâĸĳâĸĳ
ro id
ro do
it tered
it ored
ce f
ce de
ce xoz
Ġn r
Ġn id
Ġn types
Ġn ice
Ġn rows
Ġn ports
Ġn Ãº
Ġn ursery
Ġn tpath
ge s
ge ography
ge tetag
Ġin st
Ġin form
Ġin direct
Ġin ject
Ġin FilePath
Ġin vokes
Ġin coming
Ġin AccumNames
Ġin hibit
Ġin spected
ut ting
Ġb d
Ġb te
Ġb Request
Ġb atches
Ġb Unicode
Ġb lacklist
Ġb BuildHidden
Ġb ConfigurationValue
ing Result
ing Rule
ing dom
Ġs f
Ġs un
Ġs ss
Ġs code
Ġs low
Ġs sh
Ġs ie
Ġs Len
Ġs olver
Ġs light
Ġs indy
Ġs andboxed
Ġs lave
Ġs hebang
as ing
as sed
as pect
mp os
Ġe mp
Ġe pt
Ġe ver
Ġe msg
Ġe cho
Ġe mul
Ġe arlier
Ġ# ')]<$
Ġo h
Ġo len
Ġo pr
Ġo mn
Ġif c
Ġ' &
Ġ' @
Ġ' ``
Ġ' **
Ġ' ********
Ġ' --------------------------------
Ġ' :'
Ġ' @!#
Ġ' ]',
Ġd X
Ġd Y
Ġd in
Ġd mp
Ġd ile
Ġd om
Ġd riv
Ġd dx
Ġd ashes
Ġd ilation
Ġd ispatches
Ġd kLen
Ġd mq
li d
li e
ate ways
ad o
ad or
ad ce
def rag
def using
Ġw p
Ġw len
Ġw range
Ġw elcome
Ġw ire
Ġw ays
Ġw izard
Ġw armup
Ġw kref
co v
co ff
co uld
co ffe
co eff
Ġm gf
ot ype
ot hers
ot iator
__ "
__ ]<$
__ ('
__ '],
ra m
ra ce
ri an
ri mmed
un o
un install
un ops
un gettext
un sort
un parsed
un freeze
Ġis atty
Ġ( ('
Ġ( ),<$
Ġ( ),
Ġ( )),
ul lable
ul abel
id ers
id ual
Ġreturn TypeDesc
ort ion
get size
get info
get ting
get Group
get Open
get member
get lastmodified
get sockopt
Ġfor cibly
is Float
is zew
il ver
il ding
il ename
ser ving
ck ly
ck Opt
int y
int Expr
Ġto day
Ġto ler
Ġdef ect
Ġdef Args
Ġan t
ch art
ch ines
ch itecture
th en
th readed
ss ss
ss ol
str xor
di fferent
di fference
la ves
set Attribute
set Default
set Velocity
set sockopt
set ErrorHandler
set Pen
mport From
up ver
up qQp
ĠT r
ĠT wo
ĠT EST
ĠT á´ı
ĠT ARGET
Ġ""" -----
key func
Ġ_ (),
', ))<$
', )),
od er
Ġh ar
Ġh and
Ġh len
Ġh its
Ġh ps
Ġh chacha
Ġh ier
Ġh orse
sp am
sp here
(" !
(" )")<$
(" });
(" ?",
== "
ter ms
iz able
ol ang
ol ding
ol tar
ol tage
Ġth ing
Ġcon tact
ed By
value Changed
(' @
(' )<$
(' //
(' +')<$
Re trieve
Re curse
qu it
Ġ1 50
Ġ1 55
Ġ1 38
Ġ1 36
Ġ1 76
Ġ1 52
Ġex ported
Ġex change
Ġex pref
Ġex plain
po c
po TVB
ab f
ab ort
Ġimport ing
Error Printer
from utc
tr ary
to pk
to WW
ver bage
ver tex
ver gence
() ("
() ()<$
() ])<$
() """<$
() ))
() },<$
() )),<$
() ?<$
() '.<$
all ength
all Humidity
par m
par ing
par as
es at
for warded
Ġ[ ]):<$
cl z
cl er
ĠS el
ĠS end
ĠS um
ĠS cheme
ĠS ci
ĠS creen
ĠS CRE
ĠS andboxed
ĠS ZA
ĠS QLAlchemy
ĠS anity
ĠS ilver
Ġbe cu
Ġas gi
am ir
am ble
ĠI F
ĠI mplementation
ĠI mplements
ĠI ConnectionPoint
ĠI VLength
vi a
ĠC H
ĠC R
ĠC md
ĠC OL
ĠC HE
ĠC CM
ĠC aught
ĠC uDNN
ĠC RT
ĠC ATEGOR
ig ure
ip ient
Ġ* ",
bu ff
ist art
Ġde pt
Ġde posit
Ġde tected
Ġde ploy
Ġde epcopy
Ġde gree
Ġv min
Ġv max
Ġv table
Ġv box
Ġv olatile
ĠA D
ĠA p
ĠA ss
ĠA ction
ĠA cs
ĠA AB
ĠA ria
mat s
Ġ: ]<$
Ġ: :-
type Comment
Ġst e
Ġst and
Ġst ray
Ġst amp
Ġst upid
Ġpar k
Ġpar ms
Ġpar ses
Ġco ok
Ġco vid
Ġco verage
Ġco mports
Ġ== >
-- '
-- <$
00 03
00 08
00 45
Ġr ts
Ġr ank
ma j
ĠF F
ĠF ill
ĠF lags
ĠF AIL
ĠF igure
code Template
ht tpe
Ġ{ <
pro bs
pro cesses
pro mpt
out h
out key
out len
out file
out headers
out side
out dated
ĠP ad
ĠP AT
ĠP IN
ĠP ipe
ĠP IP
ĠP IDL
ĠP ossible
ĠP BKDF
ĠP ATCH
ĠP urge
ly Used
ĠD S
ĠD ue
ĠD ig
ĠD rain
ĠD TR
ĠD OS
ĠD rop
ĠD ummy
ĠD LL
Ġ` --
Ġname ly
Ġse d
Ġse ss
Ġse gs
url Path
et ting
Ġ2 98
Ġ2 0000
Ġ2 202
Ġdata Type
Ġg ame
Ġg id
Ġg ens
Ġg ated
Ġg ray
Ġg old
Ġg ids
Ġg rid
Ġg rows
Ġg ateway
pre fetch
pre Condition
pre served
Ġpro t
Ġpro tected
ine Edit
ine quality
Ġen for
Ġen counter
lib name
lib Encoder
Ġme tric
Ġme moize
ms vc
init Crc
ic ipants
ĠL A
ĠL t
ĠL ive
ĠL CS
ĠL PC
ĠL ABEL
ĠL TP
ĠL atin
ĠL ecture
ger y
file id
ub yte
py d
py object
py game
py wintypes
Ġkey len
Ġkey Name
Ġkey Size
Ġma cos
Ġma chines
Ġwith Request
Ġget content
Ġget frame
Ġget Content
Ġget Tree
Ġget Random
Ġdi fference
ext ernally
ta inty
res Path
op qrst
ĠM O
ĠM atch
ĠM SI
ĠM AX
ĠM ater
ĠM ini
ĠM GF
ĠM iller
ĠM ercurial
ĠM orsel
ok ing
), )<$
lic a
lic ies
ST G
ST Y
ĠĠĠĠĠĠĠĠĠĠĠĠĠĠĠĠĠĠĠĠĠĠĠĠĠĠĠĠĠĠĠĠ ĠĠĠĠĠĠĠĠĠĠĠĠĠĠĠĠĠĠĠĠĠĠĠĠĠĠĠ
ĠĠĠĠĠĠĠĠĠĠĠĠĠĠĠĠĠĠĠĠĠĠĠĠĠĠĠĠĠĠĠĠ ĠĠĠĠĠĠĠĠĠĠĠĠĠĠĠĠĠĠĠĠĠĠĠĠĠĠĠĠĠĠĠĠĠĠ
ho mes
add Test
add ParseAction
ff a
ff ed
are st
Ġtry Parse
ĠO VER
Ġresult Doc
Ġresult TypeInfo
ĠV ary
ĠV AN
art ifact
__( ))<$
ind x
sc ra
Ġ> `
'] +
'] .__
'] ).
'] !=
'] )):<$
'] },
'] },<$
'] =='
mo s
mo ving
mo zilla
Ġch a
Ġch root
Ġfile List
Ġthis Depth
Ġal ts
Ġal ug
Ġal locate
Con stants
Con dExpr
ens ive
time i
time table
time Stamp
In directed
In finite
In dic
error Handler
field sets
lock ing
lock Path
lock Property
ĠE d
ĠE IN
ĠE ager
ĠE AX
ĠE ven
ĠE CC
ĠE ffect
ĠE lectra
ĠE EP
ĠE verything
ĠE FFICIENT
Ġout key
Ġpre training
Ġpre fs
Ġpre calculate
Ġpre pped
der Int
Ġ3 5
Ġlist ening
com bined
Ġun ion
Ġun do
Ġun ix
Ġun decode
Ġun used
Ġun compressed
Ġun cer
Ġun ban
Ġun greedy
Ġun usable
ĠU til
ĠU sá´ĢÉ¢á´ĩ
read cr
ca c
ca e
ca file
ca seless
os urandom
// =
IN ET
IN DEX
Ġx range
Ġx xx
import lib
ial be
rap ing
ĠW ANT
ĠW RITE
ĠW ik
Ġar bitr
20 1
20 5
20 11
20 46
20 15
20 49
20 83
20 27
20 29
20 111
20 776
#### #
`` )
`` '.<$
ĠRe s
ĠRe direct
ĠRe lease
ĠRe cent
ĠRe verse
ĠRe solution
ĠRe vision
ĠRe sources
ĠRe trieve
ĠRe petition
ĠRe writes
[" %
[" {}
** :\
string filter
ME DIA
Ġtest it
Ġtest ed
Ġtest Obj
Ġtest Bad
Ġtest Encrypt
Ġtest Decrypt
Ġtest Err
append Lo
im gs
cess ary
version ing
Key Version
Key Tests
Key Marker
Key Deletion
ĠB E
ĠB utton
ĠB OT
ĠB IGNUM
ĠB etter
ĠB rown
ĠB orrow
DE VELOP
new er
new Name
new Pipe
ĠH as
ĠH ub
ĠH andler
ĠH IDDEN
ĠH ChaCha
ĠH IGH
ĠH etting
Ġmodel form
pp sm
pp sx
Ġ** <$
ill ion
Ġ`` [
Ġ`` |
ĠN et
ĠN ext
ĠN once
ĠN IST
Ġrequest method
Ġstring ify
Ġfield name
Ġdefault To
RE MENT
RE PLICATION
Ġuse Regex
Ġuse Policy
Ġuse Dispatcher
col lect
ĠG F
ĠG u
ĠG x
ĠG y
ĠG ame
ĠG ot
ĠG RO
ĠG CTR
ĠG IL
ĠG AE
ĠG ENER
ĠG dk
ĠG RAB
ĠG CD
ĠG rab
ĠG ateways
jo ing
iv Hb
Ġdo ignore
ec d
ec params
map Vars
ir us
ir shift
ys ical
http server
12 10
12 22
12 13
12 73
12 120
test Data
test RT
est imat
Ġnew ly
Ġnew ES
Ġnew train
Ġnew sections
Ġnew Rrs
Ġnew Reflectance
Ġnew RadianceGroup
Ġat omics
[: (
:// {
:// '<$
:// ':<$
ition controller
ac ent
ac dd
ac be
Ġcl z
Ġcan cel
Ġcan ParseNext
Ġint ro
Ġint Expr
Ġint Angle
bo keh
ag c
ag g
ag ar
line To
line statement
EN CODE
EN OT
EN WIDTH
EN CODING
EN HMETAFILE
Ġle arn
Ġle cun
01 45
01 75
01 02030405060708090
"] })<$
"] ..."<$
Ġ| ___/
Ġ| ____/
Ġ| )([\
ID X
ID ER
log dir
log level
da e
da ae
da acbe
lat ing
ence s
Ex patParser
Ex WQ
Ġoutput lines
ll TT
split ter
header Block
pen ded
ĠIn tern
ĠIn variant
ĠIn tegr
Type Comment
ml rr
reg ist
reg ions
pr ng
Ġk i
Ġk v
Ġk df
Ġk ingdom
SS H
ber ta
Ġfil led
Ġhe ld
Ġhe uristic
Ġ4 17
Ġ4 36
Ġ4 182
default Value
ET ag
FOR CE
Ġcomp uting
ref errer
32 7
32 30
32 66
32 276
32 466
AL ONE
ĠR ay
ĠR ole
ĠR oom
ĠR aster
ĠR NG
ĠR IPE
ĠR outines
start Element
start stop
start Tag
AR CH
AR ROW
Ġurl split
Ġurl Dict
Ġurl Path
Ġurl conf
Ġurl unparse
Ġurl defrag
Ġerror Handler
write SeaBASS
Name State
Name Visitor
comp ose
response s
num threads
') .<$
') .__
') )):<$
') )]<$
ard ous
Ġresponse EL
max Age
user base
Ġversion ing
root cert
root EL
TT LING
has her
og l
Ġ(' _
Ġ(' ',
view doc
not a
not Chars
not rimmed
FORMAT TER
TH E
TH RO
Ġno cover
yn fA
10 54
10 43
10 230
Pro c
Pro ps
Pro gID
Pro pNames
Ġuser Dict
Ġmax Exception
Ġmax imal
Ġmax events
Ġmax So
Ġmax Depth
use s
use rag
use Dispatcher
âĸ Ģ
fix up
Ġevent ually
server Sh
module Name
16 1
16 03
16 69
16 0010
Ġsh all
Ġsh adow
Ġsh ifted
ren am
ren do
Ġback off
Ġ\ '
Ġ\ _
Ġ\ ____
ax p
ax iss
ft id
Ġconfig parser
TR IM
TR AIL
TR OTT
Ġchar List
File Error
File Handler
File Resource
File Metadata
do i
do Action
son g
direct s
St dHandle
digest Algorithm
Ġca ptcha
sh anks
50 26
50 66
50 857
Data Bits
be at
be af
be Endpoints
") ):<$
") ("
") ])<$
") )):<$
Ġpo ses
56 3
56 56
56 96
56 37
56 139
56 612
SI C
ðŁ ¦ĭ
SSL Context
([ -
([ _
([ ],
cs r
cs Name
cs rc
md xr
Ġ8 255
we et
open ing
ĠCon struct
ĠCon trol
ĠCon firm
ĠCon dExpr
ĠCon trary
content Type
Request Error
Request Id
Request Payment
Ġla zily
tag name
FA IL
Ġcurrent frame
TI C
TI VE
De cay
nd oc
Ġac quire
Ġline style
raw text
ak id
Ġadd ParseAction
02 18
02 90
02 5066
fil ts
Ġstart Set
Ġ5 3
Ġ5 8
Ġ5 01
Ġ5 000
Ġcheck points
Ġany where
Ġblock visit
ba af
Ġtoken list
Ġtoken Dict
LO UR
python path
ong Test
ong Random
opt i
UL ongTest
av a
av Rc
db g
db Name
Ġcom stat
30 95
30 727
AC S
AC Ohg
AC omp
Ġpy op
Ġpy format
Ġpy Serial
vid ual
check er
cur item
find me
find text
index ed
DA O
block ing
ĠEx ponentialBackoffStrategy
Ra ise
Ra inf
Ra ising
Get item
Get Tag
Get Names
Get Raw
Get Multiple
Get Func
Get Async
Get LiveChannel
Get UserQosInfoResult
Get Indirected
Get StdHandle
sub key
sub path
sub type
sub cls
sub mitted
sub plots
Ġ7 2
Ġ7 6
Ġ7 31
Ġclass ify
Ġclass ification
doc m
doc x
Ġsp ot
Ġsp iders
Ġsub key
Ġsub scription
Ġsub sequence
Ġsub directories
Ġdirect s
Ġread All
Ġcontent Type
Test OtherCiphers
Test Variable
Ġnonce Size
Ġ{} '
Ġ{} )
Ġ{} ),<$
Ġ{} /{}
yste mpos
Ch at
List View
List Ali
)) },
Ġsource code
Un modified
Un parsed
{} </
{} :{}".
Ġdate Day
cache able
ps u
ps Dialog
Ġopen ssl
pi cker
pass wd
ĠQ Frame
ĠQ Application
ĠQ PushButton
match Len
128 08
An alog
An alyser
su ch
su cc
items ize
Bu iltin
Bu ilt
Bu zz
Ġli m
Ġload ers
Ġ10 64
var args
Ġcal cu
64 40
64 52
64 44
64 068
dist map
Ġ9 2
Ġ9 26
Ġ9 76
Ġ9 8765
Ġper c
Ġper forms
Ġper manent
Ġper imeter
Ġtrans func
Ġtrans lating
OP TS
Ġinit range
Ġinit Crc
Response Cls
SE E
SE QUENCE
ined ExecutionError
11 357
11 85
Ġbreak s
Se lection
Se LU
FI C
FI ABLE
tv s
trans lations
DI ZG
RL n
Ġ'' },
LI T
LI VE
Ġval ignment
Ġab orted
ĠKey words
ĠKey Transform
mod Bits
mod alResults
Ġav g
cre ator
Ġbody node
fore ign
fore cast
Ġmod Bits
Ġindex ing
Ġextra Args
Ġ) [
Ġ) ._
Ġ) [:-
Ġlock ing
Ġlock file
Ġlock info
Ġlock Path
Ġlock manager
Ġlock Root
Ġlock discovery
Ġlock Href
hash lib
hash mod
hash cmp
UN DED
man uel
unk s
RI P
RI TES
RI mportFrom
ĠUn install
ĠUn less
ĠUn register
ĠUn declared
ĠUn decod
Not ify
Not Empty
Not Matched
Ġsign ing
process or
Ġend Time
Ġwhen ever
98 99
98 86
98 876
98 136
Po licies
}, {
}, {:.
Dict Encoder
Dict Cursor
40 6
40 55
40 88
40 546
22 57
22 100
22 58
22 70
22 468
55 1
55 76
55 50857
Ġreq type
igr ated
256 5026
CON T
CON VERSION
Ġmo ment
Co mplete
38 77
38 57
38 39
38 35
38 60
38 838
38 12120
38 56612
]) \
]) ;<$
vis io
',' ')<$
Map Error
json b
Ġover writing
Set s
Set TestProperty
Set VariantSafeArray
Char Test
exce pted
Ġreg istration
For ward
For CLSID
Ġ100 7
Ġ100 53
17 1
17 18
17 46
17 78
17 002
IT ER
PE G
Ġdoc info
96 0
96 64
96 99
96 57
96 66
96 67
96 002
96 230
METHOD S
(( %
work around
Ġgener ators
batch size
batch norm
batch Input
Ġmin ute
Ġ[' <
Ġ[' %(
Ġport al
Ġdis h
Ġdis gra
={ \"
(_ )
strip ped
PI CT
byte code
mon d
mon key
99 0
99 204
99 025066
AB AAM
pk u
Ġwas n
Reg Query
Ġhelp ers
GE O
cmd s
Ġresp code
Bucket UserQos
Bucket åĬłå¯Ĩ
Bucket NotEmpty
STR ONG
48 46
77 4
77 34
77 72
77 81
sol ns
bucket s
Content MD
Ġunder line
Ġparent hesis
18 58
18 356
ĠX ChaCha
ĠX CEPTION
ULT S
DAV Provider
DAV Resource
DAV MOUNT
ä¸ ¾
Ġconn ected
57 26
57 2257
ĠDe ad
ĠDe terministic
IO S
IO U
level bot
dent s
ance stors
Ġsc ale
Ġsc rapy
Ġsc rapper
CH O
Ġcor rupt
Ġcor outine
Ġcur ses
Ġwork around
App lications
App QuotaUsed
pend ing
less ly
less WindowHint
0000 0001
cent ral
cent Background
ĠTest Word
ĠTest Vector
ĠTest Explorer
14 6
14 78
14 308
14 1516
14 706
36 28
36 60
36 95
36 948
cor r
Ġexp ensive
LA sString
NO INTERFACE
NO Oz
float s
Ġ'. '),
46 34
46 79
46 245
46 7296
46 1746
]] =
]] ]:<$
]] ))]<$
Ġwrite s
Ġwrite lines
Ġbuild sys
CT OR
last Used
Ġcopy ing
Path libEncoder
Ġman ifest
15 1
15 3
15 91
15 0175
dis card
dev poll
dev null
CE zdid
parent path
stat uspro
Connection Error
Connection Closed
ï¼ ģ
ALL Y
mult istatus
used XML
Ġtyp ical
37 56
37 69
37 28
37 27
37 18356
To Num
To Table
To gether
To DateTime
To Typelib
old Name
fail ure
ĠAr ithmetic
ĠAr chitecture
make Tags
ĠJ ust
ĠJ ittered
ĠInteger Field
GI L
gr ant
Al most
Ġq os
Ġq tgui
Ġro a
Ġro le
Ġcompat s
gra ded
80 4
80 9
80 77
80 907
80 46245
OS P
OS R
OS RImportFrom
gg ers
exp iration
exp anded
Ġreal path
dataset ToColumns
ĠPro psDialog
çļĦ åĩ½æķ°
çļĦ å¯¹è±¡
çļĦ èĮĥåĽ´
çļĦ å®½åº¦
çļĦ çĽ®æłĩ
Ar ityError
Ar tifact
Or dered
Ġauto matic
Text Field
Text IO
Text Transform
ĠMODE L
Ġsave list
Ġsend all
Ġsend Response
Ġass igned
box s
box es
Ġthere of
Ġdataset ToColumns
sor ption
site maps
Ġdon t
initial izers
Ġprefix es
sl t
Ġimplement ing
ĠCo unt
Ġmark s
oo v
serve Files
Ġsepar ators
ffe b
ĠNot Yet
Ġlevel s
Ġnon valid
QU OTE
User Notice
Col lation
åı ĺ
åı Ĥè§
du wKGu
34 1
34 5
34 34
34 73
34 93
34 47
the mes
ĠPy Win
ĠPy Ftdi
public ations
19 1
19 78
19 05
24 01
24 756
stop On
stop watch
Ġdir path
Ġdir url
Server Side
100 11
100 53
26 04
26 07
26 506
26 5206
26 5656
ĠAn omaly
QL ineEdit
Ġstri gs
Invalid Code
Invalid ELFFileHeader
Ġarg c
Ġarg v
Ġvis ited
Check ing
RC orrection
Ġtrain ed
Start Event
Start Doctype
ĠDer Octe
post Condition
76 1
76 56
76 9666
Ġvar Type
Ġ... }<$
Ġ... ]]
aded File
sha res
ĠGet Interface
ĠGet SubList
VER IFY
wh l
Ġ'/ '<$
Ġ'/ '.<$
change me
ĠĠĠĠĠĠĠĠĠĠĠĠĠĠĠĠĠĠĠĠĠĠĠĠĠĠĠĠĠĠĠĠĠĠĠĠĠĠĠĠĠĠĠĠĠĠĠĠ ĠĠĠĠĠĠ
ENT ORY
58 95
58 3696
58 907
58 503
58 910
Ġ". {
Ġ". "):<$
Ġ". *?"
+= (
cc b
cc rs
eb bd
eb cae
Ġì Ĺ
Ġenumer ation
72 5
72 31
72 517
72 2074686
72 10230
13 778
13 141516
Ġafter ward
Ġinstall er
BA SIC
No Return
No Encryption
No Attributes
No Recurse
Ġë ¬¸
Ġxml ns
PID LAsString
Version String
Version Id
Version ingResult
wsgi Applications
KEY ID
KEY WORDS
08 5
08 49
Ġ[" {
Ġ[" +_
Ġ[" *"])<$
Ad ded
Ad rian
Ġword Width
CF String
Ġref Url
Ġref lectance
Ġob vious
resource type
ĠSt andard
ĠMo unt
ĠMo difications
Lo gs
Lo aded
Ġsingle resp
mpl er
like Rest
send all
COM PL
crc Table
crc Algor
ĠApp end
ĠApp Percentage
ĠApp QuotaUsed
ĠApp endix
__, )<$
ĠData Frame
ĠData Source
66 07
66 598
66 666
66 2074686
66 757
66 2027
MAC OS
MAC HIN
MAC SelfTest
IL LA
Log in
Ġzip import
Pointer Base
Ġvisit ing
39 393
Import Include
07 97
07 105
ĠCom ment
Base Middleware
Base TestCase
IS FIABLE
Py Py
Ġscheme s
Ġmultiple s
86 7
86 9503
:} "):<$
Create Menu
ìĿ ¼
alp n
rid ge
ĠParse Fatal
escape s
EX EC
EX ISTS
EX CHANGE
system statuspro
zy Object
Date Field
Ġskip s
Ġdown graded
(? :%
è¯ ¥åı
è¯ ¸å¦Ĥ
Ġ'_ '
Ġdisplay s
Ġdisplay TypeComment
Ġmask ing
}) '
ĠCheck Clean
ĠCOM POSITE
INTER NAL
AV G
\\ %
á´ ¡
Ġpk s
Ġinstanti ate
Ġstruct ural
23 304
23 38838
49 0
Pre defined
Pre processing
Pre ferences
usb tools
usb virt
Ġsegment er
Ġzero es
flat pages
alt sep
dec im
dec lare
IP PRO
IP ersist
ĠBase Form
ĠBase AdminView
ĠBase HTTPServer
ĠBase DomainController
DR OP
Ġ"/ ")
upper word
ĠImport KeyTests
ĠCreate FileA
ĠFile s
ĠFile Metadata
ĠFile Exists
Ġlet ters
Algorithm Identifier
Ext ensions
ose Volume
oot er
Ġdelete s
SD Zil
my Net
tmp dir
using Extension
eta gs
CR ho
CR UDRouter
EE EE
EE ACOhg
ëĭ ¨ê³Ħ
******** *******
97 42
97 020
97 410
ob tain
ob stacle
Ġrelease s
ĠName s
ĠName Attribute
"{ _
LIN ES
ae a
ae ad
display name
Ġtri m
Ġtri cky
Ġtri ggers
Ġproject ion
ĠEn crypt
Ġspace Characters
384 99204
symb s
Le ss
hot os
hot fixes
les ale
45 339
Ġqu er
search path
ĠCh ars
ĠDAV Provider
ĠDAV Collection
TYPE MISMATCH
59 1
59 272
Ġpick led
Ref Type
Ref Handler
Ġraw text
Ġmain ly
Ġmain Menu
curs ively
VE WhY
insert Element
Ġfn match
ĠPre vent
ĠPre processing
Certificate PublicKey
Certificate PrivateKey
51 1646
51 40546
200 0
200 6
IC ES
IC AL
Sign er
handler Function
norm case
compat s
web analyze
Python Server
âķ °
ĠTemplate Response
Ġverify ing
AP HY
NN qSz
ud router
Ġ17 5637
EF yt
]* '
}. ",
}. '),<$
Ġge os
Ġge ometries
Ġkw list
tests hell
54 1858
Template AssertionError
cf c
optional NotMatched
Ġcrc fun
ĠInvalid Marker
ðĿ ĺ
Ġnorm Spec
Ġcontrol ing
Ġcontrol led
Ġ[] ],<$
06 7
06 89
06 786
31 3628
CP UìĿĺ
pare n
Ġsql alchemy
Ġgr p
ĠNo Default
Ġpost fix
88 1
88 12
Event s
Public ations
Trans ition
Trans action
Trans lu
Ġtask s
Ġforce Close
Frame lessWindowHint
II II
PRO BABLE
æľ ª
æľ įåĬ¡
any CloseTag
prop Name
prop names
204 966
204 5550857
SP RITES
Ġè ¦ģ
respon d
Ġprogress Instance
DO C
Web DAV
sec p
Ġissue d
Ġprop ag
Ġencryption Algorithm
ĠAny thing
ĠCommand s
'). "<$
Ġrepresent able
lap se
Ġsearch ing
ee f
alias Doc
alias Attr
ĠUser Settings
ĠUser Notice
81 9899
]+ )
over set
over laps
plat base
xA A
Ġlook back
clean se
Interface PreCode
BLOCK SIZE
CO LOUR
FR AME
dot m
dot x
dot ted
pat t
year s
year ssol
Ġencrypt s
Inte lligently
Input Data
NOT SET
basic Config
gi op
null s
si ra
sw ig
tz name
Ġtar obj
Ġ", ".
Ġcons umption
âĶĪâĶĪ âķ²
AES NI
Id Invalid
cu it
foc us
Default Provider
Default Rho
FUNCTION INPUT
Node Transformer
fit Type
å® Į
å® ŀ
let ters
Ġconver ting
Ġconver ters
ĠIN FO
ĠIN STALL
exe mpt
Ġcorrespon ds
Fore stClassifier
Size Test
xor Out
Ġcomplete s
101 112
101 324
101 572257
ECB Test
SQL ite
button Box
tc n
è¿ ĺ
è¿ ŀæİ¥
è¿ Ļäº
Ġoc tets
Ġmi li
ĠMax imum
ĠUnsupported Ecc
ĠWSGI Handler
Ġtrust me
expand path
URL S
Ġcomb in
Ġcomb inator
Ġpolicy Class
ĠUnicode ToString
78 16
78 013
78 5895
PAR TI
Ġedit ables
convert Dataset
ĠLo ader
ĠExt Handler
ĠWord s
ĉĉĉĉ ĉĉĉ
75 39
75 206
75 11357
75 3718356
IID s
MOD IS
PL M
PY PY
pad s
pad ded
window Flags
{: <
Ġrel u
('-- -
Ġ13 3473
Ġdelim ited
ĠModel Admin
Control Service
Control Adapter
Delete Objects
Ġident ifiers
Ġident ifies
ĠWeb Driver
Service Code
none xistent
ĠHyper Pipeline
Position Embedding
RES SL
ĠDo main
GetBucket UserQos
GetBucket InfoResult
GetBucket StatResult
GetBucket LocationResult
GetBucket LoggingResult
GetBucket CorsResult
GetBucket AclResult
GetBucket RequestPayment
GetBucket VersioningResult
Band Rip
PG SSL
ĠRE GEX
ĠRE QUI
ĠTime series
ĠClient Token
ĠClient Params
ĠField File
----- """<$
----- ''
acc bed
(?: "
bn f
inner HTML
(". ")[-
ĠFI LE
Ġoptim ized
NF D
NF kRX
Of hJlu
æł ¹
ê° ĳëĭĪëĭ¤
Ġcap abilities
tool tip
transform ations
69 727
69 348
SO LE
SO URCE
af d
af dec
rec ipient
Ġfun Name
Ġwsgi utils
Ġtop ic
ĠTra cking
ĠText Input
Ġhow ever
Res File
ĠSE LECT
DIST POINT
28 718
="" )
bb ff
Ġ} }')<$
Ġ"' '
Ġalias ing
havi or
206 36
)+ "]..."<$
bos selae
ç» Ļ
Ġfl tr
Ġfl upver
rig id
ĠTh anks
abs Path
ENCRY PTED
Ġtransform er
Code Generator
Pool Start
ef cf
reference d
Ġdecrypt ing
Exec utor
25 22
Byte Size
Byte CharSet
BIT MAP
From TypeLib
OID S
You Never
zero ed
å¼ Ģ
member Cache
Ġ'{ %
Ġwho lesale
ĠRead s
ĠDAVError s
PublicKey Info
)] ),<$
65 3
65 20746
65 22468
PS vs
Su ite
Su spiciousOperation
dc nu
pw csName
Ġslice Ave
Ġhtml safe
Array Test
Array Property
Array Separator
ĠDistutils Error
43 1591
:" +
Di gest
FE zBn
WA Y
supported lock
supported Props
Ġdrop ped
Ġmon itored
Ġus able
typelib GUID
Build Value
ä¸ª split
SUP PORT
ĠComp ressed
Password Reset
Crypto Bucket
Min utes
Min iRedir
Rule s
xl s
xl sm
xl tx
xl sx
ĠUN SIG
ĠUN SAFE
Ġtrunc ating
91 3856612
949 3
API s
BO sk
BO UNDED
Clo sure
fd ac
fd baaf
standard Live
heatmap s
Ġinternal code
("/ "):<$
("/ "),
ĠCol or
Ġ201 1
Ġ201 5
ĠMy Class
ĠMy SQ
collection Url
NIST TestVectors
Entity RefHandler
CRE ATED
QA A
Tree Builder
sim ilar
Ġau gment
Ġfont size
Ġkind ly
short user
FILE GROUP
Whitespace Chars
æĸĩä»¶ ç»ĵ
DSA PrivateKey
DSA PublicNumbers
DSA ParameterNumbers
px PyQxQy
è® ¤
Ġser r
this yearssol
ĠPath s
ĠDis allowed
ĠBlock Reference
ĠBlock SizeTest
Ġaccount s
multipart parser
>> >>
å½ ¢
Ġpayload s
Ġwave Temp
ĠID NAError
ĠImage Net
ĠLog uru
=', ')
DT M
Empty Provider
RSA len
RSA SP
RSA PrivateKey
Th an
Th reshold
bbox es
scope s
Ġupper word
Ġupper Pipes
tzinfo s
("" ):<$
("" ).
67 08
MI Hc
fa F
fa ada
look back
Ġeas ys
ĠCON TENT
shared info
Comp utes
Ġë° ķìĬ¤
COMMENT S
DJ tJGt
PA Y
PA GE
pub lish
å° ¾çļĦ
ìŀ ¥
Ġds rdtr
Ġdat atypes
ĠToken Stream
0001 02030405060708090
Ġhex dump
åĪĹ çļĦå®½åº¦
ĠState ment
ðĿĲ ŀ
ðĿĲ ¢ðĿĲ
'{ {
83 32
83 776
Wrap Object
Wrap Dispatch
ä¼ ĺ
Ġip port
Ġpub fields
Ġ"* "):
Ġ".. /
Ġside bar
Ġdispatch er
ĠCal culate
Ġproduct dir
Ġweb analyze
ĠSelect Parameters
ĠSelect OperationClientError
month s
Distribution Point
27 13
As String
And DES
And UserName
mem id
ĠReg Enum
Export DataKey
33 576
OGR APHY
aut oreset
bf da
bf accbed
Ġph rase
Ġhyper link
Ġlr x
ĠOF B
Process L
Ġorigin ating
Extension Type
Ġindic ated
29 02
546 12808
IR X
Toml PathlibEncoder
Toml ArraySeparator
tab Widget
tab ility
uv wxyz
ä¿ ®æĶ
enum erate
Ġsur f
Ġsur face
ĠStop Async
neg ated
ï¼ļ (
åŃĹ ç¬¦
79 206
79 164
LM NOP
éĢ Ģåĩº
éĢ ıæĺİ
delim ited
Ġrespon ds
Ġ"& #
Ġ'* ')<$
ssh str
ĠSign ature
ĠDec rement
document s
Chars NotIn
Comment Encoder
âķ² âķ²
Ġappropriate ly
47 1
47 5726
ĠTrans fer
ĠCP ippo
Ġdesc ending
ĠPrivateKey AlgorithmIdentifier
207 96
207 104
207 3756
ĠRemoved CommandError
acct Id
Ġactiv ity
Ġsuc ceeded
Change log
SB s
Util s
Ver bose
Ver bosity
writer ow
geo json
ĠUp on
Ġlex ers
ĠInitial ization
Protocol Exception
Secret Value
42 3727
HI vad
ä½ ĵ
Ġí Ĥ¤
Ġí ģ°
Ġí ĥĢìĿ´í
Ġbind ing
Ġbind Address
Ġbind ings
ferer Result
Prod uto
Prod qaa
Ġprimary Key
Ġobtain ed
Ġè® ¡ç®Ĺ
TAG S
aff inity
drop ped
inst s
Ġcar rier
Ġmer curial
("_ ")
ĠAd apted
Encryption OSS
LIB RESSL
572 20796
ĠKeras Graph
ĠKeras Tuner
ĠStream ing
ĠWebSocket Response
ĠWebSocket App
ĠWebSocket ProtocolException
à¶ ±
account s
Ġshut down
Interp olated
ĠDerObject Id
Adam Weight
callable s
å¤§ äºİ
å¤§ èĩ´
rsaKey Encrypted
63 31
Put ObjectResult
PER MS
Var ialbe
az ure
ĠOR DER
Ġpunct uations
Ġinv kind
Ġinv oking
Ġinner HTML
ĠSimple DomainController
Ensure Module
Ensure Dispatch
some thing
Arg Name
Arg Clean
Calibration Config
Calibration Settings
çĻ»å½ķ æĪĲåĬŁ
09 58910
FOL LOWING
Sh are
åį ³
Ġá´ Ħá´ı
Ġá´ ĭÉ´
Ġá´ ıÒĵ
Ġá´ ľsá´ĢÉ¢á´ĩ
Ĥæķ° æĺ¯
Ġ"[ ]"
Ġnone xistent
ĠAuto matically
ĠAuto Tuner
Ġ25 18
Storage Red
([^ /]+
Ġ97 4634
+" _:").
BY REF
EM SA
MS prop
Missing Lock
Part Number
squ ashed
slic er
æŃ ¤
heet Name
ĠSpatial RefSys
scal ed
Ġ36 00
ĠUsb Device
Ġ89 298
bypass ing
Ġê° Ļ
Generate DataKey
SOCK S
617 3
617 368
Boolean Type
Tra ce
mut ually
Ġfew er
Ġem Len
Ġanalyser s
ĠCor rect
ĠCor ner
Ġsever ity
ĠOpen BSD
ĠOpen Api
ĠresultCLSID Tuple
Ġtypelib CLSID
success ful
DIS PID
white list
External EntityRefHandler
æķ°æį® éĽĨ
æķ°æį® çļĦèĮĥåĽ´
åĬŁ èĥ½
PARAM FLAG
åĽŀ è°ĥ
697 8409
AF NNqSz
Download ing
LONG ITUDE
fm demod
mus l
pers istent
sur gery
¥åı Ĭ
ä¹ ĭåĲİçļĦ
ane ous
Ġ### #
Ġdead lock
Ġmet alink
SIG INT
ĠConver ter
Lock StorageRed
Ġowner Dict
orizontal HeaderLabels
AE ADE
CMAC Context
Func s
Func Factory
Private Numbers
iir B
pan el
}" ``<$
éĹ ŃBucketçļĦ
ì²Ļ ìĿ´
Ġpss um
Ġesc aping
ĠSh amir
ĠStr ongRandom
ĠInt FromGeom
ĠPAR SER
assertNot RegexpMatches
ĠLink s
ĠEN D
ĠEN GINE
202 3769
ĠGID s
Enable Quality
Enable Payload
108 264
ĠDef usedXML
Security Const
á´ı á´¡
adapt ive
Ġè®¾ç½® æŁĲ
FOLDER S
/? #
410 726
Async Iterator
Body Event
Der Sequence
Dig ital
Es HBox
Es Flag
LST RIP
Pump Fluid
Send Event
YY ABAAM
Zip Provider
Zero DivisionError
nor med
éĿ ŀ
Ġpag ination
Ġpag inate
Ġinf otype
Ġ(_ ("
ĠTyp ically
ĠEX PLICIT
ĠEX TRACT
ĠWh ite
ĠResource Warning
ĠNe eded
âĸķ âĸķ
Ġtrace ParseAction
Ġmarkup s
âĸĪâĸĪâĸĪâĸĪ âĸĪâĸĪ
Align Center
optimize const
Ġswitch ing
RhoRadioButton Default
RhoRadioButton Zhang
Ġconcaten ation
ĠRegister PythonServer
ĠAccount DAO
è¡¨ æĺİ
657 9493
OULD BLOCK
Scal er
ece e
ece cbb
pd hutil
åģ ļ
ç±» åŀĭ
Ġfast api
Ġpoll ing
ĠLoc als
ĠOPTION AL
lockdiscovery EL
Ġpreprocess ors
ACC x
EndTag NameState
Ġserialize Element
Ġadjust able
ghi jkl
Load s
Ġpropupdate list
SessionAccessKey Id
SessionAccessKey Secret
65204 26
65204 461746
ECDSA VerificationContext
Weight Sentinel
ðŁĮĹðŁĮĹ ðŁĮĹ
ðŁĮĹðŁĮĹ ðŁĮĹðŁĮĹðŁĮĹ
photo FP
TestVectors Wycheproof
TestVectors Gu
238 81
238 356
238 248
92 34939
Pa ir
Pa ste
ban ner
gl asi
runc all
ç§ į
anim ate
Ġdur a
Ġdur able
ĠTodo Serializer
Ġexplo de
ĠSu spiciousOperation
ĠSub scription
ĠFast text
Ġ26 0849
combin ations
Exp onentialBackoffStrategy
Stat ic
306 2338838
multip lication
Ġrefresh ing
Before Date
"** ðŁ§¿
357 1273
Ass ign
Fetch Task
Is Truncated
LAT TEN
LAT ITUDE
Live ServerTestCase
Valve Index
cr udrouter
mer ged
tot allength
ÑĤ Ðµ
revision list
arc iszew
Ġfetch ing
Ġ[` {
ĠClo ud
ĠCMAC s
ĠCMAC Backend
ĠAb ort
Ġcos ine
ĠLO CK
ĠNUM BER
LOCAL E
GetTypeInfo Type
GetTypeInfo Count
Ġcalibration Dir
è¯¯ å·®
WebSocket ConnectionClosed
Double Click
è¿ĶåĽŀ æĪĲåĬŁ
GetBucketRe fererResult
Layer Norm
ìķĦ ë¬´
å¤§å°ı å¤§èĩ´
939 572
:' ><
Task Mem
Virtual Collection
black list
emb s
mn opqrst
É´ É¢
É´ á´ħ
æĭ ©
ê² Į
orator ies
Ġtx n
leg end
Ġreassign ing
Ġsv gs
Ġsil ent
Ġsil ence
ĠTensor Flow
ĠMan ager
ĠMan agement
STATE MENT
ĠBasic ally
Example s
interpre t
interpre tml
interpre tability
Ġhope ful
1798 919
á´Ģ É´á´ħ
Prefix With
ĠPreprocess or
ĠPreprocess ors
ĠPreprocess Graph
Geom Type
ä¸Ģä¸ª äºĮ
ìĹĲ ìĦľ
({} ):
232 408
213 96
315 410
315 98876
976 37
976 8812
BC NR
CAN CEL
GM dWv
Gzip DecodedResponse
Ma intainer
Normal ize
Normal ization
battery provider
battery levelbot
ka VEWhY
ppt m
ppt x
vsd m
vsd x
æī Ģ
Ġ^ <$
rea ched
Ġretrie ved
Ġ"+ _
Ġ"â Ĺ
Ġsnip pet
Ġembed ded
getcontent type
getcontent length
getcontent language
cher rypy
Requi res
ĠShow s
ĠShow Field
ĠCipher Backend
ĠACC z
ĠAccessKey Id
ĠAccessKey Credential
ĠAccessKey Signer
ĠOb tain
2048 617368
Ġbuff ers
creation date
994 96002
994 99025066
ĠPyOpenSSL Context
ĠBaseDatabase Operations
Caseless Keyword
CRYPT OGRAPHY
ffffffffffffffff ffffffff
ffffffffffffffff bce
Ġactivelock EL
******************************** ********************************
permut ation
Quality Check
ĠDecrypt s
6579 202
6579 20616
6579 2046
éĥ¨ åĪĨ
148 541858
948 5225
CA ST
GENER IC
JK LMNOP
Mac ro
WK B
WK Nv
_/ _
ii rendo
pot m
pot x
wik ipedia
}} .<$
Ñģ Ðº
åľ °
Ġplist lib
Ġincre mented
asGroup List
Ġmal icious
Ġmal ade
ĠTF Lite
ĠTrunc ator
olar Tracker
ĠSI TE
Ġdecor ate
Ġmem set
Ġmem orized
ĠMS VC
ĠMand atory
ĠOpt imization
Inline DictEncoder
Ġsoft max
010 467
104 28718
Ġ73 206
407 1118
184 14308
468 7210230
ï¼Ī {
ĠProxy Type
ĠProxy SchemeUnknown
åĪ° æĸĩä»¶ç»ĵ
})". }<$
swap case
ĠSerial izer
åŃĺ åĤ¨
ðŁĮķðŁĮķðŁĮķðŁĮķ ðŁĮķ\
Stamp InFile
Internet Explorer
97583 480
åĻ¨ è¿ĶåĽŀ
DESCRIPTOR AsString
452 37
94 99499025066
Ag EBB
Access Description
BP DIZG
Dr ug
Egg Provider
Egg Metadata
FT DI
FT bVy
Sum maryInformation
UV WXY
VB Script
VM ARG
VIIR SN
bH CEzdid
dk Len
mse cs
ple Edit
tg bot
xce ptions
å· ²
åĨ ħ
ĠbFor User
Ġ:- </
Ġstark gang
Ġcolo ur
ĠPo int
ĠPo licy
period s
predi cted
Ġ<% =
ĠVirtual Artifact
ĠVirtual ResFile
Inventory ServerSide
ĠWarning s
.... ...
ĠInstance s
Ġcomput er
Ġcomposite s
Ġshrink s
Ġcoll path
Demand Default
Ġstartup info
ĠExpression Statement
åıĳ éĢģ
584 13
Ġìł ľ
PyCOMTest MI
Created BeforeDate
ĠCreateEvent A
ĠCreateEvent W
åħĥ tuple
WriteReport CheckBox
AUTHOR ITY
çĽ¸ çŃī
æ¯ı æĹ¥
ĠStructuredData Input
470 9
Car ree
COD ES
Fill Level
Jo in
Jo hn
Long Test
Nx Q
Null Handler
Null Provider
SAT HDR
SAT ISFIABLE
Single Response
Single ByteCharSet
WE B
WHITE LIST
Yk Dg
dy lib
»Ñ ı
è´ ¥
Ġtk inter
Ġaff ected
Ġrecurs ively
Ġ'? '<$
Ġmid night
Ġtok list
setColumn Count
ĠId NotFound
ĠFlat ten
ĠLab oratories
ĠMany ToManyField
STAND ALONE
Ġouter most
2014 9485225
DEF GHI
DEFIN ED
ĠNull Handler
FORWAR DED
ĠRel ated
Stack ToTable
308 197
486 83776
Ġìķ Ĭ
139 45
è¯¥ åĢ¼
á´į á´į
power point
ĠINTEGER s
MODI SA
MODI FIED
PYTHON PATH
Ġ'{}'. ".
ĠPYTHON PATH
Ġwaveband s
ä¼ļ æĬĽåĩº
ĠÐ¿Ð¾Ð »Ñ
MySQL db
COMPRES SED
ĠLocal ConfigRegionalEndpointResolver
Expand path
Expand Key
ĠSentence Handler
ĠLayer MapError
æıĲ ç¤º
æıĲ ä¾
"--- ",
"--- "))<$
110 296
5206 36
615 275
628 9
838 101572257
GH t
Gcm Tests
Gcm FSM
HLI TypeLib
Ignore Same
Mb Ru
Nv ZLI
RAB BIT
Sz Psq
Volume Unit
Zhang Rho
^{ -
dw onload
dAnomaly Sublabel
ech ti
iV Jz
iV Nae
lz IY
vst m
vst x
zh NvZLI
zi FTbVy
ÊŁ ÊŁ
æĶ ¯æĮģ
Ġpriv acy
tele gra
Ġ"| "
Ġbom Dict
setTab Text
setTab Order
ĠToml Ordered
Ġhg version
('# '):<$
ĠCryptography DeprecationWarning
ĠAnal og
ĠAcc Yangle
Ġcounted Array
ĠFix es
ĠFips DsaSigScheme
ĠFips Ec
exist ing
msOffice ExtToTypeMap
msOffice TypeToExtMap
take while
ĠEcc Key
ĠEcc Point
ĠRev Options
ĠBatch DeleteObjects
ĠNI RCorrection
liter ally
liter als
Ġ475 48683776
3211 993
ĠContinuousFlow Configuration
GetClass ForCLSID
Ġ{}:// {}:{}".
64204 7656
64206 265206
037 4088
965 1054
1888 1888
Ġadvertise d
Ġsyscall s
ASY NC
1516 28
ToOne Field
ToOne Rel
34939 45339
Ġ"\\ ":<$
ĠAnnot ator
ĠAnnot ations
åĪĻ ä½¿çĶ¨
ĠprivateKey Algorithm
Versions Result
ĠobUserName Tuple
activelock EL
xmlrpc lib
ĠAlter Model
åħ³ éĹŃBucketçļĦ
xlt m
Retryable APIs
TomlPreserve CommentEncoder
TomlPreserve InlineDictEncoder
0000000000000000 00000000
éĢī æĭ©
Ġbroadcast er
ĠSigner Factory
METAFILE PICT
ä½ľ èĢħ
Rotation Policy
+"- ").
+"- ")("
ĠmsOffice ExtToTypeMap
ĠmsOffice TypeToExtMap
æľĢåĲİ ä¿®æĶ
lpfstop proxy
lpfstop Edit
LastModified Time
ReplaceKey With
ReplaceKey PrefixWith
ĠGetBuildForGateway PostCode
ĠGetBuildForGateway PreCode
ĠEndpointResolver Base
ĠEndpointResolver Rules
ðŁ§¿ **\
GuessMe Either
DISAB LE
DISAB LED
#-------------------------------- ----------------------------------------
(.* ?
358 016
456 59
FLO AT
GW P
Merge Table
Spatial Features
aN Y
dj dH
radi us
sil ent
tt info
vari ance
æ²¡æľī è®¾ç½®
çº ¿
represent ation
Ġir Ã¡
Ġfet ched
Ġplay ery
Ġbene ficial
Ġsl ash
Ġsquee zing
Ġ({} )
setWindow Flags
Ġthrott le
Ġexhaust ed
ĠPump Drive
Ġsem antics
Ġprovid ers
omAnal FileName
ĠHEAD ER
coll path
prin cipal
ĠRoute Pattern
Ġ@@ :
Ġpermut ations
Ġmock lib
Ġoverlay s
ABC DEFGHI
('\\ '):<$
ĠArg Formatter
prior ity
Ġroll back
IPAddress Field
Ġè¿ Ļæł·
ĠMemory CRUDRouter
ĠZip File
ĠLook ahead
Sigma LightLineEdit
ĠíĻ Ķë©´
CalibrationFile Button
ĠVisitor Exit
ĠRrsHyper Temp
ĠDescri beEndpoints
è®¿éĹ® qps
137 6289
250 4055
236 26506
780 8
Dont GuessMeEither
KER NEL
LB RLn
Mg JAF
PK G
PALET TE
QV P
Unt il
iop Type
jO iVNae
{" ("});
Ġ.__ """<$
restri ction
Ġite arate
decor ators
Ġrea ched
Ġbes ides
Ġspectral Dataset
Ġsza HBox
Ġocc ured
isode s
setH orizontalHeaderLabels
setContent Handler
("+ ")<$
Ġlit mus
ĠScal ar
ĠAli as
ĠPR NG
ĠLocation ValueError
ĠLike wise
ĠMOD ULE
InChannel Provider
Instrument i
Ġuni form
MEM ORY
ĠByte ArrayTest
Ġlocated Expr
166 160
Ġ\___/ |_|
Ġconfigur ations
Ġ637 265656
GetRef TypeInfo
GetBuildFor InterfacePostCode
UNI FORM
Ġmodifi es
036 0797
Medi cal
exponent iation
3456 789
ĠGetModuleFor Typelib
Ġê· ¸ë
544 18881888
Attemp ted
ĠUserFav orite
abcdef ghijkl
ç½ĳ è®¿éĹ®qps
PUB LIC
Soft max
consistent Error
ĠCONNE CTION
ĠDispatcher Trace
ç®¡ çĲĨ
ä¹Ł è¿ĶåĽŀæĪĲåĬŁ
Quest ioner
glitch HBox
é¡µéĿ¢ æĸĩä»¶
fortun ately
Gradient Tape
GetGoodDispatch AndUserName
åĮħåĲ« ç¬¬
012 3456789
Bl B
Clear Comm
Em Shi
FX j
FZ iGZ
GY S
KF Gy
MAIL PARSER
PB ES
Poll Selector
Rr OJ
Tg QI
Vocab ulary
Work s
bm Attributes
cite seer
eca f
lZ Kb
mone y
punct uation
spe ech
vg M
£Ģ æŁ¥
ê± °
ìĽ Ķ
ï¸ ı
Ġqui ckly
ĮìķĦ ê°ĳëĭĪëĭ¤
Ġfre ely
Ġmicro seconds
getdefault encoding
("= ")<$
("| ")[
('~ /{
ĠSW IG
ĠScrypt Backend
ĠCur sor
Ġstub bed
ĠFrozen Set
Ġstrong ly
ĠPRE CONDITION
ĠPRI MES
exam solns
Ġ``` {
ĠnameRest Output
ĠEl Gam
INV ENTORY
Ġxor Out
omal ie
ĠGzip DecodedResponse
="* ",
TRACK ER
Filesystem Provider
027 160010
ListObject VersionsResult
(),' ><&
SECON DS
SECRE T
227 20
188 13778
ĠDevelopment al
Ġadvi sed
Ġëı ĮìķĦê°ĳëĭĪëĭ¤
ĠCombined Search
359 2607
âķŃ âĶģâĶģ
Special Publications
PROV IDER
å¤± è´¥
stackover vlow
General Name
ĠINTER PRETER
ĠExtraction Error
Subject PublicKeyInfo
ĠCompiler Exit
Cloud Flag
ìŀħ ëĭĪëĭ¤
ĠCalc ulated
ĠCertificateRevocationList Builder
Ġaccumul ator
Ġorgan ization
Ġá´Ģ ÊŁÊŁ
commun ity
ðŁĮĶðŁĮĶðŁĮĶðŁĮĶ ðŁĮĶ\
ðŁĮĸðŁĮĸðŁĮĸðŁĮĸðŁĮĸ \
ðŁĮĴðŁĮĴðŁĮĴðŁĮĴ ðŁĮĴ\
ðŁĮĺðŁĮĺðŁĮĺðŁĮĺðŁĮĺ \
Ġìŀĳ ìĿĢ
ðŁĮĳðŁĮĳðŁĮĳðŁĮĳðŁĮĳ \
¸ëį ±ìĬ¤
ĠTrie Node
SERIALI ZATION
Ġê²©ì¶Ķë Ĳľ
toler ance
æ³¨ æĦı
Ġjob lib
ĠLife span
Ġìŀħëł¥íķĺ ë©´
,@!# ,
0306 88
1992 1905
277 037
214 571
215 95
316 23
438 3812120
477 191
520 66757
580 4071118
526 1
632 551
626 085
621 3728
61646 9657
745 106
7158 809
820 31623
826 7
878 73
893 30727
8486 985
83211 3
8223 207104
8588 341
957 6579493
953 150175
9306 7539
?``` "<$
AVER AGE
AAU BPDIZG
BROW SER
Cw DJtJGt
CIF AR
Categorical ToNum
CILL ARY
EW OULDBLOCK
Ey EmShi
EOK a
Epoll Selector
EAG AIN
EMB ED
Fiz z
FET CH
Folder Resource
Floor Div
Hg ResourceProvider
Hob d
Haz ardous
IJ WOX
Ij rVu
IMetadata Provider
Ioq ML
JIb v
Kz nQ
KSS rTw
Late st
Lmv lZKb
Lgr n
LHV KFGy
MW ka
Md cexoz
MUL TI
MII i
NAN qVx
NBit Integer
Od Mi
Orig GzipDecodedResponse
OAE P
Pm X
Plate Carree
QRST UVWXY
QFR mdxr
Quick Element
QBm faF
Rab in
Rout ingRule
Sf QVP
Scoped EvalContextModifier
Tz Info
Uplo adedFile
WY RrOJ
Wt AFNNqSz
WÊ Ģá´ı
WOR K
WxA ID
XUL upqQp
YNx T
YLC GHt
YPi R
Zcd J
aac bf
aGR MWka
aClean SZ
bba a
bFor DemandDefault
brl JIbv
bMb db
cant findme
cbe fe
cNJDM z
dys KznQ
fPQL F
greate st
gBwY FK
gLQ djdH
hKDy B
iirst artofB
iHZ ivHb
iQDr R
jZOW gBwYFK
kule uven
kPw HIvad
lOx kNp
lNn kC
npt s
ncryption Context
nëĭ ¹ìĭ
næľ Ī
nUs á´ĩ
oYk MIIi
oQWA iQDrR
pq g
pIn v
qbf A
rup ted
slen s
simp lify
tone lli
tCs Tf
tSs NOOz
uAr OJ
vjWn Lgrn
{") "});
{"> >
{"< <"}
ªåĪĹ ä¸¾
Ñĩ Ð¸
éķ ¿åº¦
Ġä» ¥åıĬ
Ġåıĸ å¾Ĺ
Ġå¤ĸ ç½ĳè®¿éĹ®qps
ĥçŃĸçķ ¥
ĪæĿ ĥçŃĸçķ¥
$>-------- ----<$
restructured text
onavi rus
eronKras nov
Ġtve cs
Ġtic ket
dete te
metri cal
Ġcumul ative
Ġful fill
Ġfsp s
Ġrecor ded
Ġ"</ "})<$
ĠnÃº mero
Ġinspected IIDs
utting Down
ĠbUnicode ToString
Ġsss s
Ġsie ving
Ġemul ation
Ġomn ichat
Ġ'-------------------------------- --'
Ġ'@!# ',
coeff s
Ġdefect s
setDefault WhitespaceChars
Ġcontact ing
Ġ176 89
poTVB xwBX
toWW iHZivHb
allHumidity Flag
ĠSci ences
ĠSCRE ENWIDTH
ĠSilver man
Ġbecu ase
ĠIVLength Test
ĠCHE CK
ĠCATEGOR ICAL
istart swith
Ġvtable Items
ĠAcs Request
httpe xceptions
ĠPAT H
ĠPipe line
lyUsed Container
Ġgens im
ĠLecture rs
Ġmacos VersionString
Ġgetcontent language
Ġgetframe info
ĠgetContent Language
ĠgetRandom NBitInteger
resPath List
ĠMater ials
ĠMini Redir
ĠVAN ILLA
artifact Names
Ġchroot ing
Indic ator
lockProperty Names
ĠEIN TR
ĠEEP ROM
Ġuncer tainty
ĠWik ipedia
2049 20636
2029 0360797
20111 38499204
ĠRecent lyUsedContainer
ĠResolution Error
["{} "]
ĠtestObj Encode
ĠtestEncrypt Verify
ĠtestErr Decode
appendLo cks
ĠBOT LOG
ĠBorrow ed
ĠHetting er
ĠdefaultTo Verbose
ĠGENER ATION
ĠGRAB CharacteristicPoseDataset
Ġdoignore ranges
estimat ors
ĠnewReflectance Group
daacbe ff
ExWQ vxl
llTT dq
ĠIntern ally
mlrr FDL
3230 753718356
3266 72517
32276 110296
ĠRay mond
ĠRIPE MD
THRO TTLING
ynfA axp
1043 11
ĠmaxSo Far
serverSh uttingDown
1669 1603
Ġshadow ed
axiss ystempos
TRAIL ING
TROTT LED
beaf ed
56139 027160010
ðŁ¦ĭ âľ¨
Ġ8255 8
0218 03
avRc WYRrOJ
3095 326672517
AComp romise
Rainf allHumidityFlag
GetTag gingResult
GetRaw Declaration
GetMultiple Interfaces
GetFunc Desc
GetAsync FetchTask
GetLiveChannel StatResult
GetIndirected ArgName
ĠreadAll Input
TestVariable Length
Ġ{}/{} ...".
ListAli ases
Unparsed EntityDeclHandler
Ġcalcu lo
64068 37
Ġlockdiscovery EL
ĠUndeclared NameVisitor
ĠUndecod able
98136 308197
22100 9234939
5576 9886
2565026 232408
3877 14706
3857 41
3839 98136308197
3835 3493945339
Forward NoRecurse
1718 19
1778 4001
17002 52
96230 5804071118
Ġdisgra cefully
RegQuery Value
7772 161
ĠDeterministic DsaSigScheme
00000001 000000000000000000000000
1478 3095326672517
3695 18414308
36948 8
4679 221009234939
467296 65
ĠJittered ExponentialBackoffStrategy
Almost Equal
80907 9
ĠNotYet Finalized
åıĤè§ ģ
duwKGu aKy
3434 54418881888
1978 99496002
24756 962305804071118
InvalidCode point
StartDoctype DeclHandler
ĠDerOcte tString
769666 06786
ĠGetInterface ArgClean
583696 0
58907 369518414308
722074686 52066757
13141516 171819
Ġë¬¸ ìŀĲ
VersionId Marker
COMPL ETE
66598 3493
66666 57220796
662074686 520636
662027 39393
MACHIN E
07105 197899496002
869503 32276110296
ĠParseFatal Exception
systemstatuspro vider
è¯¥åı Ĥæķ°æĺ¯
Preprocessing Layer
IPPRO TO
IPersist Storage
ĠFileExists Error
SDZil BOsk
EEACOhg YkDg
*************** <$
97020 666
97410 4846
ĠChars NotIn
59272 86950332276110296
ĠPreprocessing Stage
511646 7511357
5140546 040
handlerFunction Closure
Ġ175637 38353493945339
EFyt Ic
313628 70
ĠNoDefault ECBTest
Translu centBackground
ĠforceClose Connection
204966 204920636
2045550857 0374088
101112 13141516171819
101324 15
è¿Ļäº Ľ
ĠUnsupportedEcc Feature
78013 20455508570374088
Ġ133473 387714706
GetBucketUserQos Result
GetBucketRequestPayment Result
BandRip pleEdit
ĠREGEX P
ĠREQUI REMENT
-----'' '),<$
NFkRX A
OfhJlu LBRLn
69727 374
69348 07105197899496002
ĠTracking CodeGenerator
FromTypeLib Spec
YouNever GuessMe
6520746 97020666
PSvs SzPsq
dcnu FEzBn
ĠsliceAve Flag
ĠUNSIG NED
standardLive PropNames
NISTTestVectors GCM
FILEGROUP DESCRIPTORAsString
thisyearssol ns
MIHc AgEBB
å°¾çļĦ éĥ¨åĪĨ
54612808 977
TomlArraySeparator Encoder
ĠStopAsync Iteration
475726 52
423727 58907369518414308
ĠíĤ¤ ëĤĺ
ĠíĥĢìĿ´í ĭĢ
AdamWeight Decay
å¤§äºİ è¯¥åĢ¼
rsaKeyEncrypted PEM
Ġá´Ħá´ı á´įá´į
Ġá´ĭÉ´ á´ıá´¡
([^/]+ )/
Ġ974634 7772161
MissingLock Token
åĽŀè°ĥ åĩ½æķ°
6978409 4383812120
LockStorageRed is
AEADE ncryptionContext
2023769 42372758907369518414308
EnableQuality Flags
EnablePayload Crc
108264 17784001
ĠDefusedXML Parser
Ġè®¾ç½®æŁĲ åĪĹçļĦå®½åº¦
410726 14783095326672517
YYABAAM ZcdJ
è¡¨æĺİ è¯»åıĸ
65204461746 1
TestVectorsGu eronKrasnov
238356 5
238248 6934807105197899496002
Ġ260849 3230753718356
3062338838 2401
3571273 4687210230
arciszew ski
WebSocketConnectionClosed Exception
å¤§å°ıå¤§èĩ´ çĽ¸çŃī
TaskMem Free
mnopqrst uvwxyz
1798919 148541858
á´ĢÉ´á´ħ s
ä¸Ģä¸ªäºĮ åħĥtuple
31598876 20290360797
BCNR Mdcexoz
GMdWv EOKa
kaVEWhY C
2048617368 204
**************************************************************** ***************<$
65792046 69727374
JKLMNOP QRSTUVWXY
iirendo fB
010467 3211993
10428718 56139027160010
åĪ°æĸĩä»¶ç»ĵ å°¾çļĦéĥ¨åĪĨ
9499499025066 23626506
VMARG sX
bHCEzdid Vy
InventoryServerSide EncryptionOSS
SingleByteCharSet Model
20149485225 10826417784001
838101572257 30623388382401
GcmFSM Tests
IgnoreSame Key
iVJz UHs
lzIY vR
zhNvZLI iVJzUHs
ziFTbVy V
ĠFipsEc DsaSigScheme
ĠBatchDeleteObjects Result
Ġ47548683776 0104673211993
64206265206 9742
9651054 1601
æľĢåĲİä¿®æĶ ¹æĹ¶éĹ´
#------------------------------------------------------------------------ -----<$
ABCDEFGHI JKLMNOPQRSTUVWXY
Ġè¿Ļæł· çļĦåĩ½æķ°
ĠíĻĶë©´ ìľ¼ë¡ľ
ĠDescribeEndpoints Request
MgJAF Jg
jOiVNae vjWnLgrn
abcdefghijkl mnopqrstuvwxyz
ClearComm Error
FZiGZ duwKGuaKy
citeseer x
ĠElGam al
18813778 1042871856139027160010
3592607 83810157225730623388382401
19921905 49
616469657 320616
89330727 08
8223207104 725
953150175 35712734687210230
CategoricalToNum erical
EyEmShi aNY
IJWOX zTew
IjrVu LmvlZKb
NANqVx MbRu
QFRmdxr B
WtAFNNqSz fW
WÊĢá´ı É´É¢
XULupqQp QI
kPwHIvad q
nëĭ¹ìĭ łìĿĺ
tSsNOOz llTTdq
toWWiHZivHb AAUBPDIZG
2011138499204 96510541601
axissystempos itioncontroller
GetAsyncFetchTask Result
2565026232408 5116467511357
383998136308197 2014948522510826417784001
4679221009234939 221
343454418881888 95315017535712734687210230
24756962305804071118 41072614783095326672517
76966606786 1798919148541858
ĠGetInterfaceArgClean up
72207468652066757 47572652
è¯¥åıĤæķ°æĺ¯ ä¸Ģä¸ªäºĮåħĥtuple
EEACOhgYkDg YYABAAMZcdJ
5927286950332276110296 93067539
Ġ17563738353493945339 7801320455508570374088
Ġ133473387714706 2382486934807105197899496002
PSvsSzPsq W
dcnuFEzBn Y
MIHcAgEBB EIB
Ġá´Ħá´ıá´įá´į á´ĢÉ´á´ħs
69784094383812120 359260783810157225730623388382401
202376942372758907369518414308 188137781042871856139027160010
Ġ2608493230753718356 69784094383812120359260783810157225730623388382401
3159887620290360797 949949902506623626506
BCNRMdcexoz WtAFNNqSzfW
Ġ475486837760104673211993 3839981363081972014948522510826417784001
ABCDEFGHIJKLMNOPQRSTUVWXY Z
IjrVuLmvlZKb GWP
25650262324085116467511357 592728695033227611029693067539
34345441888188895315017535712734687210230 769666067861798919148541858
2475696230580407111841072614783095326672517 3159887620290360797949949902506623626506
Ġ175637383534939453397801320455508570374088 202376942372758907369518414308188137781042871856139027160010
Ġ1334733877147062382486934807105197899496002 201113849920496510541601
34345441888188895315017535712734687210230769666067861798919148541858 24756962305804071118410726147830953266725173159887620290360797949949902506623626506
Ġ175637383534939453397801320455508570374088202376942372758907369518414308188137781042871856139027160010 3434544188818889531501753571273468721023076966606786179891914854185824756962305804071118410726147830953266725173159887620290360797949949902506623626506
Ġ1756373835349394533978013204555085703740882023769423727589073695184143081881377810428718561390271600103434544188818889531501753571273468721023076966606786179891914854185824756962305804071118410726147830953266725173159887620290360797949949902506623626506 25650262324085116467511357592728695033227611029693067539
! )
! ='
! </
" },
" ><$
" ([^
# '<$
# .*)
# (.*
$ '<$
$ ')<$
$ ",<$
% **
' #
' (
' "<$
' (?
' /'
( /
( ...)
) ',
) ([
) ][
) (*
) >=
) (?:\
* |
+ )<$
+ "<$
+ ')
+ ):
+ )?
, .
, \
, ],
, :]
- ~
. {
. ')
. ],<$
. ']<$
. ).<$
. `")<$
/ "
/ $
/ '+
/ {}".
1 32
1 34
1 994
3 50
4 0000
4 46
4 13
5 97
7 50
8 02
9 00
: **
: ]))<$
: {}'.
: |/
: /?#
; '
; )*
< >\
= .
= `
= (),<$
> ")<$
> ')
> ."<$
? ")<$
? :\
? $")<$
A b
A not
A ns
A IG
B LE
B old
B ank
B LUE
B erryIMU
C c
C ET
C SI
C ENT
C ategory
C ross
C ycle
C ASE
C ATOR
C amera
D K
D ING
D Po
D FR
D CM
D ummy
D estroy
E v
E MP
E ACC
F L
F in
F UN
F uture
F PS
F LIGHT
F onts
F REE
F MT
F ONT
F ilename
G D
G O
G S
G T
G o
G ML
G AM
H P
H S
H h
H o
H it
H ow
H EL
H old
H istory
H ook
H ashes
H UB
I SA
I MP
I ds
I TIAL
J ae
J itter
K it
K eras
K HTML
L at
L im
L ID
M Y
M n
M es
M ag
M AR
M ps
M arg
M IC
M SB
M PEG
N K
N a
N ow
N ER
N UT
N omin
N orth
N ested
O b
O p
O ri
O LE
O CT
O ENT
P N
P at
P ad
P la
P ack
P us
P ub
P ress
P HA
P MS
P AUSE
Q Frame
Q CheckBox
Q Core
Q Color
Q Sc
Q Dialog
Q wt
Q Pen
Q FileDialog
R GE
R oute
R ANDOM
S V
S W
S yn
S ample
S LA
S RC
S ENT
S ell
S LOW
S witch
T N
T t
T id
T OR
T orch
T ASK
T oday
U i
U ME
V m
V SI
V Box
V IO
V ABLE
V Center
V alidate
V oltar
W R
W ave
W kt
X K
X ception
X std
X PY
X LM
X angle
Y ë
Y AN
Y å¹
Z F
Z ur
[ {
[ ~
] #
] ][
] ({
] }'<$
] ([^
^ <$
_ -
_ ,<$
_ ")
_ (-
` ;
a h
a cl
a ix
a mpling
a Cy
b re
b ing
b et
b ic
b unt
b cc
b ian
b ann
b mRequestType
b rainfuck
b EndpointAddress
b ranch
b readcr
c ult
c um
c am
c Name
c cs
c ename
c api
c Ã©
c ws
c lause
c pm
c IOError
c ritical
c raping
d B
d od
d temp
d uplicate
d osing
d utos
e as
e ither
e rers
e verything
f en
f dir
f ld
f ailed
f sw
f mpeg
f ridge
g p
g al
g ender
g rowth
h ar
h up
h am
h art
h char
h ree
h its
h store
h mm
h uman
h wnd
i q
i or
i text
i ang
i ency
i Interface
i contains
i rectory
j query
j df
j æĹ¥
j acent
k d
k ur
k iller
l c
l te
l lo
l ator
l asses
l Columns
m f
m int
m mutable
m imic
n z
n ers
n file
n map
n parameters
n inputs
n step
n Read
n outputs
n Who
o ck
o path
o ices
o vo
p fp
p ale
p let
p aper
q am
q weather
r w
r ss
r rc
s S
s V
s lo
s ions
s za
s Lambda
s kew
s laves
t id
t info
t tf
t uner
t bs
t Val
u f
u view
v il
v ary
v max
v gg
w l
w ing
w Max
x port
x label
x be
x axis
x grid
y on
y min
y max
y dl
y ellow
z ed
{ ,
| (
| ;)*
} ]
} ),<$
} ),
} ).
} -%
} `")<$
} }'<$
£ ¨í
¤ ",
¤ ï¸ı
¥ éª
© ëĭĪëĭ¤
ª å¸¦
« ìŀĲ
® µ
® è
° å½ķ
± Ð¾
± Ĥæķ°
³ »
´ å½
´ å¹³
´ næľĪ
» ļ
½ Ĳ
¾ ç¤º
Â °
Î Ķ
Ð ¶
Ð Ł
× ĳ
Ø Į
å ¿
å ķ
å İ»
æ ¨
æ Ľ
æ ®µ
ç °
ç ¼
ç Ł
ç ³»
è Ļ
é Ĥ
é Ĵ
é ĵ
é ½Ĳ
ë °
ë ĮĢ
ë ¶Ģ
ë Ŀ¼
í ģ
í Ļ
ĉ ĠĠĠ
Ġ er
Ġ ,<$
Ġ }.
Ġ çĶ¨
Ġ åŃĹ
Ġ !!
Ġ å¦Ĥæŀľ
Ġ æłĩé¢ĺ
Ġ Ãł
Ġ xterm
Ġ íķ´
Ġ ×ĳ
Ģ Į
Ģ ë¡ľ
Ĥ ¬
ĥ Ŀ
ĥ èĻ
Ħ °
Ħ ë
Ħ ê²©
ħ Ħ
ħ æĹ¶
ī èĩ
ĭ ¤
ı ï½
ı âĶģâĶģ
ķ ìłķ
ĺ ë
ľ ìĦľ
Ŀ å¯¹
Ŀ å§ĭ
Ŀ ¤ï¸ı
ł ä¸Ń
ł è¾¹
Ń ä»£
ĠĠĠĠ čĊ
$> <
$> ##
se g
se para
se ye
in ted
in ally
in lines
in Log
in coming
in PlotPath
re presen
re cov
on al
on ath
at an
at os
at Map
at ively
er g
or al
or ical
Ġt y
Ġt ile
Ġt ack
[...]
