{"<s>":0,"<pad>":1,"</s>":2,"<unk>":3,"<mask>":4,"!":5,"\"":6,"#":7,"$":8,"%":9,"&":10,"'":11,"(":12,")":13,"*":14,"+":15,",":16,"-":17,".":18,"/":19,"0":20,"1":21,"2":22,"3":23,"4":24,"5":25,"6":26,"7":27,"8":28,"9":29,":":30,";":31,"<":32,"=":33,">":34,"?":35,"@":36,"A":37,"B":38,"C":39,"D":40,"E":41,"F":42,"G":43,"H":44,"I":45,"J":46,"K":47,"L":48,"M":49,"N":50,"O":51,"P":52,"Q":53,"R":54,"S":55,"T":56,"U":57,"V":58,"W":59,"X":60,"Y":61,"Z":62,"[":63,"\\":64,"]":65,"^":66,"_":67,"`":68,"a":69,"b":70,"c":71,"d":72,"e":73,"f":74,"g":75,"h":76,"i":77,"j":78,"k":79,"l":80,"m":81,"n":82,"o":83,"p":84,"q":85,"r":86,"s":87,"t":88,"u":89,"v":90,"w":91,"x":92,"y":93,"z":94,"{":95,"|":96,"}":97,"~":98,"¡":99,"¢":100,"£":101,"¤":102,"¥":103,"¦":104,"§":105,"¨":106,"©":107,"ª":108,"«":109,"¬":110,"®":111,"¯":112,"°":113,"±":114,"²":115,"³":116,"´":117,"µ":118,"¶":119,"·":120,"¸":121,"¹":122,"º":123,"»":124,"¼":125,"½":126,"¾":127,"¿":128,"À":129,"Á":130,"Â":131,"Ã":132,"Ä":133,"Å":134,"Æ":135,"Ç":136,"È":137,"É":138,"Ê":139,"Ë":140,"Ì":141,"Í":142,"Î":143,"Ï":144,"Ð":145,"Ñ":146,"Ò":147,"Ó":148,"Ô":149,"Õ":150,"Ö":151,"×":152,"Ø":153,"Ù":154,"Ú":155,"Û":156,"Ü":157,"Ý":158,"Þ":159,"ß":160,"à":161,"á":162,"â":163,"ã":164,"ä":165,"å":166,"æ":167,"ç":168,"è":169,"é":170,"ê":171,"ë":172,"ì":173,"í":174,"î":175,"ï":176,"ð":177,"ñ":178,"ò":179,"ó":180,"ô":181,"õ":182,"ö":183,"÷":184,"ø":185,"ù":186,"ú":187,"û":188,"ü":189,"ý":190,"þ":191,"ÿ":192,"Ā":193,"ā":194,"Ă":195,"ă":196,"Ą":197,"ą":198,"Ć":199,"ć":200,"Ĉ":201,"ĉ":202,"Ċ":203,"ċ":204,"Č":205,"č":206,"Ď":207,"ď":208,"Đ":209,"đ":210,"Ē":211,"ē":212,"Ĕ":213,"ĕ":214,"Ė":215,"ė":216,"Ę":217,"ę":218,"Ě":219,"ě":220,"Ĝ":221,"ĝ":222,"Ğ":223,"ğ":224,"Ġ":225,"ġ":226,"Ģ":227,"ģ":228,"Ĥ":229,"ĥ":230,"Ħ":231,"ħ":232,"Ĩ":233,"ĩ":234,"Ī":235,"ī":236,"Ĭ":237,"ĭ":238,"Į":239,"į":240,"İ":241,"ı":242,"Ĳ":243,"ĳ":244,"Ĵ":245,"ĵ":246,"Ķ":247,"ķ":248,"ĸ":249,"Ĺ":250,"ĺ":251,"Ļ":252,"ļ":253,"Ľ":254,"ľ":255,"Ŀ":256,"ŀ":257,"Ł":258,"ł":259,"Ń":260,"ĠĠ":261,"ĠĠĠĠ":262,"$>":263,"<$":264,"ĠĠĠ":265,"ĠĠĠĠĠĠĠ":266,"se":267,"in":268,"re":269,"on":270,"ĠĠĠĠĠĠĠĠ":271,"at":272,"er":273,"or":274,")<$":275,"Ġt":276,"st":277,"Ġ=":278,"en":279,"sel":280,"ĠĠĠĠĠĠĠĠĠĠĠ":281,"self":282,":<$":283,"Ġi":284,"al":285,"de":286,"Ġa":287,"me":288,"he":289,"ar":290,"Ġself":291,"Ġc":292,"le":293,"ion":294,"Ġf":295,"$><$":296,"Ġre":297,"Ġp":298,"te":299,"čĊ":300,"ur":301,"an":302,"Ġ\"":303,"ct":304,"ro":305,"it":306,",<$":307,"ce":308,"Ġn":309,"ge":310,"Ġin":311,"ut":312,"Ġb":313,"lo":314,"ing":315,"):<$":316,"Ġs":317,"ue":318,"ame":319,"as":320,"mp":321,"Ġe":322,"Ġ#":323,"Ġo":324,"Ġthe":325,"Ġif":326,"ĠĠĠĠĠĠĠĠĠĠĠĠĠĠĠ":327,"Ġ'":328,"Ġd":329,"li":330,"ate":331,"ad":332,"def":333,"ent":334,"Ġw":335,"fi":336,"co":337,"pt":338,"Ġm":339,"pe":340,"ĠĠĠĠĠĠĠĠĠĠĠĠĠĠĠĠ":341,"ke":342,"urn":343,"turn":344,"ot":345,"__":346,"ra":347,"ri":348,"un":349,"Ġis":350,"one":351,"\"\"":352,"Ġ(":353,"ul":354,"id":355,"Ġreturn":356,"ort":357,"get":358,"Ġfor":359,".<$":360,"is":361,"il":362,"val":363,"ser":364,"ck":365,"int":366,"Ġto":367,"None":368,"Ġdef":369,"._":370,"el":371,"Ġan":372,"xt":373,"ch":374,"th":375,"name":376,"ata":377,"ss":378,"ode":379,"ers":380,"str":381,"di":382,"la":383,"set":384,"mport":385,"rom":386,"ror":387,"up":388,"ĠT":389,"ve":390,"ult":391,"ype":392,"end":393,"ation":394,"ath":395,"))<$":396,"Ġ\"\"\"":397,"key":398,"con":399,"Ġnot":400,"Ġ_":401,"',":402,"od":403,"Ġh":404,"ect":405,"sp":406,"]<$":407,"(\"":408,"==":409,"()<$":410,"ter":411,"Ġand":412,"ĠNone":413,"ry":414,"iz":415,"Ġof":416,"ol":417,"Ġth":418,"ap":419,"Ġcon":420,"ed":421,"value":422,"('":423,"Re":424,"qu":425,"um":426,"ass":427,"Ġ1":428,"Ġex":429,"po":430,"rror":431,"ab":432,"Ġimport":433,"Ġl":434,"ption":435,"Error":436,"Ġ-":437,"from":438,"tr":439,"to":440,"bj":441,"ver":442,"Ġ\"\"\"<$":443,"()":444,"put":445,"all":446,"par":447,"gs":448,"es":449,"for":450,"ith":451,"Ġ[":452,"cl":453,"ile":454,"ĠS":455,"eld":456,"Ġbe":457,"Ġas":458,"ĠĠĠĠĠĠĠĠĠĠĠĠĠĠĠĠĠĠĠ":459,"\",":460,"am":461,"(<$":462,"\"<$":463,"ĠI":464,"path":465,"vi":466,"ime":467,"Ġ0":468,"ĠC":469,"Ġ+":470,"sert":471,"que":472,"Ġlo":473,"ise":474,"ig":475,"ew":476,"ip":477,"odel":478,"age":479,"Ġ%":480,"Ġ*":481,"Ġor":482,"and":483,"ack":484,"text":485,"Ġu":486,"bu":487,"Ġel":488,"ction":489,"able":490,"ist":491,"Ġelse":492,"ase":493,"'<$":494,"data":495,"list":496,"Ġde":497,"Ġv":498,"quest":499,"ize":500,"ĠA":501,"nt":502,"##":503,"mat":504,"Ġ:":505,"ment":506,"')<$":507,"type":508,"Ġst":509,"yte":510,"Ġpar":511,"Ġco":512,"sult":513,"\")<$":514,"Ġ==":515,"--":516,"00":517,"Ġr":518,"ma":519,"ĠF":520,"code":521,"Ġstr":522,"ht":523,"ted":524,"Ġ{":525,"Ġra":526,"pro":527,"out":528,"rue":529,"ĠP":530,"ex":531,"us":532,"ly":533,"ĠD":534,"Ġ`":535,"Ġname":536,"per":537,"Ġse":538,"oc":539,"ĠĠĠĠĠĠĠĠĠĠĠĠ":540,"url":541,"et":542,"Ġte":543,"che":544,"head":545,"ow":546,"assert":547,"Ġ2":548,"Ġraise":549,"Ġ)<$":550,"Ġdata":551,"stan":552,"attr":553,"app":554,"Ġvalue":555,"$>#":556,"args":557,"),<$":558,"Ġg":559,"len":560,"fo":561,"pre":562,"ersion":563,"Ġpro":564,"ang":565,"ine":566,"Ġen":567,"ord":568,"bject":569,"lib":570,"Ġme":571,"her":572,"====":573,"point":574,"ault":575,"ms":576,"init":577,"ic":578,"ĠL":579,"spon":580,"ger":581,"alse":582,"class":583,"Ġ__":584,"ield":585,"file":586,"tri":587,"AT":588,"stance":589,"ub":590,"py":591,"Ġkey":592,"Ġma":593,".__":594,"Ġwith":595,"sponse":596,"Ġget":597,"rint":598,"Ġdi":599,"OR":600,"fig":601,"sed":602,"Ġthat":603,"ext":604,"ange":605,"ta":606,"res":607,"Ġexce":608,"op":609,"tp":610,"ĠM":611,"ok":612,"),":613,"lic":614,"ST":615,"Ġ<":616,"ĠĠĠĠĠĠĠĠĠĠĠĠĠĠĠĠĠĠĠĠĠĠĠĠĠĠĠĠĠĠĠĠ":617,"ket":618,"ho":619,"add":620,"ff":621,"are":622,"size":623,"low":624,"['":625,"ipher":626,"Ġtry":627,"model":628,"Ġit":629,"ĠO":630,"Ġresult":631,"ĠV":632,"Ġon":633,"art":634,"Ġwh":635,"__(":636,"pec":637,"ind":638,"Ġfrom":639,"Ġlen":640,"ure":641,"sc":642,"qual":643,"ytes":644,"Ġ>":645,"']":646,"thod":647,"mo":648,"Ġch":649,"Ġy":650,"Ġfile":651,"kw":652,"ite":653,"Ġhas":654,"Ġthis":655,"ER":656,"Ġal":657,"Con":658,"ens":659,"nect":660,"Ġexcept":661,"time":662,"ango":663,"jango":664,"instance":665,"our":666,"In":667,"error":668,"ule":669,"ive":670,"field":671,"if":672,"Equal":673,"late":674,"lock":675,"':":676,"ron":677,"ifi":678,"valid":679,"load":680,"FF":681,"ĠE":682,"param":683,"Ġout":684,"Ġpre":685,"der":686,"ust":687,"\",<$":688,"Ġset":689,"Ġ3":690,"ON":691,"Ġlist":692,"Ġwe":693,"com":694,"Ġun":695,"alue":696,"ĠU":697,"atch":698,"read":699,"ore":700,"ory":701,"tent":702,"ca":703,"Ġprint":704,"ES":705,"date":706,"gth":707,"assertEqual":708,"os":709,"Ġ.":710,"//":711,"ha":712,"viron":713,"format":714,"headers":715,"IN":716,"endpoint":717,"lab":718,"thon":719,"Ġx":720,"import":721,"ial":722,"ding":723,"lay":724,"rap":725,").":726,"util":727,"dir":728,"ĠW":729,"Ġar":730,"20":731,"####":732,"ign":733,"``":734,"kwargs":735,"ĠRe":736,"())<$":737,"ave":738,"True":739,"[\"":740,"om":741,"Ġtime":742,"Ġos":743,"**":744,"rect":745,"Ke":746,"loc":747,"])<$":748,"string":749,"ME":750,"vent":751,"mple":752,"back":753,"port":754,"Ġ<$":755,"rypt":756,"Ġtest":757,"ĠThe":758,"append":759,"ert":760,"ource":761,"Ġisinstance":762,"info":763,"im":764,"\"\"\"<$":765,"nection":766,"Ġare":767,"cess":768,"version":769,"Key":770,"ies":771,"ĠB":772,"ĠĠĠĠĠĠĠĠĠ":773,"DE":774,"new":775,"Ġcipher":776,"',<$":777,"ĠH":778,"word":779,"odule":780,"Ġtype":781,"Ġobject":782,"Ġmodel":783,"pp":784,"ken":785,"alueError":786,"red":787,"ĠTrue":788,"ssage":789,"Ġ**":790,"ill":791,"input":792,"lif":793,"his":794,"reate":795,"ĠIf":796,"Ġ``":797,"='":798,"ĠN":799,"Ġrequest":800,"uth":801,"ĠĠĠĠĠĠĠĠĠĠĠĠĠĠĠĠĠĠĠĠĠĠĠ":802,"mplate":803,"lit":804,"Ġstring":805,"Ġfield":806,"}<$":807,"Ġdefault":808,"AD":809,"ild":810,"RE":811,"],":812,"Ġuse":813,"col":814,"rent":815,"ans":816,"Ġsup":817,"label":818,"form":819,"ĠG":820,"ptions":821,"request":822,"jo":823,"iv":824,"Ġpath":825,"obj":826,"rite":827,"ty":828,"Ġdo":829,"mb":830,"ec":831,"dict":832,"map":833,"atus":834,"ir":835,"ator":836,"Ġby":837,"ity":838,"ys":839,"ary":840,"http":841,"xy":842,"und":843,"Ġlog":844,"12":845,"test":846,"ĠThis":847,"ĠFalse":848,"ace":849,"est":850,"act":851,"\":":852,"En":853,"----":854,"Ġnew":855,"Ġelif":856,"min":857,"join":858,"ssion":859,"ument":860,"Ġat":861,"fe":862,"Ġrange":863,"========":864,"unc":865,"own":866,"dex":867,"[:":868,"://":869,"ition":870,"ac":871,"ĠĠĠĠĠ":872,"Ġcl":873,"Ġcan":874,"Ġint":875,"state":876,"xFF":877,"False":878,"unt":879,"Ġwill":880,"ded":881,"ste":882,"uld":883,"ther":884,"bute":885,"=\"":886,"Ġbu":887,"bo":888,"urrent":889,"..":890,"base":891,"move":892,"ag":893,"Ġso":894,"ĠValueError":895,"qui":896,"line":897,"rame":898,"tribute":899,"scri":900,"EN":901,"Ġle":902,"01":903,"ting":904,"\"]":905,"utils":906,"Ġ|":907,"ID":908,"log":909,"bytes":910,"da":911,"lat":912,"update":913,"ations":914,"ence":915,"Ex":916,"sing":917,"Ġoutput":918,"ll":919,"split":920,"header":921,"():<$":922,"pen":923,"dd":924,"ĠIn":925,"Ġ->":926,"ody":927,":`":928,"Ġj":929,"ocket":930,"Type":931,"ml":932,"ython":933,"reg":934,"!=":935,"pr":936,"gest":937,"cket":938,"Ġk":939,"SS":940,"ber":941,"Ġres":942,"Ġmethod":943,"node":944,"Ġpass":945,"Ġ[]<$":946,"once":947,"ception":948,"Ġfil":949,"ated":950,"ptional":951,"tern":952,"Ġhe":953,"Ġnode":954,"ool":955,"heck":956,"coding":957,"Ġdjango":958,"rain":959,"Ġ4":960,"crypt":961,"arn":962,"default":963,"unction":964,"\".":965,"roup":966,"char":967,"Ġdist":968,"ET":969,"FOR":970,"sg":971,"wa":972,"ream":973,"Ġcomp":974,"orm":975,"Ġloc":976,"Ġ!=":977,"ref":978,"izer":979,"32":980,"AL":981,"ĠR":982,"start":983,"AR":984,"Ġassert":985,"lient":986,"ters":987,"Ġurl":988,"Ġext":989,"gument":990,"ttp":991,"Ġerror":992,"teger":993,"lin":994,"write":995,"Ġall":996,"Name":997,"ĉĉ":998,"comp":999,"response":1000,"config":1001,"MAT":1002,"num":1003,"bug":1004,"')":1005,"Ġbyte":1006,"ard":1007,"Ġresponse":1008,"max":1009,"'t":1010,"user":1011,"ery":1012,"ight":1013,"OAD":1014,"pla":1015,"ask":1016,"Ġversion":1017,"root":1018,"parse":1019,"method":1020,"TT":1021,"has":1022,"iter":1023,"\"):<$":1024,"Ġ>>":1025,"og":1026,"Ġ('":1027,"ution":1028,"ally":1029,"view":1030,"ail":1031,"Ġnum":1032,"not":1033,"uple":1034,"encode":1035,"ĠLOAD":1036,"FORMAT":1037,"TH":1038,"ener":1039,"Ġno":1040,"yn":1041,"output":1042,"ray":1043,"Ġwhile":1044,"Ġhasattr":1045,"Ġ+=":1046,"ound":1047,"TTP":1048,"Ġparam":1049,"context":1050,"ĠĠĠĠĠĠĠĠĠĠĠĠĠĠ":1051,"10":1052,"Pro":1053,"ib":1054,"with":1055,"Ġhttp":1056,"ou":1057,"clu":1058,"result":1059,"Ġuser":1060,"Ġbytes":1061,"Ġmax":1062,"Ġspec":1063,"Ġmust":1064,"Ġinput":1065,"ific":1066,"Ġ(<$":1067,"ual":1068,"inter":1069,"object":1070,"use":1071,"âĸ":1072,"fix":1073,"length":1074,"Ġevent":1075,"environ":1076,"ari":1077,"isp":1078,"params":1079,"Ġ>>>":1080,"ional":1081,"Ġne":1082,"Ġsho":1083,"server":1084,"Ġapp":1085,"module":1086,"16":1087,"Ġsh":1088,"ren":1089,"Ġback":1090,"ces":1091,"Ġ\\":1092,"ax":1093,"],<$":1094,"ft":1095,"ant":1096,"ODE":1097,"ns":1098,"ress":1099,"rc":1100,"Ġcol":1101,"ote":1102,"Ġenviron":1103,"ree":1104,"Ġconfig":1105,"TR":1106,"Ġother":1107,"Ġchar":1108,"File":1109,"########":1110,"backend":1111,"Ġshould":1112,"cert":1113,"do":1114,"().":1115,"main":1116,"son":1117,"direct":1118,"token":1119,"so":1120,"query":1121,"St":1122,"attern":1123,"row":1124,"digest":1125,"'s":1126,"mand":1127,"inal":1128,"Ġtr":1129,"tem":1130,"pression":1131,"ork":1132,"ark":1133,"core":1134,"sa":1135,"Ġca":1136,"sh":1137,"ses":1138,"riv":1139,"raph":1140,"50":1141,"Ġhave":1142,"ackage":1143,"ie":1144,"Ġ6":1145,"Ġheaders":1146,"Data":1147,"Par":1148,"be":1149,"mit":1150,"vel":1151,"\")":1152,"try":1153,"Ġ@":1154,"\":<$":1155,"HA":1156,"LE":1157,"io":1158,"orted":1159,"arget":1160,"Ġpo":1161,"ify":1162,"arning":1163,"status":1164,"Ġcreate":1165,"56":1166,"SI":1167,"pected":1168,"uct":1169,"ep":1170,"ðŁ":1171,"ature":1172,"message":1173,"OD":1174,"Ġsuper":1175,"SSL":1176,"ix":1177,"Ġformat":1178,"Ġ{<$":1179,"func":1180,"debug":1181,"tings":1182,"([":1183,"cs":1184,"md":1185,"ĠĠĠĠĠĠ":1186,"stri":1187,"vice":1188,"Ġtimeout":1189,"gor":1190,"Ġ8":1191,"rivate":1192,"we":1193,"Ġact":1194,"tin":1195,"open":1196,"ich":1197,"count":1198,"ĠCon":1199,"ull":1200,"content":1201,"space":1202,"lement":1203,"Request":1204,"arent":1205,"(),<$":1206,"Ġfunction":1207,"Ġlin":1208,"Ġla":1209,"ump":1210,"tag":1211,"oid":1212,"ename":1213,"FA":1214,"Ġcurrent":1215,"Ġbut":1216,"Ġsys":1217,".\"\"\"<$":1218,"TE":1219,"TI":1220,"De":1221,"nd":1222,"Ġac":1223,"wait":1224,"Ġ/":1225,"auth":1226,"ay":1227,"Ġline":1228,"err":1229,"raw":1230,"hape":1231,"irst":1232,"ameters":1233,"AN":1234,"ak":1235,"Ġadd":1236,"train":1237,"select":1238,"rial":1239,"connection":1240,"place":1241,"02":1242,"`<$":1243,"fil":1244,"idget":1245,"tring":1246,"Ġused":1247,"Ġstart":1248,"Ġ5":1249,"Ġcheck":1250,"Ġlogger":1251,"ĠĠĠĠĠĠĠĠĠĠĠĠĠ":1252,"pos":1253,"Ġany":1254,"host":1255,"ension":1256,"Ġparams":1257,"':<$":1258,"loat":1259,"Ġ[<$":1260,"clude":1261,"lease":1262,"fields":1263,"array":1264,"its":1265,"Ġblock":1266,"lob":1267,"ba":1268,"Ġtoken":1269,"andl":1270,"LO":1271,"stall":1272,"stream":1273,"quence":1274,"tain":1275,"https":1276,"python":1277,"Ġlength":1278,"source":1279,"ong":1280,"ĠAES":1281,"'.":1282,"clo":1283,"Ġone":1284,"Field":1285,"mode":1286,"ware":1287,"uto":1288,"msg":1289,"Ġwhich":1290,"opt":1291,"types":1292,"local":1293,"UL":1294,"ts":1295,"Ġcall":1296,"andle":1297,"Ġmessage":1298,"ync":1299,"Ġendpoint":1300,"ðŁĮ":1301,"av":1302,"Ġfirst":1303,"].":1304,"db":1305,"Ġsize":1306,"Ġfilename":1307,")):<$":1308,"Ġmatch":1309,"Ġheader":1310,"template":1311,"Ġobj":1312,"idd":1313,"ffer":1314,"lp":1315,"Ġtext":1316,"Ġonly":1317,"Ġcom":1318,"ublic":1319,"layer":1320,"30":1321,"body":1322,"Ġparser":1323,"AC":1324,"Ġpy":1325,"gorith":1326,"Ġvalid":1327,"Ġsu":1328,"ked":1329,"'),<$":1330,"vid":1331,"check":1332,"Ġargs":1333,"cur":1334,"find":1335,"index":1336,"Ġconnection":1337,"DA":1338,"block":1339,"gn":1340,"Ġz":1341,"ises":1342,"ensor":1343,"ĠEx":1344,"End":1345,"print":1346,"perty":1347,"Ġid":1348,"tocol":1349,"ĠReturn":1350,"call":1351,"Ġdoes":1352,"Ġtemplate":1353,"gorithm":1354,"PO":1355,"Ra":1356,"tro":1357,"Get":1358,"sub":1359,"Ġ7":1360,"Ġkwargs":1361,"Ġclass":1362,"bution":1363,"doc":1364,"nel":1365,"Ġbase":1366,"Ġsp":1367,"Ġsub":1368,"Ġdirect":1369,"Ġ\"<$":1370,"Ġwhe":1371,"ownload":1372,"Ġ):<$":1373,"Ġread":1374,"Ġcontent":1375,"quire":1376,"Test":1377,"Ġnonce":1378,"Ġiter":1379,"Ġ{}":1380,"iven":1381,"ict":1382,"ute":1383,"yste":1384,"led":1385,"Ġpos":1386,"Ġnp":1387,"ĠPython":1388,"mpty":1389,"cond":1390,"ĠSe":1391,"================":1392,"Ch":1393,"List":1394,"Ġmodule":1395,"ssl":1396,"regional":1397,"))":1398,"OM":1399,"Ġsource":1400,"ctions":1401,"lower":1402,"']<$":1403,"Un":1404,"ject":1405,"{}":1406,"ense":1407,"Ġdate":1408,"cache":1409,"DAT":1410,"ps":1411,"Ġbackend":1412,"urllib":1413,"Ġopen":1414,"pi":1415,"pass":1416,"socket":1417,"ĠQ":1418,"match":1419,"Ġproxy":1420,"filter":1421,"Endpoint":1422,"128":1423,"ariable":1424,"An":1425,"su":1426,"ĠĠĠĠĠĠĠĠĠĠ":1427,"Ġ(\"":1428,"olve":1429,"enc":1430,"ĠHTTP":1431,"'):<$":1432,"django":1433,"frame":1434,"Ġparse":1435,"items":1436,"Ġ}<$":1437,"utf":1438,"ample":1439,"Bu":1440,"Ġawait":1441,"Ġho":1442,"layers":1443,"ain":1444,"ght":1445,"orch":1446,"Ġli":1447,"Ġver":1448,"(),":1449,"Ġload":1450,"--------":1451,"models":1452,"Ġallow":1453,"Ġnumber":1454,"reak":1455,"lete":1456,"ped":1457,"ake":1458,"ystem":1459,"client":1460,"org":1461,"setattr":1462,"Ġ10":1463,"var":1464,"Ġcal":1465,"Ġdict":1466,"64":1467,"sign":1468,"Ġitem":1469,"dist":1470,"html":1471,"Ġyou":1472,"String":1473,"ffi":1474,"Ġ9":1475,"ĠWe":1476,"Ġargument":1477,"scription":1478,"names":1479,"okup":1480,"ormal":1481,"Ġper":1482,"sent":1483,"Ġcode":1484,"assertRa":1485,"assertRaises":1486,"ach":1487,"options":1488,"resp":1489,"indow":1490,"Ġtrans":1491,"OP":1492,"Ġserver":1493,"Ġcase":1494,"Ġinit":1495,"Ġinstance":1496,"ne":1497,"Ġframe":1498,"Ġcontext":1499,"Response":1500,"SE":1501,"no":1502,"temp":1503,"iss":1504,"proxy":1505,"ĠOptional":1506,"pattern":1507,"ined":1508,"11":1509,"nonce":1510,"ttribute":1511,"Ġstate":1512,"Ġstatus":1513,"andler":1514,"Ser":1515,"group":1516,"Ġbreak":1517,"Ġvalues":1518,"):":1519,"Se":1520,"getEndpoint":1521,"FI":1522,"gment":1523,"of":1524,"tv":1525,"trans":1526,"'))<$":1527,"DI":1528,"Ġent":1529,"RL":1530,"Ġencoding":1531,"item":1532,"Ġ]<$":1533,"ast":1534,"ctx":1535,"Ġ--":1536,"ĠY":1537,"Ġ''":1538,"Ġmake":1539,"ifier":1540,"LI":1541,"Ġgiven":1542,"Ġmay":1543,"cipher":1544,"Ġval":1545,"encrypt":1546,"Ġab":1547,"Ġinter":1548,"cle":1549,"current":1550,"ĠKey":1551,"intext":1552,"tinue":1553,"SA":1554,"Ġauth":1555,"ors":1556,"decode":1557,"mod":1558,"Ġav":1559,"cre":1560,"Ġbody":1561,"ĠĠĠĠĠĠĠĠĠĠĠĠĠĠĠĠĠĠĠĠĠĠĠĠĠ":1562,"cls":1563,"abled":1564,"fore":1565,"Ġmod":1566,"table":1567,"ible":1568,"swith":1569,"Ġup":1570,"Ġindex":1571,"filen":1572,"buffer":1573,"Ġextra":1574,"vider":1575,"=[":1576,"lication":1577,"509":1578,"Ġ)":1579,"kens":1580,"Ġtuple":1581,"copy":1582,"Ġlock":1583,"Ġcls":1584,"hash":1585,"ificate":1586,"UN":1587,"ging":1588,"ported":1589,"wsg":1590,"Ġcert":1591,"cheme":1592,"man":1593,"Ġattr":1594,"unk":1595,"Ġexpression":1596,"Exception":1597,"'\\":1598,"RI":1599,"Ġwrap":1600,"Ġcontinue":1601,"ĠUn":1602,"ING":1603,"ox":1604,"Ġexpected":1605,"latform":1606,"Not":1607,"ous":1608,"umn":1609,"filename":1610,"shape":1611,"Ġsign":1612,"idth":1613,"process":1614,"logger":1615,"ide":1616,"Ġend":1617,"settings":1618,"Ġwhen":1619,"Ġyield":1620,"Widget":1621,"face":1622,"req":1623,"iddle":1624,"98":1625,"nal":1626,"range":1627,"$>@":1628,"Ġusing":1629,"Po":1630,"run":1631,"yp":1632,"},":1633,"Ġtag":1634,"Ġsocket":1635,"Ġfiles":1636,"mbda":1637,"Dict":1638,"ld":1639,"Ġactual":1640,"40":1641,"EL":1642,"trib":1643,"ified":1644,"event":1645,"Ġsupport":1646,"Ġhere":1647,"22":1648,"AME":1649,"ql":1650,"admin":1651,"Ġattribute":1652,"55":1653,"ton":1654,"Ġtarget":1655,"arg":1656,"Ġreq":1657,"Ġmore":1658,"ribution":1659,"Return":1660,"build":1661,"Ġpart":1662,"igr":1663,"Ġcache":1664,"close":1665,"256":1666,"CON":1667,"[-":1668,"ui":1669,"Ġmo":1670,"idx":1671,"ĠIt":1672,"gnore":1673,"save":1674,"ols":1675,"values":1676,"Ġgetattr":1677,"Co":1678,"Ġsame":1679,").<$":1680,"38":1681,"icode":1682,"ĠType":1683,"ization":1684,"vert":1685,"feren":1686,"])":1687,"vis":1688,"Ġlabel":1689,"Ġct":1690,"','":1691,"Ġ<=":1692,"\"]<$":1693,"Map":1694,"json":1695,"mory":1696,"only":1697,"Ġnext":1698,"ĠĠĠĠĠĠĠĠĠĠĠĠĠĠĠĠĠĠĠĠĠĠĠĠĠĠĠ":1699,"Ġ{}<$":1700,"Ġfields":1701,"fter":1702,"mv":1703,"Ġover":1704,"Ġoptions":1705,"Ġ'%":1706,"andom":1707,"script":1708,"Set":1709,"arch":1710,"Result":1711,"part":1712,"password":1713,"\"),<$":1714,"]:<$":1715,"by":1716,"Ġtv":1717,"eno":1718,"extra":1719,"Ġnodes":1720,"off":1721,"Ġerr":1722,"Ġpython":1723,"Ġsee":1724,"Char":1725,"return":1726,"Ġhttps":1727,"quirement":1728,"UT":1729,"Ġmult":1730,"exce":1731,"Config":1732,"plo":1733,"Ġreg":1734,"Ġpla":1735,"gex":1736,"iddleware":1737,"For":1738,"ized":1739,"Ġ100":1740,"ĠTypeError":1741,")))<$":1742,"17":1743,"IT":1744,"MODE":1745,"PE":1746,"Ġdoc":1747,"right":1748,"Ġreturned":1749,"quote":1750,"pect":1751,"03":1752,"96":1753,"pc":1754,"uage":1755,"Ġfound":1756,"Ġoper":1757,"adata":1758,"Ġmode":1759,"protocol":1760,"$>#<$":1761,"anguage":1762,"okie":1763,"METH":1764,"METHOD":1765,"((":1766,"create":1767,"work":1768,"ating":1769,"Ġfind":1770,"ister":1771,"Ġgener":1772,"Ġ>=":1773,"Ġdirectory":1774,"batch":1775,"})<$":1776,"Ġtorch":1777,"ader":1778,"Ġmin":1779,"Ġ['":1780,"stant":1781,"TION":1782,"Ġ&":1783,"Ġport":1784,"Ġdis":1785,"ply":1786,"encoding":1787,"ameter":1788,"={":1789,"itle":1790,"Ġvariable":1791,"lines":1792,"Ġ''<$":1793,"Ġthan":1794,"ager":1795,"ative":1796,"Ġinitial":1797,"ick":1798,"kip":1799,"wise":1800,"wrap":1801,"Ġignore":1802,"Ġremove":1803,"Ġbool":1804,"loss":1805,"Ġopt":1806,"(_":1807,"CB":1808,"ists":1809,"Ġrun":1810,"ĠĠĠĠĠĠĠĠĠĠĠĠĠĠĠĠĠĠĠĠĠĠĠĠĠĠĠĠ":1811,"strip":1812,"ero":1813,"Ġtf":1814,"PI":1815,"byte":1816,"ci":1817,"mon":1818,"Ġroot":1819,"uration":1820,"Ġcontain":1821,"Ġwhere":1822,"99":1823,"Ġpas":1824,"Ġder":1825,"Ġnames":1826,"mplement":1827,"ograph":1828,"AB":1829,"als":1830,"Ġret":1831,"tries":1832,"oken":1833,"Ġpassword":1834,"SH":1835,"pk":1836,"ason":1837,"Ġwas":1838,"ctionary":1839,"startswith":1840,"âĸĪ":1841,"pa":1842,"Reg":1843,"Ġhelp":1844,"ography":1845,"Box":1846,"GE":1847,"Ġpackage":1848,"Ġthen":1849,"****":1850,">`<$":1851,"cmd":1852,"next":1853,"lean":1854,"Ġresp":1855,"Ġconst":1856,"edit":1857,"parser":1858,"cause":1859,"weight":1860,"Ġlast":1861,"Bucket":1862,"cted":1863,"Ġquery":1864,"$>)<$":1865,"lags":1866,"STR":1867,"dit":1868,"}\".":1869,"Ġtra":1870,"keys":1871,"Ġneed":1872,"48":1873,"77":1874,"MP":1875,"ValueError":1876,"eval":1877,"sol":1878,"spec":1879,"annel":1880,"ities":1881,"Ġmsg":1882,"bucket":1883,"Ġserial":1884,"files":1885,"Ġenvironment":1886,"Time":1887,"][":1888,"ccess":1889,"package":1890,"Ġinteger":1891,"otal":1892,"Content":1893,"Ġunder":1894,"################":1895,"Ġparent":1896,"18":1897,"ĠX":1898,"struct":1899,"adding":1900,"ULT":1901,"DAV":1902,"tra":1903,"ä¸":1904,"asses":1905,"Ġconn":1906,"Ġbucket":1907,"isplay":1908,"57":1909,"fer":1910,"ĠDe":1911,"ĠDjango":1912,"ORT":1913,"KE":1914,"IO":1915,"LS":1916,"Optional":1917,"mask":1918,"yper":1919,"argument":1920,"level":1921,"unter":1922,"poch":1923,"timeout":1924,"...":1925,"Ġsome":1926,"FAULT":1927,"bid":1928,"dent":1929,"install":1930,"ance":1931,"Ġsc":1932,"bose":1933,"Ġcharact":1934,"CH":1935,"cry":1936,"nown":1937,"Ġad":1938,"Ġcor":1939,"Ġcur":1940,"Ġwork":1941,"Ġ12":1942,"link":1943,"Ġarguments":1944,"App":1945,"ias":1946,"private":1947,"replace":1948,"release":1949,"ustom":1950,"lable":1951,"mark":1952,"pend":1953,"Ġselect":1954,"Ġaction":1955,"less":1956,"mpz":1957,"0000":1958,"expr":1959,"libr":1960,"ryptography":1961,"POST":1962,"rate":1963,"oly":1964,"mail":1965,"prefix":1966,"\"))<$":1967,"flow":1968,"ten":1969,"Ġinclude":1970,"Ġsy":1971,"fir":1972,"dim":1973,"ared":1974,"ready":1975,"trol":1976,"He":1977,"cent":1978,"ĠTest":1979,"Ġbecause":1980,"ical":1981,"ĠURL":1982,"ĠException":1983,"HTTP":1984,"Len":1985,"ww":1986,"win":1987,"const":1988,"ĠFor":1989,"ference":1990,"rl":1991,"ged":1992,"Ġchange":1993,"Ġjson":1994,"ailable":1995,"14":1996,"36":1997,"action":1998,"cor":1999,"dest":2000,"Ġax":2001,"Ġwin":2002,"('\\":2003,"Ġexp":2004,".\"<$":2005,"NAME":2006,"atche":2007,"eras":2008,"Ġinto":2009,"pop":2010,"property":2011,"\"\\":2012,"LA":2013,"NO":2014,"float":2015,"Ġ'.":2016,"ĠPar":2017,"ĠSee":2018,"46":2019,"]]":2020,"rs":2021,"env":2022,"Ġoption":2023,"Ġwrite":2024,"other":2025,"contrib":2026,"location":2027,"Ġbuild":2028,"environment":2029,"CT":2030,"Ġform":2031,"thread":2032,"ĠSHA":2033,"licy":2034,"$>\"\"\"<$":2035,"Ġfloat":2036,"last":2037,"Ġcopy":2038,"AS":2039,"Path":2040,"bin":2041,"glob":2042,"meta":2043,"utton":2044,"Ġman":2045,"Ġglob":2046,"Ġfilter":2047,"ensions":2048,"15":2049,"dis":2050,"Ġcryptography":2051,"Ġrequi":2052,"ools":2053,"ome":2054,"âĶ":2055,"dev":2056,"Ġpl":2057,"async":2058,"Ġeach":2059,"Ġmodels":2060,"CE":2061,"cord":2062,"parent":2063,"remove":2064,"stat":2065,"verse":2066,"Connection":2067,"openssl":2068,"Token":2069,"entic":2070,"project":2071,"licit":2072,"ï¼":2073,"lect":2074,"prec":2075,"ops":2076,"ALL":2077,"Ġcommand":2078,"offset":2079,"TER":2080,"mult":2081,"ph":2082,"sy":2083,"til":2084,"used":2085,"$>__":2086,"Ġtyp":2087,"Ġ'<$":2088,"37":2089,"Model":2090,"SHA":2091,"To":2092,"target":2093,"old":2094,"iple":2095,"Ġ200":2096,";<$":2097,"CK":2098,"`.<$":2099,"fail":2100,"go":2101,"sum":2102,"tadata":2103,"ink":2104,"term":2105,"Ġ16":2106,"Ġdel":2107,"Ġ\\<$":2108,"</":2109,"bot":2110,"handle":2111,"lation":2112,"men":2113,"TY":2114,"rf":2115,"ĠAr":2116,"ntax":2117,"make":2118,"Info":2119,"``.<$":2120,"stead":2121,"GET":2122,"miss":2123,"pri":2124,"ĠJ":2125,"Ġtable":2126,"Ġim":2127,"Ġfin":2128,"tems":2129,"Ġdone":2130,"Ġprovi":2131,"ĠInteger":2132,"ttributeError":2133,"ĠKeyError":2134,"GI":2135,"df":2136,"idate":2137,"exception":2138,"``,":2139,"Me":2140,"SU":2141,"case":2142,"gr":2143,"Ġter":2144,"Ġwant":2145,"difi":2146,"order":2147,"address":2148,"Integer":2149,"Ġlink":2150,"callback":2151,"Ġplaintext":2152,"Al":2153,"oss":2154,"page":2155,"width":2156,"Ġq":2157,"Ġro":2158,"cept":2159,"Ġdownload":2160,"conn":2161,"Ġorder":2162,"Ġdest":2163,"resolve":2164,"Ġcompat":2165,"compile":2166,"âĸĳ":2167,"ful":2168,"gra":2169,"upt":2170,"Ġenum":2171,"Ġtests":2172,"80":2173,"Action":2174,"Object":2175,"US":2176,"api":2177,"apping":2178,"Ġgroup":2179,"tail":2180,"mission":2181,"Ġtokens":2182,"license":2183,"Context":2184,"dirs":2185,"mbed":2186,"ispatch":2187,"OS":2188,"gg":2189,"ner":2190,"desc":2191,"ash":2192,"Ġhandle":2193,"very":2194,"exp":2195,"Ġprob":2196,"Header":2197,"emplate":2198,"çļ":2199,"Ġrow":2200,"Ġreal":2201,"Ġinstead":2202,"dataset":2203,"ĠPro":2204,"ĠĠĠĠĠĠĠĠĠĠĠĠĠĠĠĠĠĠĠĠĠĠĠĠĠĠĠĠĠĠĠĠĠĠĠĠĠĠĠĠĠĠĠ":2205,"çļĦ":2206,"Ar":2207,"CS":2208,"OL":2209,"Or":2210,"ning":2211,"Ġview":2212,"description":2213,"Ġauto":2214,"defined":2215,"lated":2216,"Regional":2217,"Text":2218,"ran":2219,"vious":2220,"Ġsequence":2221,"application":2222,"ĠMODE":2223,"Ġchr":2224,"day":2225,"Ġlocation":2226,"Ġlayer":2227,"allow":2228,"Ġpri":2229,"Ġsave":2230,"Ġelement":2231,"ĠĠĠĠĠĠĠĠĠĠĠĠĠĠĠĠĠĠĠĠĠ":2232,"lag":2233,"upload":2234,"mac":2235,"Ġsend":2236,"Ġalso":2237,"Ġobjects":2238,"ĠConfig":2239,"Ġhost":2240,"lass":2241,"},<$":2242,"Ġass":2243,"hes":2244,"Ġplatform":2245,"uri":2246,"child":2247,"Ġexpr":2248,"Ġparameter":2249,"Ġsent":2250,"chema":2251,"DEFAULT":2252,"Ġstrings":2253,"box":2254,"AX":2255,"Kms":2256,"The":2257,"kms":2258,"Ġutil":2259,"attribute":2260,"Ġpattern":2261,"Ġthere":2262,"Ġoff":2263,"Ġorig":2264,"Ġdataset":2265,"troll":2266,"Com":2267,"Element":2268,"cat":2269,"hs":2270,"normal":2271,"sor":2272,"site":2273,"Ġreturns":2274,"Ġlookup":2275,"andidate":2276,"2016":2277,"Ġjust":2278,"ĠReturns":2279,"DER":2280,"ML":2281,"alid":2282,"Ġclient":2283,"Ġdon":2284,"idav":2285,"coded":2286,"Ġtemp":2287,"initial":2288,"Ġdictionary":2289,"ressed":2290,"Ġprefix":2291,"Ġerrors":2292,"DATE":2293,"Ġtyping":2294,").__":2295,"IME":2296,"RO":2297,"sd":2298,"sl":2299,"ward":2300,"Ġtake":2301,"Ġimplement":2302,"raint":2303,"ollow":2304,"ĠCo":2305,"Ġsettings":2306,"Parser":2307,"troller":2308,"Handler":2309,"PAT":2310,"gh":2311,"uint":2312,"ures":2313,"Ġfunc":2314,"ateg":2315,"Ġmark":2316,"ĠSet":2317,"Ġstream":2318,"ocab":2319,"Ġexception":2320,"Ġciphertext":2321,"Any":2322,"exceptions":2323,"cryption":2324,"auto":2325,"oo":2326,"tree":2327,"serve":2328,"Ġsepar":2329,"Ġdigest":2330,"ffe":2331,"Ġalready":2332,"ĠNot":2333,"Ġlevel":2334,"Ġavailable":2335,"ice":2336,"sql":2337,"yle":2338,"Ġnon":2339,"parameters":2340,"ĠST":2341,"ĠAttributeError":2342,"expression":2343,"Ġlike":2344,"first":2345,"HE":2346,"QU":2347,"User":2348,"dump":2349,"sequence":2350,"Ġbot":2351,"issing":2352,"ĠĠĠĠĠĠĠĠĠĠĠĠĠĠĠĠĠĠĠĠĠĠĠĠĠĠĠĠĠĠĠĠĠĠĠĠĠĠĠĠ":2353,"imizer":2354,"FAST":2355,"ĠQt":2356,"atches":2357,"âĸĳâĸĳ":2358,"Col":2359,"CTR":2360,"Rpc":2361,"title":2362,"zip":2363,"åı":2364,"iler":2365,"Ġparsed":2366,"Ġshow":2367,"Ġdatetime":2368,"getEndpointMap":2369,"getEndpointRegional":2370,"RpcRequest":2371,"130":2372,"OF":2373,"du":2374,"fault":2375,"delete":2376,"Ġsa":2377,"entry":2378,"Ġsecond":2379,"Ġprocess":2380,"ĠList":2381,"okies":2382,"'])<$":2383,"34":2384,"Found":2385,"_|":2386,"download":2387,"eature":2388,"fr":2389,"rit":2390,"the":2391,"std":2392,"hex":2393,"Ġredirect":2394,"Ġreplace":2395,"ragment":2396,"connect":2397,"verify":2398,"classes":2399,"Ġcookie":2400,"ĠPy":2401,"extend":2402,"================================":2403,"wsgidav":2404,"Tuple":2405,"public":2406,"hed":2407,"Ġexist":2408,"exec":2409,"Ġbuf":2410,"Length":2411,"19":2412,"24":2413,"Edit":2414,"ont":2415,"stop":2416,"Ġ\"\\":2417,"ptr":2418,"ĠĠĠĠĠĠĠĠĠĠĠĠĠĠĠĠĠĠĠĠĠĠĠĠĠĠĠĠĠĠĠ":2419,"upported":2420,"Ġdir":2421,"Ġdistribution":2422,"Server":2423,"(*":2424,"100":2425,"26":2426,"nn":2427,"ties":2428,"$>:":2429,"rection":2430,"Ġempty":2431,"ĠAn":2432,"ATE":2433,"Ġ..":2434,"Ġrequests":2435,"penSSL":2436,"docs":2437,"QL":2438,"function":2439,"alled":2440,"memory":2441,"Ġclo":2442,"asic":2443,"top":2444,"esc":2445,"Ġstri":2446,"Invalid":2447,"Ġarg":2448,"mbedding":2449,"({":2450,"net":2451,"ernel":2452,"ingle":2453,"Ġ'\\":2454,"oll":2455,"ithub":2456,"Ġvis":2457,"itional":2458,"State":2459,"show":2460,"Ġfinally":2461,"Check":2462,"Group":2463,"RC":2464,"txt":2465,"redirect":2466,"Ġtrain":2467,"Ġinfo":2468,"ither":2469,"Inter":2470,"register":2471,"Start":2472,"safe":2473,"%(":2474,"MD":2475,"\\<$":2476,"gin":2477,"oper":2478,"pted":2479,"zone":2480,"device":2481,"ript":2482,"ids":2483,"Ġbeen":2484,"ĠDer":2485,"pred":2486,"Ġyour":2487,"position":2488,"library":2489,"ould":2490,"scheme":2491,"Ġtmp":2492,"__(<$":2493,"post":2494,"forms":2495,"ĠDist":2496,"Ġits":2497,"command":2498,"ETIME":2499,"âĸĪâĸĪ":2500,"1305":2501,"76":2502,"eded":2503,"Ġta":2504,"Ġ\"{":2505,"Ġvar":2506,"ched":2507,"assertTrue":2508,"Ġ...":2509,"MON":2510,"aded":2511,"bers":2512,"sure":2513,"sha":2514,"wd":2515,"Ġlayers":2516,"med":2517,"lection":2518,"Ġfinal":2519,"Ġpool":2520,"Ġold":2521,"chain":2522,"Ġdatabase":2523,"formation":2524,"ĠGet":2525,"DAY":2526,"Ġpythoncom":2527,")]<$":2528,"bar":2529,"github":2530,"pl":2531,"Ġdescription":2532,"exists":2533,"color":2534,"Ġspecified":2535,"Ġcolor":2536,"Ġlambda":2537,"packages":2538,".\")<$":2539,"Cha":2540,"VER":2541,"wh":2542,"Ġ'/":2543,"change":2544,"foo":2545,"ĠĠĠĠĠĠĠĠĠĠĠĠĠĠĠĠĠĠĠĠĠĠĠĠĠĠĠĠĠĠĠĠĠĠĠĠĠĠĠĠĠĠĠĠĠĠĠĠ":2546,"assertEquals":2547,"ENT":2548,"number":2549,"Ġpassed":2550,"Value":2551,"bits":2552,"ipe":2553,"Ġupdate":2554,"Ġtensor":2555,"decrypt":2556,"cho":2557,"Ġlogging":2558,"Dataset":2559,"MONTH":2560,"58":2561,"long":2562,"åĪ":2563,"algorithm":2564,"Ġ\".":2565,"pth":2566,"ident":2567,"Ġuint":2568,"Ġhash":2569,"Ġalgorithm":2570,"actory":2571,"acy":2572,"Ġpoint":2573,"Ġallowed":2574,"plot":2575,"+=":2576,"cc":2577,"eb":2578,"iew":2579,"sys":2580,"side":2581,"wo":2582,"Ġì":2583,"annot":2584,"Ġnormal":2585,"Ġwithout":2586,"internal":2587,"Ġenumer":2588,"72":2589,"full":2590,"score":2591,"xies":2592,"Ġtotal":2593,"ceback":2594,"ential":2595,"Ġwould":2596,"ular":2597,"setdefault":2598,"Ġexec":2599,"buf":2600,"Ġprevious":2601,"Ġdoesn":2602,"Ġhook":2603,"13":2604,">`":2605,"now":2606,"ven":2607,"reply":2608,"Ġitems":2609,"dered":2610,"Ġafter":2611,"Ġprivate":2612,"Ġinstall":2613,"Ġbatch":2614,"div":2615,"Ġdepend":2616,"etch":2617,"Parameters":2618,"Ġwrapped":2619,"BA":2620,"Cert":2621,"No":2622,"Qu":2623,"gener":2624,"mt":2625,"ĠK":2626,"Ġë":2627,"Ġpip":2628,"Ġthem":2629,"lambda":2630,"force":2631,"Ġbefore":2632,"Ġkeyword":2633,"ORE":2634,"itespace":2635,"Ġxml":2636,"----------------":2637,"PID":2638,"Version":2639,"dp":2640,"ume":2641,"warning":2642,"Ġthey":2643,"ĠSec":2644,"Ġchild":2645,"ayload":2646,"ULL":2647,"Ġsplit":2648,"wsgi":2649,"SHORT":2650,"dified":2651,"\"])<$":2652,"04":2653,"><$":2654,"au":2655,"dt":2656,"tf":2657,"warn":2658,"ernal":2659,"Ġfull":2660,"Ġren":2661,"Ġssl":2662,"Ġeval":2663,"coder":2664,"umns":2665,"iled":2666,"ĠĠĠĠĠĠĠĠĠĠĠĠĠĠĠĠĠĠĠĠĠĠĠĠĠĠĠĠĠĠĠĠĠĠ":2667,"Ġresolve":2668,"igrations":2669,"KEY":2670,"fferent":2671,")),<$":2672,"08":2673,"52":2674,"SL":2675,"Ġke":2676,"Ġpadding":2677,"tools":2678,"Ġ[\"":2679,"ĠCALL":2680,"ERR":2681,"ĠNO":2682,"column":2683,"Ġleft":2684,"Ġlocal":2685,"iece":2686,"Parse":2687,"DATETIME":2688,"memoryview":2689,"Ad":2690,"Iter":2691,"ja":2692,"rer":2693,"Ġpublic":2694,"Ġ',":2695,"ates":2696,"Ġword":2697,"ĠSo":2698,"exc":2699,"lineno":2700,"ispid":2701,"Ġlines":2702,"Attribute":2703,"CF":2704,"View":2705,"cca":2706,"fn":2707,"np":2708,"~~":2709,"Ġ),<$":2710,"serial":2711,"Ġref":2712,"ural":2713,"Ġob":2714,"Ġ'__":2715,"rag":2716,"Ġexc":2717,"istory":2718,"resource":2719,"scribe":2720,"Ġavoid":2721,"âĶĪ":2722,"attributes":2723,"\").":2724,"HT":2725,"Sec":2726,"âĢ":2727,"$>_":2728,"Ġpt":2729,"()))<$":2730,"ĠSt":2731,"Ġbet":2732,"Ġlow":2733,"andard":2734,"ush":2735,"ĠMo":2736,"ignore":2737,"directory":2738,"ccak":2739,"FC":2740,"Item":2741,"Lo":2742,"OK":2743,"Tag":2744,"final":2745,"rans":2746,"Ġsingle":2747,"mpl":2748,"like":2749,"perties":2750,"ĠNote":2751,"Ġdomain":2752,"ators":2753,"encoded":2754,"Ġevents":2755,"ftware":2756,"author":2757,"opts":2758,"Ġrequired":2759,"Button":2760,"gine":2761,"ique":2762,"pared":2763,"send":2764,"stalled":2765,"lookup":2766,"lice":2767,"conf":2768,"ĠĠĠĠĠĠĠĠĠĠĠĠĠĠĠĠĠĠĠĠĠĠĠĠĠĠĠĠĠĠĠĠĠĠĠĠĠĠĠĠĠĠĠĠĠĠ":2769,"errors":2770,"ODO":2771,"Ġprovided":2772,")[":2773,"COM":2774,"crc":2775,"epoch":2776,"gui":2777,"sig":2778,"src":2779,"ank":2780,"round":2781,"abel":2782,"ĠApp":2783,"ĠRequest":2784,"Prober":2785,"TIME":2786,"Ġcalled":2787,"indows":2788,"tails":2789,".')<$":2790,"Class":2791,"imple":2792,"atures":2793,"Ġbfr":2794,"__,":2795,"gettext":2796,"Ġcount":2797,"ĠData":2798,"Ġnamespace":2799,"rypto":2800,"plaintext":2801,"manager":2802,"ERROR":2803,"66":2804,"Back":2805,"MAC":2806,"Ġutils":2807,"session":2808,"ince":2809,"Ġfollow":2810,"Ġ\"%":2811,"Ġ#:":2812,"Ġwarning":2813,"thing":2814,"oding":2815,"Ġstop":2816,"Ġproperty":2817,"active":2818,"moves":2819,"domain":2820,"Ġaccess":2821,"'+":2822,"IL":2823,"Log":2824,"NT":2825,"ZE":2826,"embedding":2827,"invalid":2828,"orage":2829,"lim":2830,"limit":2831,"ĠTODO":2832,"Keyword":2833,"Ġzip":2834,"Pointer":2835,"sdk":2836,"Ġvisit":2837,"39":2838,"Import":2839,"pack":2840,"inja":2841,"ility":2842,"channel":2843,"vect":2844,"trics":2845,"addr":2846,"mplete":2847,"image":2848,"inputs":2849,"compressed":2850,"Ġentry":2851,"ĠConfigFile":2852,"Ġenumerate":2853,"07":2854,"SGI":2855,"]))<$":2856,"`,":2857,"gress":2858,"Ġ\"\"<$":2859,"esca":2860,"ĠCom":2861,"icense":2862,"Ġmac":2863,"ĠUse":2864,"imum":2865,"ĠGener":2866,"Ġbytearray":2867,"Ġlineno":2868,"Ġcallable":2869,"Ġoffset":2870,"Base":2871,"IS":2872,"Py":2873,"cal":2874,"dtype":2875,"retries":2876,"Ġimp":2877,"Ġshape":2878,"Ġscheme":2879,"ulate":2880,"Ġexample":2881,"Ġlong":2882,"provider":2883,"ffff":2884,"ĠOther":2885,"objects":2886,"Ġcreated":2887,"Ġvalidation":2888,"issue":2889,"Ġmultiple":2890,"Ġseparate":2891,"cli":2892,"tensor":2893,"utable":2894,"Ġsystem":2895,"Ġloss":2896,"Ġdevice":2897,"Ġrandom":2898,"ATTR":2899,"[:,":2900,"Ġotherwise":2901,"idden":2902,"stanti":2903,"86":2904,":}":2905,"Create":2906,"Warning":2907,"`.":2908,"duct":2909,"ìĿ":2910,"Ġlicense":2911,"alp":2912,"rid":2913,"unct":2914,"unked":2915,"Ġforbid":2916,"ilter":2917,"distri":2918,"tokens":2919,"ĠDE":2920,"Ġ20":2921,"Ġdifferent":2922,"Ġchunk":2923,"ected":2924,"step":2925,"modules":2926,"Ġverbose":2927,"pair":2928,"weights":2929,"ĠParse":2930,"ĠArgs":2931,"escape":2932,"EX":2933,"Middleware":2934,"Out":2935,"rt":2936,"system":2937,"ually":2938,"zy":2939,"itive":2940,"Ġeither":2941,"entities":2942,"Ġ%(":2943,"Ġsession":2944,"dirname":2945,"nodes":2946,"sgi":2947,"Ġaxis":2948,"mented":2949,"Add":2950,"Date":2951,"middleware":2952,"urity":2953,"Ġsorted":2954,"Ġskip":2955,"Ġdown":2956,"__<$":2957,"ision":2958,"Ġ[[":2959,"Ġasync":2960,"expected":2961,"'],":2962,"labels":2963,"requests":2964,"certs":2965,"hostname":2966,"Ġsuccess":2967,"clear":2968,"rfc":2969,"NULL":2970,"Poly":2971,"Tensor":2972,"language":2973,"requi":2974,"leep":2975,"Ġnow":2976,"Ġour":2977,"cookies":2978,"Ġmap":2979,"iltin":2980,"ically":2981,"hook":2982,"Ġexplicit":2983,"(?":2984,"*-":2985,"UP":2986,"bw":2987,"empty":2988,"riter":2989,"task":2990,"xml":2991,"è¯":2992,"Ġinformation":2993,"Ġsum":2994,"Ġ#<$":2995,"Ġ'_":2996,"Ġdisplay":2997,"Ġmask":2998,"sph":2999,"ĠĠĠĠĠĠĠĠĠĠĠĠĠĠĠĠĠĠĠĠĠĠĠĠĠĠĠĠĠĠĠĠĠĠĠĠĠ":3000,"Provider":3001,"SIZE":3002,"Ġaddress":3003,"Ġposition":3004,"bytearray":3005,"SET":3006,"Up":3007,"ailed":3008,"gers":3009,"iy":3010,"})":3011,"Ġright":3012,"real":3013,"aly":3014,"Ġcustom":3015,"Ġfail":3016,"Ġsrc":3017,"rase":3018,"upport":3019,"Ġ-*-":3020,"ĠCheck":3021,"ĠCOM":3022,"INTER":3023,"TypeError":3024,"messages":3025,"Ġcharacter":3026,"Ġrealm":3027,"Ġoriginal":3028,"AV":3029,"\\\\":3030,"hen":3031,"ices":3032,"option":3033,"zmat":3034,"á´":3035,"Ġag":3036,"Ġpk":3037,"Ġinte":3038,"Ġinstanti":3039,"pool":3040,"Ġstruct":3041,"Ġgo":3042,"Ġresults":3043,"hazmat":3044,"Ġsupported":3045,"visit":3046,"ĠerrSSL":3047,"Format":3048,"Timeout":3049,"Ġcharacters":3050,"Ġcorrect":3051,"23":3052,"49":3053,"FO":3054,"GR":3055,"NI":3056,"Pre":3057,"element":3058,"jar":3059,"ze":3060,"$>]<$":3061,"ater":3062,"rop":3063,"tok":3064,"usb":3065,"Ġsegment":3066,"Ġencoded":3067,"Ġconfiguration":3068,"Ġzero":3069,"precated":3070,"ĠOtherwise":3071,"CTION":3072,"Url":3073,"ear":3074,"flat":3075,"known":3076,"spect":3077,"alt":3078,"dec":3079,"des":3080,"Ġnet":3081,"Ġinstring":3082,"service":3083,"ved":3084,"().__":3085,"Ġcounter":3086,"Ġ<<":3087,"Ġcannot":3088,"Widgets":3089,"cii":3090,"Ġterm":3091,"'),":3092,"35":3093,"IP":3094,"Ident":3095,"SON":3096,"mary":3097,"Ġap":3098,"Ġctypes":3099,"lied":3100,"queue":3101,"Ġdetails":3102,"ments":3103,"Ġstat":3104,"Ġrule":3105,"ives":3106,"ĠBase":3107,"ternal":3108,"Ġneeded":3109,"ween":3110,"Ġ'''<$":3111,"Ġvariables":3112,"distribution":3113,"=(":3114,"?<$":3115,"DR":3116,"Valid":3117,"imp":3118,"sm":3119,"style":3120,"Ġ\"/":3121,"ell":3122,"dia":3123,"upper":3124,"ĠImport":3125,"ĠCreate":3126,"Ġdebug":3127,"ĠFile":3128,"Ġmemory":3129,"extensions":3130,"datetime":3131,"Ġlet":3132,"marker":3133,"ï¼Į":3134,"Algorithm":3135,"ategory":3136,"ritten":3137,"ED":3138,"Ext":3139,"]):<$":3140,"]]<$":3141,"ose":3142,"oot":3143,"sort":3144,"rel":3145,"Ġrequirement":3146,"Ġbin":3147,"lot":3148,"spath":3149,"Regex":3150,"Ġdelete":3151,"Ġ{'":3152,"Ġnamed":3153,"apps":3154,"ĠOpenSSL":3155,"ured":3156,"locs":3157,"axis":3158,"templates":3159,"www":3160,"PATH":3161,".*":3162,"=_":3163,"More":3164,"SD":3165,"dition":3166,"my":3167,"sb":3168,"skip":3169,"tmp":3170,"tuple":3171,"ving":3172,"Ġretries":3173,"Ġreason":3174,"Ġpipe":3175,"Ġindi":3176,"riday":3177,"unicode":3178,"Ġparameters":3179,"using":3180,"eta":3181,"resh":3182,"validate":3183,"Ġspecial":3184,"framework":3185,"igration":3186,"ABLE":3187,"Ġbetween":3188,"sphrase":3189,"CR":3190,"EE":3191,"after":3192,"card":3193,"fy":3194,"rtype":3195,"ëĭ":3196,"repr":3197,"Ġtwo":3198,"Ġevery":3199,"ading":3200,"ulus":3201,"older":3202,"ĠVersion":3203,"derr":3204,"Ġ32":3205,"mplemented":3206,"ways":3207,"ynam":3208,"Ġshort":3209,"Ġposs":3210,"SION":3211,"ACK":3212,"Ġiterable":3213,"cret":3214,"Ġattributes":3215,"********":3216,"OrMore":3217,"Ġtensorflow":3218,"iyun":3219,"97":3220,"This":3221,"bL":3222,"dence":3223,"fetch":3224,"ob":3225,"vo":3226,"Ġ},<$":3227,"metadata":3228,"ions":3229,"Ġrelease":3230,"Ġbits":3231,"policy":3232,"ĠString":3233,"ĠCha":3234,"igh":3235,"Ġvoid":3236,"ĠOS":3237,"scre":3238,"ĠName":3239,"Ġ|=":3240,"ariant":3241,"sock":3242,"Ġsignature":3243,"Ġlabels":3244,"\"{":3245,":%":3246,"All":3247,"LIN":3248,"Num":3249,"On":3250,"Open":3251,"ae":3252,"display":3253,"tick":3254,"Ġtri":3255,"Ġcoding":3256,"lem":3257,"else":3258,"Ġannot":3259,"pow":3260,"verbose":3261,"Ġbest":3262,"Ġproject":3263,"ĠEn":3264,"redential":3265,"Ġdistri":3266,"ðŁĮķ":3267,"Ġmatching":3268,"Ġspace":3269,"384":3270,"ometry":3271,"multi":3272,"symb":3273,"Le":3274,"Line":3275,"Pos":3276,"ait":3277,"bc":3278,"gt":3279,"gen":3280,"hot":3281,"istr":3282,"ping":3283,"poll":3284,"vocab":3285,"whe":3286,"retry":3287,"store":3288,"les":3289,"Ġnn":3290,"isinstance":3291,"Ġthread":3292,"ĠIP":3293,"ĠAl":3294,"mber":3295,"moved":3296,"ĠRSA":3297,"Ġurllib":3298,"Ġshare":3299,"ency":3300,"Ġinterface":3301,"Ġimplementation":3302,"Ġboth":3303,"ĠQtWidgets":3304,"(**":3305,"45":3306,"Auth":3307,"KCS":3308,"PT":3309,"aes":3310,"ient":3311,"Ġqu":3312,"search":3313,"include":3314,"uture":3315,"Ġsure":3316,"adio":3317,"keccak":3318,"Ġdefined":3319,"Ġhp":3320,"ĠCh":3321,"ĠDAV":3322,"Ġsetattr":3323,"Ġresource":3324,"ibility":3325,"Ġcolumn":3326,"djangoproject":3327,"cient":3328,"Ġsyntax":3329,"TYPE":3330,"ĠSTORE":3331,"sdkcore":3332,"iyunsdkcore":3333,"59":3334,"512":3335,":]<$":3336,"=%":3337,"AG":3338,"Wh":3339,"egg":3340,"sleep":3341,"ä»":3342,"del":3343,"hell":3344,"Ġpe":3345,"Ġpick":3346,"Ġdb":3347,"ĠĠĠĠĠĠĠĠĠĠĠĠĠĠĠĠĠĠĠĠ":3348,"chine":3349,"Ref":3350,"Ġdecode":3351,"Ġraw":3352,"Ġmain":3353,"backends":3354,"TED":3355,"curs":3356,"Ġauthentic":3357,"Ġremoved":3358,"solution":3359,"Ġwarnings":3360,"(__":3361,"VE":3362,"friday":3363,"platform":3364,"rupt":3365,"seq":3366,"insert":3367,"orary":3368,"Ġfn":3369,"Ġnest":3370,"pem":3371,"dify":3372,"Ġconvert":3373,"ĠPre":3374,"Ġenv":3375,"Ġmethods":3376,"encies":3377,"Ġcertificate":3378,"Ġsafe":3379,"Certificate":3380,"51":3381,"Ent":3382,"Sy":3383,"Sub":3384,"ffix":3385,"torch":3386,"uate":3387,"vers":3388,"åĲ":3389,"Ġê":3390,"Ġeven":3391,"cope":3392,"Ġ{\"":3393,"Ġgot":3394,"present":3395,"loader":3396,"Ġpresent":3397,"bool":3398,"Expr":3399,"ĠRun":3400,"Ġspecific":3401,"before":3402,"static":3403,"Identifier":3404,"(-":3405,");<$":3406,"200":3407,"IC":3408,"Sign":3409,"ek":3410,"fin":3411,"handler":3412,"lang":3413,"norm":3414,"Ġlib":3415,"Ġretry":3416,"Ġep":3417,"Ġmight":3418,"chunk":3419,"(\"\\":3420,"true":3421,"buted":3422,"sca":3423,"compat":3424,"web":3425,"localhost":3426,"Ġscript":3427,"Ġtags":3428,"ĠSecurity":3429,"Cipher":3430,"Module":3431,"Python":3432,"eed":3433,"hp":3434,"tar":3435,"âķ":3436,"æķ":3437,"$>\\":3438,"lections":3439,"Ġfix":3440,"cell":3441,"Ġinvalid":3442,"setup":3443,"ĠTemplate":3444,"ĠSSL":3445,"Ġdescribe":3446,"Ġmetadata":3447,"trial":3448,"external":3449,"mote":3450,"Const":3451,"way":3452,"ĠExample":3453,"Ġverify":3454,"Ġadmin":3455,"''<$":3456,"AP":3457,"ARE":3458,"IG":3459,"NN":3460,"Obj":3461,"UM":3462,"dispid":3463,"fp":3464,"ud":3465,"uid":3466,"ĠâĢ":3467,"orig":3468,"left":3469,"Ġ\"_":3470,"Ġmigrations":3471,"olution":3472,"Ġconnect":3473,"Ġ17":3474,"permission":3475,"oci":3476,"'],<$":3477,"FFFF":3478,"////":3479,"Ġdistutils":3480,"iterable":3481,"LOCK":3482,"Ġidx":3483,"Ġpassphrase":3484,"globs":3485,"Ġmany":3486,"Desc":3487,"EF":3488,"Hash":3489,"Qt":3490,"]*":3491,"xa":3492,"}.":3493,"ãĢ":3494,"æĸ":3495,"Ġge":3496,"Ġkw":3497,"reset":3498,"enabled":3499,"rou":3500,"Ġbound":3501,"loop":3502,"Ġepoch":3503,"Ġmatches":3504,"contain":3505,"versed":3506,"ĠDES":3507,"attrs":3508,"ics":3509,"Ġunicode":3510,"tests":3511,"agraph":3512,"nsupported":3513,"umpy":3514,"closed":3515,"CONST":3516,"Ġgenerate":3517,"oolean":3518,"Ġagain":3519,"54":3520,"CC":3521,"Spec":3522,"Template":3523,"cf":3524,"flags":3525,"optional":3526,"rule":3527,"Ġquote":3528,"onent":3529,"height":3530,"Ġcrc":3531,"Ġclean":3532,"Ġrest":3533,"Ġreference":3534,"Ġreverse":3535,"Ġrelated":3536,"tect":3537,"Ġbo":3538,"ascii":3539,"come":3540,"unit":3541,"lazy":3542,"ĠCF":3543,"ĠAPI":3544,"Ġstd":3545,"ĠPE":3546,"ĠPO":3547,"Ġprotocol":3548,"classmethod":3549,"layout":3550,"ĠWindows":3551,"columns":3552,"board":3553,"ĠInvalid":3554,"Ġblocks":3555,"Ġcallback":3556,"Ġlimit":3557,"224":3558,"constraint":3559,"Ġplt":3560,"duce":3561,"Ġpossible":3562,"\"],":3563,")-":3564,"Window":3565,"best":3566,"oted":3567,"ðĿ":3568,"rest":3569,"erify":3570,"stderr":3571,"aries":3572,"Ġnorm":3573,"ĠĠĠĠĠĠĠĠĠĠĠĠĠĠĠĠĠĠĠĠĠĠĠĠĠĠĠĠĠĠĠĠĠĠĠ":3574,"chunked":3575,"Ġcontrol":3576,"Ġ[]":3577,"paths":3578,"database":3579,"Ġstack":3580,"export":3581,"Ġensure":3582,"mount":3583,"Ġpred":3584,"ĠWhen":3585,"Ġdefaults":3586,"END":3587,"CBC":3588,"Ġcursor":3589,"gram":3590,"Ġhooks":3591,"ynamic":3592,"æķ°":3593,".\"":3594,"06":3595,"21":3596,"31":3597,"Block":3598,"CP":3599,"Client":3600,"Filter":3601,"graph":3602,"pare":3603,"instring":3604,"regex":3605,"roy":3606,"Ġscore":3607,"Ġsql":3608,"Ġthese":3609,"fidence":3610,"Ġmime":3611,"Ġ+<$":3612,"Ġgr":3613,"'].":3614,"Ġhashes":3615,"validation":3616,"Ġunless":3617,"Ġarch":3618,"ĠNo":3619,"umentation":3620,"Ġcompiler":3621,"username":3622,"parseString":3623,"Ġpost":3624,"optimizer":3625,"fficient":3626,"Ġoverri":3627,"Ġglobal":3628,"Ġkeep":3629,"ĠMoved":3630,"Ġinstantiating":3631,"rough":3632,"88":3633,"BU":3634,"Event":3635,"Form":3636,"Pass":3637,"Public":3638,"Trans":3639,"factory":3640,"gative":3641,"ng":3642,"payload":3643,"void":3644,"second":3645,"Ġtask":3646,"Ġsix":3647,"pter":3648,"__()<$":3649,"ract":3650,"Ġforce":3651,"ĠLicense":3652,"Ġsetup":3653,"Ġuntil":3654,"vironment":3655,"Ġsock":3656,"chars":3657,"blocks":3658,"signed":3659,"Serial":3660,"NotFound":3661,"STRING":3662,"################################":3663,"uptools":3664,"Admin":3665,"vectors":3666,"unctools":3667,"Ġdistributed":3668,",'":3669,"::<$":3670,"Frame":3671,"GMP":3672,"II":3673,"MAX":3674,"PRO":3675,"RST":3676,"bio":3677,"gacy":3678,"mar":3679,"pump":3680,"æľ":3681,"indi":3682,"Ġcho":3683,"any":3684,"Ġinclu":3685,"ily":3686,"ypes":3687,"construct":3688,"Ġexists":3689,"ĠIS":3690,"prop":3691,"points":3692,"uble":3693,"modified":3694,"Ġaliyunsdkcore":3695,"importer":3696,"204":3697,"Ġtypes":3698,"actor":3699,"lative":3700,"iteral":3701,"pipe":3702,"Ġextract":3703,"ĠIntegerGMP":3704,"changed":3705,"ociated":3706,":\\":3707,"SP":3708,"Str":3709,"custom":3710,"ered":3711,"fragment":3712,"how":3713,"lr":3714,"sue":3715,"å¤":3716,"Ġè":3717,"inel":3718,"respon":3719,"Ġcli":3720,"Ġpage":3721,"Ġ*_":3722,"Ġparsing":3723,"Ġprogress":3724,"Ġmachine":3725,"Ġdim":3726,"tags":3727,"most":3728,"Ġprepared":3729,"imal":3730,"Ġbuffer":3731,"\"],<$":3732,"Ġaccept":3733,"signature":3734,"Ġmodify":3735,"Ġmulti":3736,"PEM":3737,"Ġimage":3738,"ĠDistribution":3739,"agraphs":3740,"CU":3741,"Ca":3742,"DO":3743,"SER":3744,"Web":3745,"bl":3746,"bit":3747,"cnt":3748,"keras":3749,"math":3750,"sage":3751,"widget":3752,"Ġjoin":3753,"sec":3754,"section":3755,"related":3756,"stack":3757,"meth":3758,"Ġreply":3759,"Ġ\"__":3760,"Ġsample":3761,"Ġop":3762,"Ġow":3763,"Ġissue":3764,"chr":3765,"chat":3766,"ably":3767,"Ġlang":3768,"vide":3769,"Ġloop":3770,"Ġprop":3771,"Ġencryption":3772,"imation":3773,"Ġkernel":3774,"Ġversions":3775,"csv":3776,"sudo":3777,"Ġwrapper":3778,"processing":3779,"Ġcontaining":3780,"Ġ128":3781,"callbacks":3782,"Ġtakes":3783,"ĠAny":3784,"ĠCommand":3785,"ĠImportError":3786,"').":3787,":]":3788,"At":3789,"CODE":3790,"Dis":3791,"EAR":3792,"ds":3793,"fl":3794,"rpc":3795,"ination":3796,"Ġtree":3797,"Ġrepresent":3798,"Ġpa":3799,"ropo":3800,"lap":3801,"builtin":3802,"Ġrv":3803,"Ġsearch":3804,"press":3805,"']=":3806,"Ġarray":3807,"interface":3808,"Ġnecess":3809,"rivateKey":3810,"Ġexpressions":3811,"Point":3812,"wrapper":3813,"Ġcontains":3814,"grad":3815,"DEREF":3816,"Ġpickle":3817,"ropout":3818,"-%":3819,".'<$":3820,"Case":3821,"EAX":3822,"MIN":3823,"aa":3824,"cm":3825,"ee":3826,"free":3827,"gmp":3828,"random":3829,"total":3830,"Ġ],<$":3831,"sens":3832,"alias":3833,"derer":3834,"Ġplat":3835,"ĠĠĠĠĠĠĠĠĠĠĠĠĠĠĠĠĠĠĠĠĠĠĠĠ":3836,"river":3837,"namespace":3838,"andfunc":3839,"ĠAdd":3840,"Ġstep":3841,"ocation":3842,"ĠUser":3843,"ventory":3844,"Ġextensions":3845,"ibr":3846,"ification":3847,"saObj":3848,"condition":3849,"UNCTION":3850,"extract":3851,"solute":3852,"Message":3853,"Validator":3854,"screen":3855,"81":3856,"90":3857,"EST":3858,"Gener":3859,"Implemented":3860,"PRE":3861,"]+":3862,"_,":3863,"icon":3864,"na":3865,"over":3866,"plat":3867,"support":3868,"xA":3869,"repo":3870,"Ġtb":3871,"Ġcmd":3872,"Ġfragment":3873,"Ġfailed":3874,"Ġinstalled":3875,"Ġwidth":3876,"ĠĠĠĠĠĠĠĠĠĠĠĠĠĠĠĠĠĠĠĠĠĠĠĠĠĠĠĠĠĠ":3877,"__.__":3878,"ĠImp":3879,"Ġlook":3880,"Ġparts":3881,"ĠDict":3882,"Ġ`.":3883,"preter":3884,"Ġkeys":3885,"Ġwithin":3886,"Ġexceptions":3887,"ĠMe":3888,"ĠĠĠĠĠĠĠĠĠĠĠĠĠĠĠĠĠĠĠĠĠĠĠĠĠĠĠĠĠĠĠĠĠ":3889,"ĠOn":3890,"MENT":3891,"ivation":3892,"maining":3893,"sample":3894,"Ġsuch":3895,"Ġwhether":3896,"Ġloader":3897,"clean":3898,"pkcs":3899,"ĠNotImplemented":3900,"Interface":3901,"ĠSoftware":3902,"Ġpipeline":3903,"ãĢĤ":3904,":-":3905,"BLOCK":3906,"CO":3907,"FR":3908,"If":3909,"dot":3910,"email":3911,"history":3912,"pat":3913,"year":3914,"requirement":3915,"ories":3916,"Ġ=<$":3917,"rot":3918,"Ġsort":3919,"Ġwait":3920,"\"\"\"":3921,"Ġ_,":3922,"Ġconstant":3923,"Ġord":3924,"Ġencrypt":3925,"ĠMake":3926,"ffect":3927,"Ġalways":3928,"Inte":3929,"Input":3930,"ift":3931,"importKey":3932,"lify":3933,"Ġpaths":3934,"writeline":3935,"training":3936,"Ġchecks":3937,"Ġconnections":3938,"Unless":3939,"Ġopts":3940,"NOT":3941,"Ġsentence":3942,"Syntax":3943,"/#":3944,"Feature":3945,"Label":3946,"TO":3947,"With":3948,"basic":3949,"gi":3950,"hyper":3951,"null":3952,"padding":3953,"si":3954,"sw":3955,"tz":3956,"åĬ":3957,"reverse":3958,"atio":3959,"Ġtar":3960,"ale":3961,"urlo":3962,"Ġ\",":3963,"Ġoptional":3964,"ĠĠĠĠĠĠĠĠĠĠĠĠĠĠĠĠĠ":3965,"ĠĠĠĠĠĠĠĠĠĠĠĠĠĠĠĠĠĠ":3966,"Ġcons":3967,"Ġ255":3968,"Ġmeans":3969,"ĠMode":3970,"ĠOne":3971,"Ġleast":3972,"\"]:<$":3973,"ogle":3974,"Ġ{}\".":3975,"ĠUnion":3976,"Ġsupports":3977,"Ġoperator":3978,"Ġqueryset":3979,"ĠDefault":3980,"corator":3981,"destroy":3982,"CFB":3983,"âĶĪâĶĪ":3984,"Ġfollowing":3985,"istry":3986,"urlopen":3987,"AES":3988,"Id":3989,"WEE":3990,"_(":3991,"cu":3992,"foc":3993,"jor":3994,"}\")<$":3995,"Ġlibrary":3996,"ret":3997,"enu":3998,"Ġrece":3999,"ctr":4000,"Ġsim":4001,"Ġway":4002,"counter":4003,"ather":4004,"Reason":4005,"Ġlar":4006,"forbid":4007,"ĠCrypto":4008,"Ġstill":4009,"proxies":4010,"Ġmetrics":4011,"Ġgettext":4012,"extension":4013,"Index":4014,"Ġpredi":4015,"common":4016,"tention":4017,"cay":4018,"ESS":4019,"certificate":4020,"Default":4021,"ðŁĮĳ":4022,"Ġoptimizer":4023,"editor":4024,"Ġglobals":4025,"Ġplural":4026,"Tokenizer":4027,"ĠChaCha":4028,"WEEK":4029,"Cal":4030,"CLS":4031,"Do":4032,"Flags":4033,"FUNCTION":4034,"Node":4035,"aBA":4036,"fit":4037,"hers":4038,"kernel":4039,"ost":4040,"pu":4041,"}\"<$":4042,"å®":4043,"Ġcandidate":4044,"let":4045,"Ġflag":4046,"Ġrecord":4047,"Ġpiece":4048,"Ġsince":4049,"Ġwidget":4050,"Ġwritten":4051,"ished":4052,"Ġtoo":4053,"stru":4054,"ationError":4055,"controller":4056,"Ġthrough":4057,"Ġconver":4058,"abspath":4059,"())":4060,"clus":4061,"ĠIN":4062,"matically":4063,"000":4064,"product":4065,"exe":4066,"assertFalse":4067,"ORD":4068,"timeError":4069,"Ġweight":4070,"Ġcollections":4071,"encry":4072,"many":4073,"Ġattrs":4074,"except":4075,"Ġoperations":4076,"Ġcorrespon":4077,"Ġrequires":4078,"HEAD":4079,".\",<$":4080,"/')<$":4081,"AM":4082,"Fore":4083,"Size":4084,"down":4085,"lper":4086,"xor":4087,"att":4088,"atmap":4089,"Ġfig":4090,"Ġbit":4091,"cores":4092,"Ġmath":4093,"unique":4094,"Read":4095,"abc":4096,"ables":4097,"istered":4098,"Ġcomplete":4099,"properties":4100,"123":4101,"logging":4102,"render":4103,"LOW":4104,"Sequence":4105,"ciphertext":4106,"Ġctx":4107,"Ġoperation":4108,"ĠJSON":4109,"ranet":4110,"allowed":4111,"initializer":4112,"fullname":4113,"CRY":4114,"builtins":4115,"\">":4116,"101":4117,"ECB":4118,"HBox":4119,"Root":4120,"SQL":4121,"button":4122,"cd":4123,"tc":4124,"xfe":4125,"åº":4126,"è¿":4127,"ended":4128,"Ġaut":4129,"Ġrepr":4130,"Ġoc":4131,"Ġmi":4132,"Ġmy":4133,"uner":4134,"span":4135,"('%":4136,"ĠSm":4137,"exit":4138,"ĠMax":4139,"timezone":4140,"ĠUnsupported":4141,"cast":4142,"ĠWSGI":4143,"Ġattemp":4144,"features":4145,"basename":4146,"Ġleading":4147,"login":4148,"Ġinputs":4149,"sole":4150,"Ġtrust":4151,"ANG":4152,"Responses":4153,"scripts":4154,"Ġrunning":4155,"tilities":4156,"expand":4157,"âĸĳâĸĳâĸĳâĸĳ":4158,"Ġlower":4159,"ĠâĢ¢":4160,"aBASS":4161,")\"":4162,"Mo":4163,"URL":4164,"actions":4165,"href":4166,"sync":4167,"schema":4168,"Ġsel":4169,"Ġutf":4170,"Ġtrue":4171,"Ġ\"--":4172,"ĠĠĠĠĠĠĠĠĠĠĠĠĠĠĠĠĠĠĠĠĠĠ":4173,"rive":4174,"ries":4175,"Ġisn":4176,"Ġconfidence":4177,"para":4178,"Ġstandard":4179,"Ġcomb":4180,"Ġproxies":4181,"fileobj":4182,"tric":4183,"ĠOr":4184,"ESE":4185,"Ġuseful":4186,"Ġspecify":4187,"Ġpolicy":4188,"ĠUnicode":4189,"reqs":4190,"termine":4191,"Ġdirname":4192,"Ġnormalize":4193,"Ġrender":4194,"'+'":4195,"Ġletter":4196,"ĠMovedAttribute":4197,"Integers":4198,"focused":4199,"\"),":4200,"'.<$":4201,"78":4202,"Int":4203,"PAR":4204,"ras":4205,"sk":4206,"ĠZ":4207,"Ġhead":4208,"Ġtrial":4209,"ueue":4210,"Ġedit":4211,"lite":4212,"ada":4213,"enter":4214,"ĠĠĠĠĠĠĠĠĠĠĠĠĠĠĠĠĠĠĠĠĠĠĠĠĠĠĠĠĠ":4215,"ila":4216,"convert":4217,"Ġdec":4218,"expi":4219,"ĠLo":4220,"ĠExt":4221,"Ġ30":4222,"ĠWord":4223,"ĠRFC":4224,"Names":4225,"ĉĉĉĉ":4226,"results":4227,"Ġauthor":4228,"Ġmost":4229,"Ġdisable":4230,"Ġelements":4231,"Ġassociated":4232,"operation":4233,"ĠStringIO":4234,"(%":4235,"75":4236,"GHT":4237,"Hel":4238,"ION":4239,"IID":4240,"MOD":4241,"PL":4242,"PY":4243,"candidate":4244,"missing":4245,"pad":4246,"tk":4247,"window":4248,"{:":4249,"Ã©":4250,"reating":4251,"erge":4252,"Ġrel":4253,"uring":4254,"ros":4255,"__)<$":4256,"('--":4257,"Ġ13":4258,"Ġ15":4259,"Ġdelim":4260,"exclude":4261,"ĠDi":4262,"Ġprovider":4263,"ĠModel":4264,"ĠValue":4265,"Ġchannel":4266,"Control":4267,"Ġheight":4268,"Ġusers":4269,"rows":4270,"Ġ64":4271,"ĠContent":4272,"Delete":4273,"Ġident":4274,"Ġdirectories":4275,"ĠWeb":4276,"Service":4277,"tableWidget":4278,"libraries":4279,"primit":4280,"Ġseconds":4281,"choices":4282,"ImportKey":4283,"Ġmimetype":4284,"400":4285,"70":4286,"Dist":4287,"Dispatch":4288,"Match":4289,"PUT":4290,"ground":4291,"ian":4292,"none":4293,"note":4294,"tl":4295,"Ġ//":4296,"sep":4297,"engine":4298,"Ġnumpy":4299,"cookie":4300,"Ġmissing":4301,"__.":4302,"iling":4303,"uplic":4304,"Ġhapp":4305,"Ġconf":4306,"Ġcondition":4307,"tran":4308,"ĠSer":4309,"iphers":4310,"Ġ*<$":4311,"istent":4312,"Ġstore":4313,"Ġcould":4314,"Ġsens":4315,"Ġmean":4316,"Ġsetuptools":4317,"INFO":4318,"ĠHyper":4319,"feature":4320,"Ġ60":4321,"Ġfunctions":4322,"pied":4323,"sentence":4324,"USER":4325,"Ġproblem":4326,"identifier":4327,"dtd":4328,"Output":4329,"Position":4330,"ĠRuntimeError":4331,"ĠPOINTER":4332,"indices":4333,"255":4334,"MO":4335,"RES":4336,"TF":4337,"VAL":4338,"Word":4339,"native":4340,"sq":4341,"variable":4342,"$>)":4343,"decompressed":4344,"lear":4345,"Ġreset":4346,"Ġ')<$":4347,"ilar":4348,"Ġhandler":4349,"Ġlanguage":4350,"Ġbeing":4351,"ases":4352,"ĠDo":4353,"urls":4354,"Ġenabled":4355,"ĠVoid":4356,"ĠUtilities":4357,"ĠtestImportKey":4358,"ĠHttp":4359,"Ġuses":4360,"acket":4361,"states":4362,"numbers":4363,"Ġactually":4364,"TEST":4365,"GetBucket":4366,"Unknown":4367,"Session":4368,"FIL":4369,"Ġregister":4370,"Ġsymb":4371,"LAG":4372,"Ġautomatically":4373,"expressions":4374,"realm":4375,"cursive":4376,"scape":4377,"video":4378,"ĠVoidPointer":4379,"!<$":4380,"#<$":4381,"'re":4382,"Band":4383,"DF":4384,"PG":4385,"Per":4386,"WORD":4387,"freq":4388,"future":4389,"non":4390,"ĠRE":4391,"sen":4392,"Ġtitle":4393,"mean":4394,"metric":4395,"learning":4396,"Ġpop":4397,"analy":4398,"itch":4399,"ategor":4400,"figs":4401,"ĠĠĠĠĠĠĠĠĠĠĠĠĠĠĠĠĠĠĠĠĠĠĠĠĠĠĠĠĠĠĠĠĠĠĠĠĠĠĠ":4402,"lared":4403,"ĠTime":4404,"velo":4405,"()),<$":4406,"ĠClient":4407,"quee":4408,"Ġvocab":4409,"ĠField":4410,"ĠDER":4411,"ĠDSA":4412,"ĠValid":4413,"times":4414,"-----":4415,"acc":4416,"Ġbuil":4417,"charset":4418,"axes":4419,"strict":4420,"cursor":4421,"Ġwheel":4422,"ĠQu":4423,"Ġ''})<$":4424,"Ġpartic":4425,"Ġgenerated":4426,"Ġtraceback":4427,"channels":4428,"(?:":4429,"Ġnecessary":4430,"ibration":4431,".%":4432,"73":4433,"Max":4434,"OUT":4435,"]=":4436,"bn":4437,"cy":4438,"dTuple":4439,"flag":4440,"fwd":4441,"mage":4442,"mix":4443,"qps":4444,"tml":4445,"uation":4446,"wb":4447,"åŃ":4448,"çĶ":4449,"Ġ]":4450,"inner":4451,"reason":4452,"ensed":4453,"depth":4454,"decay":4455,"Ġada":4456,"Ġrelative":4457,"Ġsm":4458,"Ġmapping":4459,"undefined":4460,"getattr":4461,"(\".":4462,"ĠFI":4463,"outer":4464,"ĠPer":4465,"usr":4466,"perly":4467,"Ġmeta":4468,"ORS":4469,"Ġwhat":4470,"Ġprevent":4471,"ildcard":4472,"Encoding":4473,"...<$":4474,"ARY":4475,"Proxy":4476,"ANGE":4477,"Union":4478,"vars":4479,"Ġupload":4480,"events":4481,"Ġoptim":4482,"Ġcompatibility":4483,"Command":4484,"ParseAction":4485,"Iterable":4486,"~~~~":4487,"Backend":4488,"requires":4489,"Update":4490,"ðŁĮķðŁĮķ":4491,"BUG":4492,"ĠNotImplementedError":4493,"(',":4494,"-.":4495,"=-":4496,"Lay":4497,"NF":4498,"Of":4499,"Oper":4500,"POR":4501,"SC":4502,"YEAR":4503,"bs":4504,"gre":4505,"gle":4506,"qa":4507,"åħ":4508,"æł":4509,"ê°":4510,"separ":4511,"requ":4512,"mes":4513,"Ġcap":4514,"Ġpers":4515,"tered":4516,"Ġsolution":4517,"Ġetree":4518,"__,<$":4519,"control":4520,"Ġconstruct":4521,"Ġ14":4522,"tool":4523,"()):<$":4524,"Ġdeprecated":4525,"Ġstyle":4526,"Ġsen":4527,"STAT":4528,"ĠEmpty":4529,"Ġsetting":4530,"comment":4531,"ĠBu":4532,"joint":4533,"Ġextension":4534,"tokenizer":4535,"Ġtokenizer":4536,"Ġvalidate":4537,"Ġperform":4538,"transform":4539,"transfer":4540,"crement":4541,"scriptor":4542,"Ġregistered":4543,"Ġdisabled":4544,"Ġconstraint":4545,"CHAR":4546,"ategy":4547,"Ġmarker":4548,"Ġcookiejar":4549,"Ġclose":4550,"Ġstrip":4551,"CheckBox":4552,"Ġtraining":4553,"resources":4554,"alpha":4555,"Ġannotations":4556,"where":4557,".,":4558,"/<$":4559,"69":4560,"DB":4561,"PTION":4562,"SO":4563,"ULE":4564,"XX":4565,"af":4566,"culate":4567,"dat":4568,"king":4569,"plied":4570,"íķ":4571,"ĠError":4572,"ĠâĸĪâĸĪ":4573,"rec":4574,"Ġfd":4575,"Ġfun":4576,"Ġfunctools":4577,"Ġwsgi":4578,"ria":4579,"Ġtop":4580,"dig":4581,"ĠTra":4582,"ĠText":4583,"endswith":4584,"Ġ_('":4585,"Ġhow":4586,"Res":4587,"ĠSE":4588,"andsha":4589,"stants":4590,"prev":4591,"ensure":4592,"INT":4593,"Ġrequested":4594,"[:]<$":4595,"steps":4596,"Ġnoqa":4597,"ough":4598,"TRY":4599,"Ġcurrently":4600,"AND":4601,"filters":4602,"Ġbased":4603,"temporary":4604,"DIST":4605,"unknown":4606,"vision":4607,"Results":4608,"partial":4609,"Ġserialization":4610,"HeaderDict":4611,"hexlify":4612,"sgiDAV":4613,".*)":4614,"ëĭ¤":4615,"Level":4616,"CLSID":4617,"clusive":4618,"PORTED":4619,"andshake":4620,"->":4621,"/\"<$":4622,"28":4623,"=\"\"":4624,"CLO":4625,"Met":4626,"TA":4627,"_{":4628,"bb":4629,"can":4630,"fc":4631,"gged":4632,"ited":4633,"pb":4634,"rb":4635,"six":4636,"wind":4637,"Ġ}":4638,"secret":4639,"eros":4640,"tection":4641,"Ġ\"'":4642,"cts":4643,"Ġsalt":4644,"raise":4645,"Ġhandl":4646,"(\"--":4647,"Resource":4648,"Ġ11":4649,"()'":4650,"parts":4651,"Ġ%<$":4652,"Ġencode":4653,"icro":4654,"ĠĠĠĠĠĠĠĠĠĠĠĠĠĠĠĠĠĠĠĠĠĠĠĠĠĠĠĠĠĠĠĠĠĠĠĠĠĠĠĠĠĠĠĠĠĠĠ":4655,"Ġalias":4656,"ONE":4657,"ĠURI":4658,"havi":4659,"206":4660,"igned":4661,"IDL":4662,"Expected":4663,"compiler":4664,"Ġapply":4665,"soft":4666,"LOB":4667,"{}\".":4668,"FIRST":4669,"Ġabout":4670,"UND":4671,"Ġworks":4672,"Ġincludes":4673,"annotation":4674,"Ġdependencies":4675,"mpling":4676,"click":4677,"ĠParseException":4678,"Ġnetloc":4679,"ĠIPv":4680,"Ġparticular":4681,")+":4682,"748":4683,"HIN":4684,"VAR":4685,"[[":4686,"bos":4687,"dm":4688,"folder":4689,"gd":4690,"mul":4691,"rsa":4692,"ç»":4693,"Ġcnt":4694,"Ġfl":4695,"Ġfree":4696,"Ġ\")<$":4697,"uess":4698,"lis":4699,"entity":4700,"covery":4701,"___":4702,"rig":4703,"rix":4704,"ĠTh":4705,"ĠTLS":4706,"izes":4707,"olver":4708,"abs":4709,"ĠCode":4710,"Ġragged":4711,"Ġyet":4712,"ĠRetry":4713,"ĠThese":4714,"words":4715,"acter":4716,"accept":4717,"ENCRY":4718,"Ġfilters":4719,"Ġcompute":4720,"Stream":4721,"locals":4722,"Ġtemplates":4723,"Tests":4724,"TestCase":4725,"Ġtransform":4726,"Ġvals":4727,"ranges":4728,"Count":4729,"CharField":4730,"failUnless":4731,"normalize":4732,"Ġ...<$":4733,"ragma":4734,"OKEN":4735,"Ġ-*-<$":4736,"Ġpkg":4737,"voke":4738,"Ġnested":4739,"Signature":4740,"ĠSecurityConst":4741,"æĸĩ":4742,"Serializer":4743,"Ġcorresponding":4744,")*":4745,"Code":4746,"COL":4747,"DD":4748,"HO":4749,"Pool":4750,"]==":4751,"cpu":4752,"ef":4753,"fun":4754,"mime":4755,"çŃ":4756,"reference":4757,"Ġflags":4758,"Ġbasic":4759,"Ġetc":4760,"Ġtheir":4761,"unpack":4762,"\"\"\")<$":4763,"conv":4764,"olume":4765,"aps":4766,"('/":4767,"poses":4768,"too":4769,"()[":4770,"parsed":4771,"ĠSystem":4772,"Ġdecrypt":4773,"Ġrhs":4774,"ordin":4775,"pyright":4776,"ĠOK":4777,"ĠObject":4778,"Ġonce":4779,"Ġlists":4780,"ignment":4781,"READ":4782,"ĠGET":4783,"access":4784,"Exec":4785,"Ġjs":4786,"Ġknown":4787,"methods":4788,"Ġapplication":4789,"Ġ94":4790,"ĠYou":4791,"creen":4792,"Ġtuples":4793,"={}<$":4794,"mplementation":4795,"Ġpackages":4796,"...\")<$":4797,"google":4798,"fully":4799,"Ġexisting":4800,"execute":4801,"deredDict":4802,"ìĿĺ":4803,"spective":4804,"delta":4805,"'*":4806,"25":4807,"Byte":4808,"BIT":4809,"Call":4810,"Core":4811,"From":4812,"OID":4813,"TML":4814,"XT":4815,"You":4816,"]],<$":4817,"car":4818,"dynamic":4819,"squee":4820,"tdi":4821,"yche":4822,"zero":4823,"}'.":4824,"å¯":4825,"å¼":4826,"$>}<$":4827,"integer":4828,"Ġ=================================":4829,"medi":4830,"member":4831,"Ġpd":4832,"Ġput":4833,"Ġpragma":4834,"itor":4835,"itial":4836,"Ġbchr":4837,"loaded":4838,"Ġsite":4839,"Ġ'{":4840,"Ġ'{}":4841,"Ġdtype":4842,"ateway":4843,"Ġwho":4844,"Ġ((":4845,"Ġanimation":4846,"Ġhref":4847,"Ġhistory":4848,"Ġthrow":4849,"assoc":4850,"verage":4851,"Ġdev":4852,"Ġrandfunc":4853,"proof":4854,"ĠPKCS":4855,"ĠDon":4856,"predict":4857,"======":4858,"licked":4859,"artPointer":4860,"Ġwhitespace":4861,"Ġpreprocessing":4862,"ĠRead":4863,"ĠHTML":4864,"Encoder":4865,"posit":4866,"acha":4867,"Ġtransfer":4868,"translation":4869,"ä¸º":4870,"precation":4871,"QUEN":4872,"OFB":4873,"Query":4874,"Logger":4875,"alphas":4876,"required":4877,"Ġinterest":4878,"flatten":4879,"symbols":4880,"ĠDAVError":4881,"Ġauthentication":4882,"Ġarchive":4883,"PublicKey":4884,"Ġincluding":4885,"ĠOneOrMore":4886,"ðŁĮĳðŁĮĳ":4887,"HEADER":4888,"Ġoccur":4889,"ĠSmartPointer":4890,"ycheproof":4891,"Ġ=================================================================":4892,")]":4893,"65":4894,"93":4895,"Actions":4896,"BACK":4897,"DES":4898,"Function":4899,"Impl":4900,"Matches":4901,"OpenSSL":4902,"PS":4903,"Su":4904,"SConnection":4905,"_<$":4906,"cked":4907,"dc":4908,"font":4909,"factor":4910,"js":4911,"pg":4912,"pw":4913,"piece":4914,"same":4915,"sink":4916,"sched":4917,"åĩ":4918,"æĪ":4919,"$>):<$":4920,"lex":4921,"Ġfp":4922,"Ġremaining":4923,"Ġindent":4924,"Ġbl":4925,"Ġboolean":4926,"Ġslice":4927,"elcome":4928,"Ġhtml":4929,"(\",":4930,"(\"-":4931,"('.":4932,"Ġlater":4933,"Ġliteral":4934,"tom":4935,"Ġbehavi":4936,"Ġloaded":4937,"istic":4938,"prob":4939,"ĠPOP":4940,"okeras":4941,"STAR":4942,"addWidget":4943,"Controller":4944,"Ġunit":4945,"ĠResponse":4946,"Ġtimezone":4947,"ĠThere":4948,"img":4949,"ĠBy":4950,"Enum":4951,"nums":4952,"queryset":4953,"OPEN":4954,"Ġinstances":4955,"Ġabsolute":4956,"Ġcached":4957,"pages":4958,"ĠProcess":4959,"Array":4960,"stdout":4961,"ĠDistutils":4962,"Cache":4963,"Ġown":4964,"FROM":4965,"LOBAL":4966,"43":4967,"60":4968,":\"":4969,":{":4970,"AU":4971,"Ali":4972,"Di":4973,"FE":4974,"NE":4975,"Verify":4976,"WA":4977,"amp":4978,"eatures":4979,"kp":4980,"mi":4981,"rin":4982,"supported":4983,"ux":4984,"ç½":4985,"stract":4986,"Ġactions":4987,"Ġamount":4988,"Ġcategory":4989,"Ġclear":4990,"Ġrecent":4991,"Ġpp":4992,"ross":4993,"Ġbox":4994,"asgi":4995,"Ġdry":4996,"Ġdrop":4997,"cogn":4998,"Ġmu":4999,"Ġmon":5000,"uni":5001,"ish":5002,"ves":5003,"ĠSP":5004,"vices":5005,"ĠCHIN":5006,"Ġus":5007,"ĠAN":5008,"typelib":5009,"ĠFeature":5010,"ĠFeed":5011,"ĠPY":5012,"Ġ`-":5013,"Ġseq":5014,"prepare":5015,"Ġitself":5016,"ifiers":5017,"ĠEU":5018,"Ġ.-.":5019,"[:-":5020,"Ġoutputs":5021,"refs":5022,"ARK":5023,"Ġusername":5024,"share":5025,"Ġ80":5026,"TEXT":5027,"LOG":5028,"optim":5029,"Build":5030,"patterns":5031,"Select":5032,"ä¸ª":5033,"Ġchanged":5034,"SUP":5035,"Ġprobably":5036,"ĠComp":5037,"åıĸ":5038,"Ġdistributions":5039,"auss":5040,"Ġstatic":5041,"Password":5042,"cuda":5043,"encrypted":5044,"primitives":5045,"bosity":5046,"ĠCHINESE":5047,"Crypto":5048,"FIN":5049,"It":5050,"Min":5051,"Options":5052,"Queue":5053,"Rule":5054,"Socket":5055,"Usage":5056,"category":5057,"emp":5058,"fs":5059,"gc":5060,"game":5061,"lint":5062,"rnn":5063,"uous":5064,"xl":5065,"äº":5066,"relation":5067,"atter":5068,"Ġtxt":5069,"Ġio":5070,"metrics":5071,"Ġregex":5072,"Ġsw":5073,"Ġ'')<$":5074,"Ġwindow":5075,"Ġwildcard":5076,"configs":5077,"termin":5078,"eds":5079,"(':":5080,"Ġexport":5081,"Ġlon":5082,"parameter":5083,"forward":5084,"ĠUN":5085,"Ġ**`.":5086,"ysis":5087,"undle":5088,"bound":5089,"views":5090,"cessed":5091,"Status":5092,"Ġtrunc":5093,"ixin":5094,"contents":5095,"Ġadditional":5096,"Ġsuffix":5097,"ĠSeaBASS":5098,"ĠHTTPHeaderDict":5099,"Ġpermission":5100,"ferences":5101,"Ġplace":5102,"={'":5103,"evaluate":5104,"specific":5105,"Ġserializer":5106,"crypted":5107,"phase":5108,"ĠArgument":5109,"Ġimg":5110,"Ġxmlrpc":5111,"ffffffff":5112,"ĠDEFAULT":5113,"ticks":5114,"ä»¶":5115,"staticmethod":5116,"constraints":5117,"ĠOnly":5118,"Ġautokeras":5119,"PGP":5120,"QUENCE":5121,"401":5122,"91":5123,"949":5124,"API":5125,"BO":5126,"Clo":5127,"Flow":5128,"Ge":5129,"Mult":5130,"Net":5131,"PU":5132,"Range":5133,"Rho":5134,"So":5135,"_\"":5136,"bind":5137,"bias":5138,"ess":5139,"fd":5140,"mapping":5141,"ni":5142,"uff":5143,"ws":5144,"}{":5145,"Ġæ":5146,"Ġ})<$":5147,"Ġturn":5148,"ster":5149,"standard":5150,"ality":5151,"alog":5152,"heatmap":5153,"arly":5154,"Ġinternal":5155,"Ġband":5156,"Ġschema":5157,"Ġec":5158,"Ġdefine":5159,"dio":5160,"(\"/":5161,"izers":5162,"Requirement":5163,"ĠSQL":5164,"ĠCol":5165,"Ġdecorator":5166,"Ġstorage":5167,"Ġ201":5168,"Ġproperties":5169,"ĠMy":5170,"Ġunique":5171,"ĠWsgiDAV":5172,"collection":5173,"defaults":5174,"cluded":5175,"HASH":5176,"([<$":5177,"pythoncom":5178,"Ġmessages":5179,"Ġ{}'.":5180,"=[]<$":5181,"UNT":5182,"Ġtrailing":5183,"ossible":5184,"ĠDerInteger":5185,"PIDSI":5186,"'+<$":5187,"issues":5188,"NIST":5189,"Entity":5190,"origin":5191,"contains":5192,"Ġoverride":5193,"Ġplatforms":5194,"Ġfigure":5195,"çĶ¨":5196,"pository":5197,"ĠFeedBack":5198,"aussian":5199,"=<$":5200,"CM":5201,"CRE":5202,"CMD":5203,"Del":5204,"Graph":5205,"Hyper":5206,"KDF":5207,"Mapping":5208,"PORT":5209,"QA":5210,"Table":5211,"Tree":5212,"]),":5213,"band":5214,"hi":5215,"high":5216,"ratio":5217,"sim":5218,"ycle":5219,"zen":5220,"eni":5221,"alysis":5222,"Ġau":5223,"Ġfont":5224,"ceil":5225,"Ġemail":5226,"getDataset":5227,"ĠTo":5228,"Ġ_(":5229,"odo":5230,"Retry":5231,"ummy":5232,"Ġ102":5233,"truth":5234,"ĠCA":5235,"Ġcover":5236,"Ġcookies":5237,"ĠĠĠĠĠĠĠĠĠĠĠĠĠĠĠĠĠĠĠĠĠĠĠĠĠĠĠĠĠĠĠĠĠĠĠĠ":5238,"ĠĠĠĠĠĠĠĠĠĠĠĠĠĠĠĠĠĠĠĠĠĠĠĠĠĠĠĠĠĠĠĠĠĠĠĠĠĠĠĠĠĠĠĠĠ":5239,"ĠEV":5240,"oml":5241,"DEN":5242,"tyle":5243,"Ġatt":5244,"registry":5245,"Ġkind":5246,"users":5247,"Ġnote":5248,"short":5249,"Ġcommon":5250,"Ġallows":5251,"FILE":5252,"Ġentity":5253,"Ġabis":5254,"ELD":5255,"CHE":5256,"ASN":5257,"children":5258,"dumps":5259,"192":5260,"Ġclosing":5261,"VERSION":5262,"BASE":5263,"Quote":5264,"Address":5265,"LineEdit":5266,"Whitespace":5267,"Ġê²":5268,"ĠTraceback":5269,"IDLParser":5270,"æĸĩä»¶":5271,"#!":5272,"05":5273,"::":5274,"By":5275,"DSA":5276,"EV":5277,"PC":5278,"Vect":5279,"_)":5280,"lcm":5281,"migrations":5282,"px":5283,"uted":5284,"ugin":5285,"vs":5286,"è®":5287,"Ġser":5288,"ľ¨":5289,"ines":5290,"Ġiv":5291,"Ġcreating":5292,"tep":5293,"tected":5294,"Ġ\"-":5295,"ings":5296,"this":5297,"setParseAction":5298,"',),<$":5299,"Ġhyp":5300,"Ġthose":5301,"Ġdecoded":5302,"Ġdetect":5303,"ĠPath":5304,"ĠDis":5305,"loads":5306,"Ġpreserve":5307,"INARY":5308,"ĠBlock":5309,"ĠGE":5310,"Ġclasses":5311,"ĠIndex":5312,"rained":5313,"outputs":5314,"aria":5315,"160":5316,"Ġactive":5317,"Ġaccount":5318,"Ġfilenames":5319,"POL":5320,"Ġiterations":5321,"Ġ-->":5322,"LIC":5323,"Returns":5324,"Ġ1000":5325,"Ġdocumentation":5326,"editable":5327,"Ġtraj":5328,"atched":5329,"embeddings":5330,"Ġasyncio":5331,"Ġexplicitly":5332,"declared":5333,"Ġappro":5334,"multipart":5335,"ĠPEP":5336,"seconds":5337,"expire":5338,"ĠValidationError":5339,"SUPPORTED":5340,"\"'":5341,")(":5342,")),":5343,"><":5344,">>":5345,">\\":5346,"CAL":5347,"Language":5348,"PrivateKey":5349,"Run":5350,"TOP":5351,"]['":5352,"efficient":5353,"hint":5354,"hidden":5355,"ire":5356,"just":5357,"ole":5358,"slice":5359,"å½":5360,"Ġ~":5361,"Ġ).":5362,"segment":5363,"Ġabo":5364,"help":5365,"Ġcv":5366,"Ġflat":5367,"Ġfactory":5368,"Ġpayload":5369,"Ġsimp":5370,"Ġ'<":5371,"Ġduring":5372,"Ġwave":5373,"Ġ({":5374,"uler":5375,"ulation":5376,"Ġforward":5377,"ismatch":5378,"intypes":5379,"uppress":5380,"Ġ\"\"\")<$":5381,"(\"%":5382,"pose":5383,"paragraphs":5384,"Ġbegin":5385,"ĠID":5386,"ĠImage":5387,"ĠAs":5388,"Ġcopied":5389,"may":5390,"ĠPoly":5391,"Ġsecret":5392,"ches":5393,"assertAll":5394,"inity":5395,"ĠLog":5396,"trie":5397,"area":5398,"scale":5399,"ytesIO":5400,"enshot":5401,"ived":5402,"Ġunquote":5403,"ĠRemove":5404,"ADDR":5405,"ĠGiven":5406,"book":5407,"ENG":5408,"dav":5409,"Ġneg":5410,"authentic":5411,"Ġcalls":5412,"ðŁĮĵ":5413,"Ġready":5414,"Ġcontents":5415,"Ġinterp":5416,"solver":5417,"traj":5418,"offsets":5419,"multiple":5420,"sym":5421,"cases":5422,"Ġrout":5423,"Argument":5424,"autoescape":5425,"Color":5426,"epochs":5427,"ĠDatabase":5428,"Ġimplicit":5429,"tokdict":5430,"LINE":5431,"ĠSEQUENCE":5432,"Ġabove":5433,"assertAllEqual":5434,"'\"":5435,".)<$":5436,"=',":5437,"DT":5438,"Empty":5439,"Man":5440,"Mark":5441,"PKCS":5442,"RSA":5443,"Th":5444,"](":5445,"_%":5446,"_[":5447,"bbox":5448,"credential":5449,"driver":5450,"gid":5451,"ghash":5452,"ially":5453,"kdf":5454,"plit":5455,"rd":5456,"scope":5457,"xB":5458,"}_":5459,"åĽ":5460,"ining":5461,"installed":5462,"det":5463,"hecked":5464,"Ġcs":5465,"Ġfh":5466,"Ġremo":5467,"Ġpur":5468,"Ġ'-":5469,"Ġdispid":5470,"lish":5471,"fill":5472,"cour":5473,"complete":5474,"__),":5475,"chacha":5476,"keychain":5477,"cons":5478,"parsing":5479,"Ġdecryption":5480,"Ġraised":5481,"Ġenc":5482,"ĠLe":5483,"ĠĠĠĠĠĠĠĠĠĠĠĠĠĠĠĠĠĠĠĠĠĠĠĠĠĠĠĠĠĠĠĠĠĠĠĠĠĠĠĠĠĠĠĠ":5484,"ĠĠĠĠĠĠĠĠĠĠĠĠĠĠĠĠĠĠĠĠĠĠĠĠĠĠĠĠĠĠĠĠĠĠĠĠĠĠ":5485,"indent":5486,"Ġunhexlify":5487,"ĠUTF":5488,"strings":5489,"mplex":5490,"ĠHe":5491,"ĠGtk":5492,"Ġless":5493,"region":5494,"Property":5495,"Ġmaximum":5496,"âĸĵ":5497,"LED":5498,"ndarray":5499,"errmsg":5500,"ANT":5501,"sources":5502,"transition":5503,"modulus":5504,"clsid":5505,"Ġmodulus":5506,"Ġupper":5507,"404":5508,"AppName":5509,"releases":5510,"SURE":5511,"Ġqs":5512,"QUEST":5513,"Ġstride":5514,"generate":5515,"Ġfails":5516,"ĠEnvironment":5517,"////////":5518,"rules":5519,"tzinfo":5520,"Ġattempt":5521,"MODULE":5522,"ĠDictionary":5523,"Operation":5524,"CLOSURE":5525,"riginal":5526,"ç½®":5527,"!\")<$":5528,"'ll":5529,"(\"\"":5530,".\".":5531,"67":5532,"IF":5533,"LT":5534,"LU":5535,"MI":5536,"Mixin":5537,"RFC":5538,"Stop":5539,"bord":5540,"fa":5541,"gz":5542,"rected":5543,"remote":5544,"ength":5545,"Ġfore":5546,"Ġremote":5547,"look":5548,"Ġsha":5549,"Ġshell":5550,"Ġeas":5551,"Ġeffect":5552,"Ġdot":5553,"ĠĠĠĠĠĠĠĠĠĠĠĠĠĠĠĠĠĠĠĠĠĠĠĠĠĠ":5554,"gether":5555,"sets":5556,"Reference":5557,"abi":5558,"Ġlst":5559,"formed":5560,"aming":5561,"ĠCON":5562,"Ġ:**":5563,"Ġrate":5564,"codes":5565,"ĠDIS":5566,"urlfetch":5567,"etf":5568,"Ġfileobj":5569,"ONG":5570,"2021":5571,"Ġarea":5572,"ĠBSD":5573,"acle":5574,"single":5575,"Ġjinja":5576,"Ġkeras":5577,"NamedTuple":5578,"Ġresponses":5579,"Ġcollection":5580,"rowser":5581,"shared":5582,"Decode":5583,"ANCE":5584,"connections":5585,"))),<$":5586,"sumed":5587,"suffix":5588,"Ġmakes":5589,"INGS":5590,"Comp":5591,"Ġregion":5592,"disabled":5593,"cording":5594,"ĠJinja":5595,"Ġprime":5596,"Ġfinalize":5597,"Ġë°":5598,"Ġrenderer":5599,"COMMENT":5600,"ĠmacOS":5601,"ĠGeneral":5602,"Authentic":5603,"permissions":5604,"Ġboard":5605,"sensitive":5606,"requirements":5607,"ĠUnsupportedAlgorithm":5608,"LAGS":5609,"ĠQuery":5610,"STATUS":5611,"uniform":5612,")).":5613,".'":5614,">'":5615,"></":5616,"DJ":5617,"DARK":5618,"GLOBAL":5619,"Items":5620,"MB":5621,"PA":5622,"PES":5623,"System":5624,"UST":5625,"WW":5626,"_=":5627,"ags":5628,"em":5629,"ience":5630,"iases":5631,"ietf":5632,"pip":5633,"pub":5634,"tw":5635,"xx":5636,"Ð¾":5637,"å°":5638,"ìŀ":5639,"Ġ])<$":5640,"see":5641,"eric":5642,"storage":5643,"alk":5644,"rozen":5645,"Ġnull":5646,"utor":5647,"Ġescape":5648,"Ġ##":5649,"Ġ'--":5650,"Ġds":5651,"Ġdt":5652,"Ġdat":5653,"adi":5654,"Ġmat":5655,"raises":5656,"ider":5657,"getitem":5658,"ely":5659,"ĠToken":5660,"ĠTOKEN":5661,"constant":5662,"aping":5663,"Ġexpi":5664,"Ġlhs":5665,"Ġ-=":5666,"trust":5667,"tolist":5668,"allback":5669,"ĠStep":5670,"ĠCore":5671,"Ġdesi":5672,"0001":5673,"ĠFtdi":5674,"Ġgive":5675,"Ġmajor":5676,"ĠMIT":5677,"ĠOriginal":5678,"Ġchat":5679,"Internal":5680,"latest":5681,"rong":5682,"Ġwere":5683,"formatter":5684,"ĠWin":5685,"ĠHo":5686,"Ġlogin":5687,"Ġhex":5688,"Ġhelper":5689,"Ġdists":5690,"Ġcompile":5691,"Ġapps":5692,"LECT":5693,"Ġcreates":5694,"ðŁĮĶ":5695,"ðŁĮĸ":5696,"Ġcomm":5697,"ACE":5698,"Ġpygame":5699,"Ġsuite":5700,"groups":5701,"Ġcurve":5702,"stats":5703,"Ġ2009":5704,"Ġtermin":5705,"Ġdestination":5706,"Collection":5707,"Ġprocessing":5708,"Foundation":5709,"Ġargparse":5710,"({'":5711,"åĪĹ":5712,"ragged":5713,"ĠState":5714,"Ġintegers":5715,"reshold":5716,"****************":5717,"symbol":5718,"SubElement":5719,"ðĿĲ":5720,"COUNT":5721,"Ġhappen":5722,"ĠServer":5723,"Ġsmall":5724,"Ġperson":5725,"mediate":5726,"START":5727,"ĠCoreFoundation":5728,"Ġdesired":5729,"'{":5730,"83":5731,"89":5732,"BAD":5733,"Cannot":5734,"DS":5735,"Doc":5736,"DAL":5737,"Menu":5738,"NING":5739,"ROP":5740,"Wrap":5741,"br":5742,"ble":5743,"cing":5744,"crl":5745,"hing":5746,"kind":5747,"lb":5748,"mk":5749,"ustr":5750,"xb":5751,"}'":5752,"}\\":5753,"ä¼":5754,"ìķ":5755,"Ġ50":5756,"Ġuri":5757,"Ġlibraries":5758,"atial":5759,"erast":5760,"Ġip":5761,"alg":5762,"hel":5763,"Ġcredential":5764,"Ġpat":5765,"Ġpow":5766,"Ġpub":5767,"Ġ\"*":5768,"Ġ\"**":5769,"Ġ\"..":5770,"Ġ\"{}":5771,"ital":5772,"Ġsk":5773,"Ġside":5774,"Ġdue":5775,"Ġdispatch":5776,"Ġwor":5777,"cos":5778,"__',":5779,"Ġ()<$":5780,"intain":5781,"Ġanother":5782,"directed":5783,"ĠTake":5784,"Ġcontrib":5785,"Ġconcat":5786,"()``":5787,"ĠCal":5788,"Ġdetermine":5789,"perm":5790,"Ġsec":5791,"Ġ256":5792,"$>#:":5793,"Ġproduct":5794,"ATION":5795,"Ġmaking":5796,"ĠOption":5797,"ĠVAR":5798,"inder":5799,"Ġweb":5800,"Ġarr":5801,"Keep":5802,"='',":5803,"REMO":5804,"Ġsupplied":5805,"acters":5806,"Enter":5807,"Environment":5808,"agged":5809,"Ġ|_|":5810,"Types":5811,"configuration":5812,"begin":5813,"Ġ512":5814,"Ġchecking":5815,"ĠSelect":5816,"ness":5817,"Ġinterpreter":5818,"RITE":5819,"Ġminor":5820,"month":5821,"trace":5822,"LSM":5823,"Application":5824,"global":5825,"Ġmanager":5826,"TYPES":5827,"ĠCopyright":5828,"Ġvars":5829,"--------------------------------":5830,"ĠNOTE":5831,"Ġwords":5832,"Keywords":5833,"Ġboundary":5834,"ðĿĹ":5835,"Attr":5836,"Ġsimilar":5837,"Ġmirror":5838,"Distribution":5839,"ategorical":5840,"Ġhandling":5841,"gdal":5842,"å¯¹":5843,"ĠEVENT":5844,"#!/":5845,"ĠGEOS":5846,"erastuner":5847,"'^":5848,"/<":5849,"1123":5850,"27":5851,"44":5852,":.":5853,":\")<$":5854,"As":5855,"And":5856,"Django":5857,"Flag":5858,"HMAC":5859,"ITH":5860,"Loc":5861,"OT":5862,"Sa":5863,"TINGS":5864,"`\")<$":5865,"echo":5866,"lhs":5867,"qop":5868,"ral":5869,"tty":5870,"vocation":5871,"}</":5872,"ëĤ":5873,"ĠÐ":5874,"inf":5875,"atype":5876,"orrection":5877,"depend":5878,"describe":5879,"mem":5880,"arted":5881,"Ġrequire":5882,"Ġreversed":5883,"Ġnative":5884,"geom":5885,"Ġinventory":5886,"utors":5887,"lots":5888,"Ġequal":5889,"Ġequi":5890,"Ġdc":5891,"vals":5892,"valent":5893,"setName":5894,"Ġhidden":5895,"Ġexact":5896,"().<$":5897,"virt":5898,"ĠCRC":5899,"ĠAB":5900,"ĠAt":5901,"Ġ{!":5902,"example":5903,"Ġgp":5904,"Ġgen":5905,"Ġproduce":5906,"Ġmedia":5907,"pointQ":5908,"ORANGE":5909,"ĠVariable":5910,"']:<$":5911,"Condition":5912,"commit":5913,"ĠReg":5914,"imer":5915,"redis":5916,"ĠdoActions":5917,"Ġattention":5918,"Ġlegacy":5919,"\"].":5920,"Export":5921,"Expression":5922,"Ġks":5923,"ĠRa":5924,"Ġextranet":5925,"1024":5926,"Ġnegative":5927,"Ġbackground":5928,"ftdi":5929,"Ġcause":5930,"shift":5931,"ieces":5932,"trained":5933,"Ġiterator":5934,"Ġmodules":5935,"running":5936,"Ġpartial":5937,"Force":5938,"created":5939,"wrapped":5940,"pache":5941,"ĠXML":5942,"Ġadded":5943,"correct":5944,"ĠParameters":5945,"globals":5946,"php":5947,"going":5948,"Ġlinks":5949,"Ġprior":5950,"operations":5951,"ĠNOQA":5952,"serializer":5953,"finalize":5954,"ĠstopOn":5955,"vector":5956,"Ġbinary":5957,"Regexp":5958,"voked":5959,"ĠOSError":5960,"aesni":5961,"solutions":5962,"websocket":5963,"pipeline":5964,"Reasons":5965,"Callable":5966,"å®ļ":5967,"Hello":5968,"Layout":5969,"ĠBuild":5970,"=======<$":5971,"Ġinterested":5972,"Ġ========================================================================<$":5973,"Ġbehavior":5974,"Delta":5975,"Ġcontributors":5976,"-<$":5977,"33":5978,"53":5979,"84":5980,"=[\"":5981,"BRE":5982,"Can":5983,"EC":5984,"Host":5985,"Lib":5986,"License":5987,"OGR":5988,"Qual":5989,"Ragged":5990,"Write":5991,"aut":5992,"bf":5993,"bad":5994,"cision":5995,"dropout":5996,"dtableWidget":5997,"ftime":5998,"follow":5999,"ik":6000,"nlp":6001,"poly":6002,"png":6003,"qdm":6004,"wintypes":6005,"zeros":6006,"æĮ":6007,"æį":6008,"Ġlayout":6009,"require":6010,"seless":6011,"media":6012,"Ġflow":6013,"Ġreport":6014,"Ġph":6015,"Ġpmt":6016,"Ġplot":6017,"itu":6018,"Ġbio":6019,"Ġegg":6020,"Ġdp":6021,"licts":6022,"Ġwell":6023,"direction":6024,"ĠTry":6025,"Ġhard":6026,"Ġhyper":6027,"Ġexclude":6028,"Ġlr":6029,"Ġ[(":6030,"ĠSocket":6031,"ĠAc":6032,"Ġsection":6033,"inition":6034,"ĠMUST":6035,"ĠOF":6036,"Ġalgo":6037,"Conv":6038,"Ġunsigned":6039,"readonly":6040,"RECT":6041,"ĠGe":6042,"127":6043,"Ġknow":6044,"ETE":6045,"Ġcomponent":6046,"Process":6047,"Ġhttplib":6048,"FilePath":6049,"DataFrame":6050,"funcs":6051,"openusb":6052,"Ġbutton":6053,"checkpoint":6054,"utes":6055,"Ġpositive":6056,"Channel":6057,"Ġlive":6058,"Ġtransaction":6059,"Ġcases":6060,"ELP":6061,"Ġworking":6062,"exprs":6063,"menu":6064,"Ġdownloads":6065,"Ġorigin":6066,"Ġstrict":6067,"({<$":6068,"anking":6069,"ĠAppConfig":6070,"Extension":6071,"Ġrequirements":6072,"Ġindic":6073,"Ġeverything":6074,"Descri":6075,"ĠPEM":6076,"ĠMessage":6077,"Ġlarge":6078,"products":6079,"ANGO":6080,"ĠZero":6081,"uplicate":6082,"ê°Ģ":6083,"requency":6084,"Metadata":6085,"åĩº":6086,"EVP":6087,"symmetric":6088,"'''<$":6089,")'":6090,")'<$":6091,"*\\":6092,"29":6093,"546":6094,"<=":6095,"Ac":6096,"Bar":6097,"DSI":6098,"Eval":6099,"IR":6100,"SN":6101,"Sig":6102,"TENT":6103,"Toml":6104,"ever":6105,"micro":6106,"sorted":6107,"shell":6108,"tb":6109,"tab":6110,"uv":6111,"xe":6112,"xis":6113,"ä¿":6114,"æĺ":6115,"Ġ))<$":6116,"sections":6117,"Ġtqdm":6118,"enum":6119,"enses":6120,"Ġaria":6121,"Ġffi":6122,"Ġrepository":6123,"roperly":6124,"Ġinside":6125,"Ġbus":6126,"Ġsur":6127,"Ġspe":6128,"Ġsimple":6129,"Ġdid":6130,"light":6131,"Ġwarn":6132,"fips":6133,"peer":6134,"ones":6135,"ulong":6136,"ilder":6137,"strategy":6138,"strftime":6139,"dims":6140,"setText":6141,"Ġcond":6142,"edy":6143,"ĠSome":6144,"ĠStop":6145,"ĠCan":6146,"ĠCert":6147,"bus":6148,"proto":6149,"lying":6150,"octe":6151,"Ġgraph":6152,"icensed":6153,"ĠLicensed":6154,"Ġdirection":6155,"opens":6156,"licenses":6157,"home":6158,"sizeof":6159,"Ġsets":6160,"Ġundefined":6161,"Ġunknown":6162,"ĠRequirement":6163,"locity":6164,"ĠBINARY":6165,"REQUEST":6166,"mbers":6167,"activ":6168,"ĠInstall":6169,"mlink":6170,"places":6171,"hashes":6172,"Ġappname":6173,"Files":6174,"Ġcast":6175,"csrf":6176,"Ġactivation":6177,"ĠConnection":6178,"Ġaccording":6179,"Ġcalling":6180,"Ġcomment":6181,"cached":6182,"Ġvery":6183,"neg":6184,"translate":6185,"visor":6186,"visual":6187,"Configured":6188,"ploy":6189,"Ġignored":6190,"Ġneeds":6191,"186":6192,"ĠXXX":6193,"00000000":6194,"ï¼ļ":6195,"priate":6196,"Method":6197,"Ġterms":6198,"grade":6199,"grams":6200,"Ġsentinel":6201,"Elements":6202,"normalization":6203,"escaping":6204,"operator":6205,"plural":6206,"while":6207,"whitespace":6208,"åĪĨ":6209,"generated":6210,"PIDDSI":6211,"Ġresolved":6212,"Ġavoids":6213,"ILD":6214,"SETTINGS":6215,"Ġannotation":6216,"wheel":6217,"ĠTemplateNotFound":6218,"Ġepochs":6219,"Ġagainst":6220,"SERVER":6221,"WebIDLParser":6222,"Ġpair":6223,"ĠImproperly":6224,"structed":6225,"Ġsensor":6226,"sqrt":6227,"ĠTimeout":6228,"velop":6229,"åŃĹ":6230,"precationWarning":6231,"AUTH":6232,"Ġ1024":6233,"âĸĵâĸĵ":6234,"borders":6235,"DJANGO":6236,"Ġequivalent":6237,"ĠABNF":6238,"RaggedTensor":6239,"ĠCertificate":6240,"opensource":6241,"ĠImproperlyConfigured":6242,".',<$":6243,"79":6244,"AIN":6245,"Cur":6246,"Imp":6247,"JSON":6248,"LM":6249,"New":6250,"OME":6251,"One":6252,"Plot":6253,"Style":6254,"URI":6255,"We":6256,"WRITE":6257,"clicked":6258,"dr":6259,"eager":6260,"false":6261,"fmt":6262,"hmac":6263,"implementation":6264,"kb":6265,"kl":6266,"lgdal":6267,"qs":6268,"variant":6269,"xF":6270,"¾ç½®":6271,"æĹ":6272,"çķ":6273,"è½":6274,"éĢ":6275,"Ġserve":6276,"reversed":6277,"eries":6278,"Ġtlist":6279,"enable":6280,"deli":6281,"delim":6282,"Ġfill":6283,"Ġfeature":6284,"Ġrespon":6285,"Ġpad":6286,"Ġ\"&":6287,"Ġngettext":6288,"Ġbro":6289,"Ġbias":6290,"loor":6291,"Ġ'*":6292,"Ġ'',<$":6293,"ently":6294,"Ġws":6295,"Ġmerge":6296,"elf":6297,"ssh":6298,"endor":6299,"Ġnothing":6300,"Ġhigh":6301,"Remove":6302,"Ġexit":6303,"()]<$":6304,"ĠSign":6305,"ĠSuppress":6306,"ĠIO":6307,"Ġdepth":6308,"matrix":6309,"001":6310,"ĠPlease":6311,"ĠDoc":6312,"ĠDec":6313,"Ġseen":6314,"Ġmember":6315,"ĠLanguage":6316,"Ġ___":6317,"resume":6318,"ĠMac":6319,"ĠMigration":6320,"ĠVerify":6321,"'][":6322,"Ġprecision":6323,"ĠWend":6324,"META":6325,"ĠBack":6326,"Encode":6327,"ENUM":6328,"ĠInput":6329,"Ġresolver":6330,"Ġ400":6331,"Ġnumbers":6332,"Ġchars":6333,"tokenize":6334,"\")).":6335,"SSLError":6336,"Ġformatter":6337,"ðŁĮĴ":6338,"ðŁĮĺ":6339,"available":6340,"document":6341,"Ġdirectly":6342,"Ġitertools":6343,"suer":6344,"Ġ90":6345,"ĠWei":6346,"DITION":6347,"DIGE":6348,"=[<$":6349,"RIPT":6350,"saved":6351,"Chars":6352,"pkl":6353,"paste":6354,"AppConfig":6355,"Ġchanges":6356,"threads":6357,"Ġ2005":6358,"Comment":6359,"Column":6360,"Ġreplaced":6361,"functional":6362,"Ġtaken":6363,"Ġevaluate":6364,"ignoreExpr":6365,"TIMEOUT":6366,"hooks":6367,"âķ²":6368,"Ġkwarg":6369,"Ġstdout":6370,"Transform":6371,"flush":6372,"patial":6373,"åº¦":6374,"æłĩ":6375,"ordinate":6376,"uffle":6377,"Ġappropriate":6378,"DIGEST":6379,",),":6380,"272":6381,"3128":6382,"47":6383,"Ada":6384,"Auto":6385,"DX":6386,"Div":6387,"Lt":6388,"NS":6389,"OCB":6390,"Sc":6391,"Tr":6392,"UR":6393,"VT":6394,"\\\"":6395,"_.":6396,"cbc":6397,"draw":6398,"fac":6399,"lli":6400,"pdf":6401,"rand":6402,"salt":6403,"tx":6404,"}'<$":6405,"¦Ĥ":6406,"å¦Ĥ":6407,"çĻ":6408,"éĻ":6409,"ìł":6410,"Ġ:<$":6411,"eral":6412,"stamp":6413,"Ġaround":6414,"ars":6415,"Ġfalse":6416,"Ġfav":6417,"cepted":6418,"Ġnor":6419,"Ġinsert":6420,"Ġifmatch":6421,"Ġ'',":6422,"Ġday":6423,"ĠdsaObj":6424,"defused":6425,"pet":6426,"racle":6427,"Ġ(%":6428,"Ġforms":6429,"Ġanc":6430,"named":6431,"ĠTrans":6432,"vec":6433,"sport":6434,"Ġcontroller":6435,"Record":6436,"pools":6437,"amt":6438,"ĠIMP":6439,"ĠCP":6440,"istatus":6441,"Ġdesc":6442,"Ġdecoding":6443,"Ġvariant":6444,"ĠAuth":6445,"Ġparagraphs":6446,"002":6447,"ĠPool":6448,"ĠPrivateKey":6449,"Ġ202":6450,"Ġdirs":6451,"ĠMart":6452,"addinfo":6453,"Ġoutlen":6454,"readline":6455,"207":6456,"``<$":6457,"ĠRemoved":6458,"ĠBU":6459,"DEBUG":6460,"reds":6461,"ivers":6462,"ecb":6463,"acct":6464,"acquire":6465,"agent":6466,"Ġlearning":6467,"ibly":6468,"Ġshift":6469,"Ġ\\*\\":6470,"FileServer":6471,"mainwin":6472,"Database":6473,"Ġtimeouts":6474,"Ġ800":6475,"Ġactiv":6476,"ĠConvert":6477,"Ġacc":6478,"errSSL":6479,"aking":6480,"Ġanything":6481,"aving":6482,"Ġsuc":6483,"subprocess":6484,"Change":6485,"DIRECT":6486,"Ġencodings":6487,"Ġ'''":6488,"LIST":6489,"ccessKey":6490,"Ġ127":6491,"binop":6492,"discovery":6493,"Ġcommands":6494,"Ġplaintexts":6495,"Ġgroups":6496,"HEBRE":6497,"ĠPyFileServer":6498,"Ġclosed":6499,"netloc":6500,"network":6501,"ĠDerSequence":6502,"Ġkeccak":6503,"ĠNOT":6504,"Iterator":6505,"ItemImport":6506,"Ġgood":6507,"NIRC":6508,"toklist":6509,"ëĭĪ":6510,"Number":6511,"ĠChun":6512,"Ġpem":6513,"Entry":6514,"HashAlgorithm":6515,"Ġprediction":6516,"expanduser":6517,"ĠOrderedDict":6518,"ĠHttpResponse":6519,"Ġsymbols":6520,"digits":6521,"DISTANCE":6522,"BITS":6523,"squeeze":6524,"cognized":6525,"Ġtruncate":6526,"ĠIndexError":6527,"å½ķ":6528,"Ġremoving":6529,"virtual":6530,"delitem":6531,"ĠWendt":6532,"ĠMartin":6533,"Ġ\\*\\*":6534,"HEBREW":6535,"((\"":6536,"/',":6537,":',":6538,">=":6539,"Fail":6540,"NU":6541,"SB":6542,"UID":6543,"Using":6544,"Util":6545,"Ver":6546,"WN":6547,"YES":6548,"]\",":6549,"ays":6550,"cid":6551,"dense":6552,"lst":6553,"oom":6554,"push":6555,"rhs":6556,"simple":6557,"srid":6558,"vp":6559,"writer":6560,"welcome":6561,"à·":6562,"inct":6563,"reat":6564,"recursive":6565,"onical":6566,"delay":6567,"heses":6568,"Ġcatch":6569,"leton":6570,"Ġfit":6571,"cel":6572,"geo":6573,"uting":6574,"Ġscope":6575,"Ġscores":6576,"Ġsila":6577,"asn":6578,"Ġoid":6579,"Ġdig":6580,"Ġdropout":6581,"keep":6582,"keleton":6583,"__[":6584,"diction":6585,"uper":6586,"concat":6587,"olated":6588,"Redirect":6589,"Resolver":6590,"Ġimportant":6591,"()`":6592,"ĠSO":6593,"Ġdescriptor":6594,"ĠFilter":6595,"ette":6596,"Ġraises":6597,"found":6598,"Ġprotection":6599,"ĠLast":6600,"ĠLIC":6601,"Ġmade":6602,"__(**":6603,"ĠEach":6604,"ĠUp":6605,"ials":6606,"ĠWith":6607,"Ġbyref":6608,"until":6609,"Ġsoftware":6610,"ENSE":6611,"Ġlex":6612,"Ġleave":6613,"ĠInitial":6614,":`~":6615,"Ġfiltered":6616,"Ġcompare":6617,"ĠRandom":6618,"ĉĉĉ":6619,"Protocol":6620,"Ġspecifier":6621,"interval":6622,"interpreter":6623,"Ġshared":6624,"andlers":6625,"Ġones":6626,"ðŁĮĹ":6627,"Ġcomments":6628,"Ġpyparsing":6629,"curity":6630,"{}'.":6631,"LIGHT":6632,"RIGHT":6633,"MODEL":6634,"Ġgenerator":6635,"Ġdiscar":6636,"Ġinitializer":6637,"SUB":6638,"Ġhandled":6639,"Ġpatterns":6640,"riting":6641,"stdlib":6642,"Ġpoints":6643,"Secret":6644,"decimal":6645,"Ġindices":6646,"finite":6647,"FFFFFF":6648,"databases":6649,"Ġchoices":6650,"Ġrepresentation":6651,"ãĢĤ<$":6652,"hyperparameters":6653,"Ġconsider":6654,"Modified":6655,"Ġselected":6656,"adapter":6657,"Ġblank":6658,"ĠSPDX":6659,"Ġwildcards":6660,"Manager":6661,"ĠBUILD":6662,"ëĭĪëĭ¤":6663,"ĠLICENSE":6664,"41":6665,"42":6666,"603":6667,"95":6668,":\",":6669,":])<$":6670,"Cho":6671,"Dir":6672,"DNN":6673,"Final":6674,"HI":6675,"IANT":6676,"Location":6677,"Option":6678,"RPC":6679,"VI":6680,"Variant":6681,"Win":6682,"WSGI":6683,"cdata":6684,"cwd":6685,"fk":6686,"got":6687,"nest":6688,"olean":6689,"pure":6690,"pha":6691,"sila":6692,"¡ľ":6693,"ä½":6694,"æİ":6695,"æĿ":6696,"è¡":6697,"Ġ?":6698,"Ġí":6699,"ĩå®ļ":6700,"alve":6701,"alette":6702,"deploy":6703,"lems":6704,"Ġreduce":6705,"Ġ\"<":6706,"Ġbad":6707,"Ġbind":6708,"Ġ'\"":6709,"Ġdf":6710,"__\",<$":6711,"\"\".":6712,"idna":6713,"cks":6714,"strument":6715,"lause":6716,"setting":6717,"(\"'":6718,"(\"`":6719,"Ġexpect":6720,"verified":6721,"ĠSH":6722,"Ġdevices":6723,"ĠFound":6724,"Ġ27":6725,"extras":6726,"ĠMon":6727,"ĠMult":6728,"ĠĠĠĠĠĠĠĠĠĠĠĠĠĠĠĠĠĠĠĠĠĠĠĠĠĠĠĠĠĠĠĠĠĠĠĠĠĠĠĠĠĠ":6729,"indy":6730,"moon":6731,"Ġfilepath":6732,"comma":6733,"rectory":6734,"ADD":6735,"cols":6736,"actual":6737,"ferer":6738,"uncated":6739,"boolean":6740,"IDDEN":6741,"logical":6742,"splitlines":6743,"TypeInfo":6744,"ĠRadio":6745,"writeLog":6746,"iteritems":6747,"Prod":6748,"âĸĶ":6749,"renderer":6750,"cesses":6751,"Ġpointer":6752,"Debug":6753,"Ġsubpath":6754,"Ġreading":6755,"Ġiteritems":6756,"Ġ{})<$":6757,"Ġopening":6758,"Angle":6759,"Ġcalculate":6760,"Ġentries":6761,"Ġabort":6762,"Ġsigner":6763,"Policy":6764,"igrate":6765,"Could":6766,"Ġunderlying":6767,"tract":6768,"ancel":6769,"Ġscal":6770,"cents":6771,"ĠFormat":6772,"Ġexpand":6773,"âĶģ":6774,"Ġprovides":6775,"Ġcompatible":6776,"Ġautoescaping":6777,"Ġprimary":6778,"Ġexprs":6779,"sequences":6780,"ATED":6781,"plus":6782,"Ġkeywords":6783,"Ġobtain":6784,"HTML":6785,"Only":6786,"Author":6787,"unittest":6788,"Ġstacklevel":6789,"Ġè®":6790,"CUR":6791,"interfaces":6792,"ReasonFlags":6793,"tranet":6794,"ENCRYPT":6795,"ĠProcessL":6796,"Ġmuch":6797,"attery":6798,"Ġlonger":6799,"ĠArguments":6800,"QuoteChar":6801,"writeLogFile":6802,"(['":6803,")/":6804,")\")<$":6805,")])<$":6806,".'),<$":6807,"/{}":6808,"364":6809,"HELP":6810,"IM":6811,"NUM":6812,"Other":6813,"Radio":6814,"TS":6815,"Try":6816,"TAG":6817,"Vis":6818,"WAR":6819,"Windows":6820,"`\\<$":6821,"aff":6822,"creds":6823,"dn":6824,"done":6825,"drop":6826,"equal":6827,"gres":6828,"handlers":6829,"mis":6830,"nist":6831,"pf":6832,"patch":6833,"uated":6834,"wave":6835,"å¾":6836,"Ġ._":6837,"Ĥ¨":6838,"seed":6839,"inst":6840,"inator":6841,"record":6842,"readed":6843,"alph":6844,"Ġcf":6845,"Ġcar":6846,"Ġfuture":6847,"Ġreload":6848,"Ġpen":6849,"roll":6850,"Ġintern":6851,"utc":6852,"Ġbord":6853,"Ġscreen":6854,"Ġwind":6855,"Ġmer":6856,"Ġmenu":6857,"keh":6858,"oting":6859,"__':<$":6860,"Ġ(-":6861,"isdir":6862,"ilon":6863,"Ġansw":6864,"lake":6865,"(\"_":6866,"Ġconside":6867,"quoted":6868,"assist":6869,"Ġ18":6870,"()]":6871,"Ġ[],<$":6872,"ĠIs":6873,"Ġorg":6874,"andbox":6875,"listdir":6876,"Ġdesign":6877,"ĠAd":6878,"ĠAll":6879,"###<$":6880,"major":6881,"ĠPUT":6882,"Ġgt":6883,"Ġprospective":6884,"Ġenough":6885,"Ġgetfloat":6886,"ERT":6887,"Ġalpha":6888,"ĠEnd":6889,"ĠECB":6890,"Ġpretty":6891,"formats":6892,").\"\"\"<$":6893,"omic":6894,"Ġtimes":6895,"locations":6896,"ĠBe":6897,"ĠBut":6898,"ĠHandle":6899,"redu":6900,"REF":6901,"Encryption":6902,"Ġintf":6903,"linear":6904,"dden":6905,"compress":6906,"compute":6907,"Ġchardet":6908,"double":6909,"mitted":6910,"velength":6911,"trainable":6912,"Ġstarts":6913,"Ġstarting":6914,"indexes":6915,"Ġspan":6916,"Builder":6917,"sentinel":6918,"negative":6919,"SELECT":6920,"DISP":6921,"LIB":6922,"ĠKeyboard":6923,"Ġextracted":6924,"Ġsigned":6925,"CONTENT":6926,"Ġerrno":6927,"CharSet":6928,"GEX":6929,"7777":6930,"ä¸Ģ":6931,"572":6932,"ferred":6933,"Ġ'.'<$":6934,"disable":6935,"precision":6936,"summary":6937,"Ġrot":6938,"QUARE":6939,"CTRL":6940,"duction":6941,"functions":6942,"Interrupt":6943,"choice":6944,"venience":6945,"ĠKeras":6946,"Ġlocalctx":6947,"serialize":6948,"ĠStream":6949,"ĠGenerate":6950,"Ġimported":6951,"ìĿ´":6952,"Ġcorrectly":6953,"elements":6954,"Ġrules":6955,"Ġindivid":6956,"Numbers":6957,"original":6958,"Ġgeometry":6959,"Disabled":6960,"flask":6961,"cleaned":6962,"Ġtarinfo":6963,"ĠWebSocket":6964,"Ġbuilt":6965,"ĠURIs":6966,"ĠMySQL":6967,"çĻ»":6968,"Ġconsidered":6969,"*.<$":6970,".\\<$":6971,"/(":6972,"448":6973,">{":6974,"AY":6975,"ASE":6976,"GG":6977,"HER":6978,"Mode":6979,"OC":6980,"PARE":6981,"Rrs":6982,"Self":6983,"Tran":6984,"UE":6985,"WIN":6986,"Writer":6987,"\\.":6988,"]),<$":6989,"]).":6990,"bine":6991,"cap":6992,"categorical":6993,"eg":6994,"eer":6995,"elif":6996,"fL":6997,"iod":6998,"jinja":6999,"ks":7000,"scores":7001,"tre":7002,"wycheproof":7003,"à¶":7004,"ë¡ľ":7005,"ìĬ":7006,"ĠKEY":7007,"Ġservice":7008,"report":7009,"erce":7010,"Ġtidx":7011,"Ġtreat":7012,"eng":7013,"helper":7014,"arr":7015,"leted":7016,"Ġfine":7017,"ann":7018,"Ġ\"\".":7019,"ctime":7020,"ctypes":7021,"route":7022,"geos":7023,"Ġintranet":7024,"Ġbanking":7025,"Ġearly":7026,"Ġodd":7027,"Ġ'')":7028,"Ġdual":7029,"cover":7030,"Ġmigration":7031,"pection":7032,"____":7033,"__'):<$":7034,"getLogger":7035,"iso":7036,"cking":7037,"Ġtostr":7038,"Ġtodo":7039,"ellation":7040,"diff":7041,"setDisabled":7042,"romise":7043,"ĠTar":7044,"(\"*":7045,"(\"{":7046,"Release":7047,"umul":7048,"Ġlate":7049,"ĠSpec":7050,"ips":7051,"ĠApache":7052,"ytest":7053,"Ġpara":7054,"Ġrather":7055,"ĠFree":7056,"Ġstrxor":7057,"explo":7058,"exclusive":7059,"ĠDispatch":7060,"etag":7061,"previous":7062,"Ġproper":7063,"angle":7064,"pylint":7065,"ĠVBox":7066,"']['":7067,"Instance":7068,"Install":7069,"ifies":7070,"Ġprece":7071,"Ġpredict":7072,"INPUT":7073,"Ġxadmin":7074,"DEL":7075,"DEP":7076,"ĠHow":7077,"Ġtypeinfo":7078,"Ġ**\")<$":7079,"Ġdoing":7080,"Ġlogic":7081,"acs":7082,"account":7083,"\"][":7084,"Ġ40":7085,"Ġ49":7086,"Ġappend":7087,"Ġshut":7088,"Ġ655":7089,"Ġformats":7090,"closure":7091,"Ġpyopenssl":7092,"curacy":7093,"finder":7094,"Ġidna":7095,"Ġsubprocess":7096,"Ġpositional":7097,"))]<$":7098,"Undefined":7099,"DATA":7100,"sually":7101,"Ġverbosity":7102,"Ġtransition":7103,"FIG":7104,"FIX":7105,"ofb":7106,"astype":7107,"ĠKeyword":7108,"ldflags":7109,"argv":7110,"argtypes":7111,"extracted":7112,"Characters":7113,"Ġdocument":7114,"corrupt":7115,"Ġwriteresult":7116,"ordering":7117,"IntegerField":7118,"Ġordering":7119,"USB":7120,"Ġrows":7121,"Ġsaved":7122,"normalizer":7123,"ParserElement":7124,"Ġ'\\\\":7125,"Interp":7126,"ĠDerObject":7127,"ChaCha":7128,"which":7129,"Ġpreviously":7130,"generator":7131,"Ġchildren":7132,"Ġfullname":7133,"Adam":7134,"callable":7135,"alyser":7136,"FOUND":7137,"Ġstats":7138,"relu":7139,"ĠAlso":7140,"finished":7141,"Ġfixed":7142,"Ġchoice":7143,"Ġincluded":7144,"å¤§":7145,"sensor":7146,"Ġsentences":7147,"hypermodel":7148,"Ġcombined":7149,"VALID":7150,"FILES":7151,"Ġsolutions":7152,"pbkdf":7153,"rsaKey":7154,"Success":7155,"scheduler":7156,"Ġunittest":7157,"WAIT":7158,"enium":7159,"efficients":7160,"ðŁĮĵðŁĮĵ":7161,"Ġshares":7162,"Ġsecure":7163,"æĮĩå®ļ":7164,"éĻ¤":7165,"istatusEL":7166,"ĠRemovedIn":7167,"ĠMonday":7168,"RadioButton":7169,"ĠKeyboardInterrupt":7170,"SelfTest":7171,"$\",":7172,"(('":7173,")\",":7174,"++":7175,"/%":7176,"020":7177,"63":7178,"Act":7179,"BB":7180,"Bits":7181,"BKDF":7182,"Checked":7183,"DSL":7184,"Failed":7185,"GER":7186,"Gateway":7187,"LATE":7188,"LACK":7189,"Migration":7190,"Many":7191,"Put":7192,"PER":7193,"Peer":7194,"Var":7195,"WARE":7196,"XY":7197,"[<$":7198,"az":7199,"bal":7200,"dispatch":7201,"floor":7202,"gate":7203,"hide":7204,"holder":7205,"iver":7206,"jf":7207,"mmed":7208,"mutable":7209,"ook":7210,"srs":7211,"td":7212,"tan":7213,"tual":7214,"uc":7215,"uuid":7216,"âľ¨":7217,"ç¤":7218,"ĠOR":7219,"seek":7220,"rece":7221,"oracle":7222,"Ġtp":7223,"ene":7224,"dep":7225,"Ġak":7226,"arily":7227,"Ġfoo":7228,"Ġpunct":7229,"Ġ\"#":7230,"Ġ\"`":7231,"Ġ\"\")<$":7232,"rogram":7233,"itz":7234,"Ġinv":7235,"Ġinner":7236,"Ġduration":7237,"litext":7238,"Ġwrong":7239,"comoon":7240,"racket":7241,"riend":7242,"units":7243,"Ġhint":7244,"('-":7245,"Ġexposes":7246,"ĠSimple":7247,"ĠSupport":7248,"ĠIter":7249,"igher":7250,"ĠASC":7251,"Ġrho":7252,"ĠDB":7253,"Ġgre":7254,"pointer":7255,"filepath":7256,"ATOR":7257,"ĠMD":7258,"hould":7259,"ĠOracle":7260,"ĠVer":7261,"validators":7262,"ĠEns":7263,"IND":7264,"ĠWhe":7265,"ignKey":7266,"backward":7267,"versions":7268,"ĠHMAC":7269,"pping":7270,"ircle":7271,"irtual":7272,"Ensure":7273,"acity":7274,"Ġbuiltin":7275,"later":7276,"Ġcompla":7277,"Ġlocked":7278,"ALI":7279,"Ġextend":7280,"Ġextended":7281,"itertools":7282,"lengths":7283,"some":7284,"\")[":7285,"Raw":7286,"{}\\":7287,"Anc":7288,"Analysis":7289,"signer":7290,"):#":7291,"RIV":7292,"Ġworker":7293,"14748":7294,"LAY":7295,"Ġprovide":7296,"dific":7297,"Alter":7298,"Arg":7299,"Common":7300,"ĠQtCore":7301,"executable":7302,"ĠĠĠĠĠĠĠĠĠĠĠĠĠĠĠĠĠĠĠĠĠĠĠĠĠĠĠĠĠĠĠĠĠĠĠĠĠĠĠĠĠĠĠĠĠĠĠĠĠ":7303,">`_":7304,"ĠStart":7305,"Ġbetter":7306,"DateTime":7307,"Ġquoted":7308,"Ġpeer":7309,"åĲį":7310,"scaped":7311,"PREFIX":7312,"supports":7313,"Calibration":7314,"Ġconverted":7315,"ĠMaxRetry":7316,"Ġadapt":7317,"ĠPermission":7318,"itedList":7319,"ĠSeaBASSHeader":7320,"Ġaudio":7321,"Ġservers":7322,"Ġcsv":7323,"Ð¾Ð":7324,"Adapter":7325,"iversal":7326,"ĠFoundation":7327,"Ġanswer":7328,"çĻ»å½ķ":7329,"explore":7330,"ĠASCII":7331,"ĠEnsure":7332,"14748364":7333,"ĠMaxRetryError":7334,"'ve":7335,")\"<$":7336,"*.":7337,".<":7338,"/.":7339,"09":7340,":].":7341,"Be":7342,"Bot":7343,"Clean":7344,"DH":7345,"Drive":7346,"FOL":7347,"GRO":7348,"Mod":7349,"Ptr":7350,"Print":7351,"Rot":7352,"SM":7353,"Sh":7354,"Sto":7355,"Schema":7356,"TEN":7357,"Tags":7358,"USE":7359,"]-":7360,"aw":7361,"dur":7362,"grid":7363,"ia":7364,"mong":7365,"ores":7366,"pus":7367,"pies":7368,"punc":7369,"sindy":7370,"tion":7371,"tic":7372,"uck":7373,"»åıĸ":7374,"åį":7375,"çĽ":7376,"ëĬ":7377,"Ġ,":7378,"Ġá´":7379,"Ĥæķ°":7380,"inventory":7381,"ression":7382,"atis":7383,"era":7384,"alive":7385,"alties":7386,"descriptor":7387,"lev":7388,"learn":7389,"Ġreferences":7390,"Ġpure":7391,"Ġpacket":7392,"Ġprin":7393,"Ġ\"[":7394,"rout":7395,"Ġnone":7396,"geometry":7397,"Ġinspect":7398,"Ġbundle":7399,"Ġsink":7400,"Ġes":7401,"fied":7402,"cod":7403,"Ġmiddleware":7404,"__\":<$":7405,"rac":7406,"getframe":7407,"Ġdefinition":7408,"Ġans":7409,"lack":7410,"ĠTuple":7411,"conver":7412,"Ġ_<$":7413,"Ġ_(\"":7414,"splitext":7415,"Ġconstructed":7416,"('_":7417,"Ġ[])<$":7418,"Ġbecome":7419,"amera":7420,"Ġusage":7421,"ĠAuto":7422,"ĠARC":7423,"Ġstarted":7424,"progress":7425,"ĠPos":7426,"Ġ25":7427,"Ġgain":7428,"prepared":7429,"Ġengine":7430,"ĠMark":7431,"scan":7432,"Console":7433,"ĠEC":7434,"reads":7435,"reader":7436,"Ġprints":7437,"```":7438,"mpleted":7439,"ĠHel":7440,"Ġ``\"":7441,"ĠNT":7442,"RED":7443,"ĠGPL":7444,"ĠGNU":7445,"Engine":7446,"Ġclone":7447,"logits":7448,"ĠInc":7449,"Ġurljoin":7450,"maxsize":7451,"Ġapplied":7452,"Storage":7453,"([^":7454,"tinuous":7455,"errHandler":7456,"baz":7457,"avg":7458,"Ġsubject":7459,"checks":7460,"encipher":7461,"Ġloading":7462,"Ġ96":7463,"Ġ97":7464,"Ġcodes":7465,"Ġentire":7466,"Ġcertfile":7467,"manage":7468,"409":7469,"CONFIG":7470,"UTF":7471,"={\"":7472,"Ġinitialized":7473,"wraps":7474,"Ġruntime":7475,"specified":7476,"Ġcurr":7477,"center":7478,"HTTPConnection":7479,"Ġwinerror":7480,"ASK":7481,"metaclass":7482,"Ġmanually":7483,"failIf":7484,"botparser":7485,"Ġassign":7486,"sites":7487,"Ġtemporary":7488,"PATCH":7489,"Ġsampling":7490,"_|_|":7491,"QLabel":7492,"({\"":7493,"deredSet":7494,"Ġdepending":7495,"Loader":7496,"sessions":7497,"ĠDEBUG":7498,"è¯»åıĸ":7499,"Ġgoes":7500,"Ġnetwork":7501,"Ġreleased":7502,"container":7503,"Specifier":7504,"tector":7505,"Ġstdlib":7506,"8859":7507,"blank":7508,"secure":7509,"grads":7510,"ĠImpossible":7511,"samples":7512,"rott":7513,"Ġreceived":7514,"attname":7515,"rospection":7516,"Ġconditions":7517,"ĠFIX":7518,"Ġsending":7519,".*)\"))<$":7520,"Ġoccurred":7521,"NEW":7522,"ĠUNSUPPORTED":7523,"Close":7524,"(\"/\")<$":7525,"Vector":7526,"trieve":7527,"ĠDISPID":7528,"Ġsmaller":7529,"Safe":7530,"Ġconditional":7531,"octet":7532,"deployment":7533,"Transport":7534,"DELETE":7535,"ĠRemovedInDjango":7536,"RIVATE":7537,"\".<$":7538,")?":7539,"*')<$":7540,"+\"":7541,",)":7542,"417":7543,"87":7544,":'),<$":7545,"Axis":7546,"BY":7547,"CJ":7548,"CLI":7549,"Candidate":7550,"CERT":7551,"DL":7552,"Dial":7553,"EM":7554,"Features":7555,"MS":7556,"Missing":7557,"PW":7558,"Part":7559,"Pipe":7560,"RU":7561,"WITH":7562,"_)<$":7563,"`:":7564,"beta":7565,"cv":7566,"cip":7567,"dry":7568,"dyn":7569,"dtypes":7570,"functools":7571,"gis":7572,"gwin":7573,"ling":7574,"nod":7575,"pm":7576,"pkey":7577,"pieces":7578,"squ":7579,"slic":7580,"tn":7581,"xff":7582,"}')<$":7583,"æŃ":7584,"ç®":7585,"è§":7586,"é¢":7587,"ê³":7588,"Ġvideo":7589,"ĠKeep":7590,"łéĻ¤":7591,"semb":7592,"security":7593,"ins":7594,"rev":7595,"ony":7596,"Ġtun":7597,"Ġtimer":7598,"Ġicon":7599,"deal":7600,"detail":7601,"decorator":7602,"heet":7603,"Ġcat":7604,"Ġciphers":7605,"Ġft":7606,"Ġfft":7607,"Ġfrozen":7608,"Ġreally":7609,"Ġredirected":7610,"Ġpack":7611,"urther":7612,"ctrl":7613,"Ġbs":7614,"Ġsizes":7615,"Ġeuc":7616,"Ġ''),<$":7617,"Ġdump":7618,"added":7619,"Ġwd":7620,"complex":7621,"unding":7622,"ully":7623,"gettimeout":7624,"ilters":7625,"cker":7626,"Ġann":7627,"ĠTO":7628,"Ġhold":7629,"(\">":7630,"Ġ101":7631,"Ġimportlib":7632,"together":7633,"ĠSplit":7634,"ĠSpatial":7635,"Ġbelow":7636,"ĠCOME":7637,"texts":7638,"bugs":7639,"Ġdescri":7640,"Ġ:,":7641,"prober":7642,"ĠPass":7643,"ĠDNS":7644,"perman":7645,"Ġ21":7646,"Ġ23":7647,"Ġgives":7648,"Ġencrypted":7649,"Ġmaintain":7650,"Ġdiv":7651,"ĠMAC":7652,"lications":7653,"ureTransport":7654,"scal":7655,"ĠEvent":7656,"Ġ36":7657,"comm":7658,"Ġunits":7659,"ĠUsb":7660,"endpoints":7661,"ĠWrap":7662,"ĠWrite":7663,"ĠWork":7664,"``:":7665,"Ġtimed":7666,"ĠBit":7667,"ĠBytesIO":7668,"Ġmodelsub":7669,"ĠNum":7670,"RENT":7671,"REDIRECT":7672,"ively":7673,"objs":7674,"=\"%":7675,"bases":7676,"lineEdit":7677,"compare":7678,"')):<$":7679,"Ġshutil":7680,"certdata":7681,"Ġ66":7682,"\")))<$":7683,"epcopy":7684,"ixed":7685,"Ġformatted":7686,"Ġ89":7687,"Decl":7688,"Ġaddr":7689,"selector":7690,"POOL":7691,"subclass":7692,"Ġlight":7693,"okupError":7694,"neth":7695,"See":7696,"Ġabi":7697,"copyright":7698,"Ġsignal":7699,"bypass":7700,"Configuration":7701,"Ġregular":7702,"pectral":7703,"033":7704,"Ġfinder":7705,"Ġgeneral":7706,"Ġminimum":7707,"Ġports":7708,"Ġretval":7709,"571":7710,"Ġsomething":7711,"Ġsymlink":7712,"firm":7713,"centage":7714,"binary":7715,"Ġreplacement":7716,"1000":7717,"GroupProber":7718,"postgres":7719,"Ġfinalsub":7720,"åĪłéĻ¤":7721,"Ġexecuted":7722,"ĠSecureTransport":7723,"Iteration":7724,"SecItemImport":7725,"393":7726,"Ġ2048":7727,"Ġdownloaded":7728,"Formatter":7729,"Ġdebugging":7730,"SDK":7731,"ĠNameOID":7732,"Ġtries":7733,"Ġê°":7734,"Descript":7735,"Ġbokeh":7736,"Ġsamples":7737,"MessageBox":7738,"Generate":7739,"SyntaxError":7740,"åĬł":7741,"Ġconverter":7742,"{:.":7743,"ServiceFeature":7744,"separator":7745,"Ġconstructor":7746,"SOCK":7747,"=\"\",":7748,"windable":7749,"74851":7750,"('/')":7751,"Ġ'{}'":7752,"æĪĲ":7753,"Ġmonth":7754,"Ġ`-'":7755,"Multiple":7756,"ĠColumn":7757,"Ġsimply":7758,"ArgumentParser":7759,"Ġë°°":7760,"Authentication":7761,"PASS":7762,"REMOVE":7763,"æį®":7764,"è½½":7765,"ignoreExprs":7766,"ĠMulti":7767,"CURRENT":7768,"trees":7769,"PWD":7770,",)<$":7771,"120":7772,"398":7773,"617":7774,"=['":7775,">\"<$":7776,"Big":7777,"Boolean":7778,"Ciphers":7779,"ECT":7780,"Elect":7781,"GCM":7782,"IX":7783,"IST":7784,"JECT":7785,"Light":7786,"LENG":7787,"MES":7788,"Make":7789,"OFF":7790,"Port":7791,"Sent":7792,"Ter":7793,"Tra":7794,"TLS":7795,"TUP":7796,"Want":7797,"Wycheproof":7798,"Your":7799,"[^":7800,"]\"":7801,"][\"":7802,"^^":7803,"`,<$":7804,"btest":7805,"cut":7806,"cpython":7807,"dx":7808,"drive":7809,"eax":7810,"fav":7811,"fold":7812,"gu":7813,"gly":7814,"guess":7815,"lt":7816,"mut":7817,"nip":7818,"ngettext":7819,"plication":7820,"rts":7821,"randfunc":7822,"sizes":7823,"should":7824,"written":7825,"zing":7826,"}):":7827,"©´":7828,"ë©´":7829,"Ġlic":7830,"Ġ):":7831,"$>|":7832,"inclusive":7833,"oriz":7834,"Ġtz":7835,"alsa":7836,"aligned":7837,"Ġcare":7838,"Ġfew":7839,"Ġfeatures":7840,"Ġrestri":7841,"uradio":7842,"Ġ\"\",<$":7843,"roles":7844,"Ġnlp":7845,"Ġbn":7846,"Ġem":7847,"Ġ'))<$":7848,"Ġdst":7849,"Ġdummy":7850,"ention":7851,"Ġmismatch":7852,"pemd":7853,"peek":7854,"ripemd":7855,"unTer":7856,"Ġ(``":7857,"isalpha":7858,"els":7859,"Ġanalyser":7860,"odome":7861,"spatial":7862,"=='":7863,"quential":7864,"umNames":7865,"assign":7866,"Ġimports":7867,"Ġlat":7868,"tob":7869,"clone":7870,"ĠSi":7871,"amb":7872,"ĠCor":7873,"busb":7874,"ĠASN":7875,"Ġparas":7876,"Ġrnn":7877,"Ġrng":7878,"profile":7879,"prospective":7880,"Ġsever":7881,"Ġ28":7882,"Ġghash":7883,"trip":7884,"pycrypt":7885,"ĠMust":7886,"ĠMay":7887,"ĠĠĠĠĠĠĠĠĠĠĠĠĠĠĠĠĠĠĠĠĠĠĠĠĠĠĠĠĠĠĠĠĠĠĠĠĠĠĠĠĠ":7888,"ĠOpen":7889,"ĠresultCLSID":7890,"scall":7891,"mous":7892,"Ġalt":7893,"ronic":7894,"Ġprereleases":7895,"ĠUrl":7896,"INE":7897,"ĠWAR":7898,"omin":7899,"ports":7900,"ĠBook":7901,"Ġciphermod":7902,"Ġtypelib":7903,"ĠNow":7904,"literal":7905,"REEN":7906,"RETRY":7907,"REGEX":7908,"Ġdouble":7909,"ecycle":7910,"[::-":7911,"boBox":7912,"Exit":7913,"Ġklass":7914,"Ġurlparse":7915,"component":7916,"hashed":7917,"ĠuserName":7918,"Ġnever":7919,"Ġcolors":7920,"Ġconfigured":7921,"openpg":7922,"Ġfunctionality":7923,"TEMP":7924,"LOGI":7925,"Ġpyrogram":7926,"Ġbasestring":7927,"ystems":7928,"ĠmoduleName":7929,"Unit":7930,"Annot":7931,"sume":7932,"success":7933,"ĠHTTPResponse":7934,"ĠHTTPSConnection":7935,"ĠparseImpl":7936,"ffice":7937,"Ġframework":7938,"117":7939,"DIS":7940,"Ġ'').":7941,"Ġinterval":7942,"crete":7943,"tablespace":7944,"ReturnEmpty":7945,"CounTer":7946,"partition":7947,"Character":7948,"Ġregions":7949,"Ġoperators":7950,"Ġinitialize":7951,"Ġserializers":7952,"ä¸ĭ":7953,"arguments":7954,"links":7955,"dimension":7956,"LAKE":7957,"CTX":7958,"explicit":7959,"datasets":7960,"Ġprim":7961,"hesis":7962,"ComboBox":7963,"stopbits":7964,"white":7965,"Ġdependency":7966,"Noise":7967,"wsgiutils":7968,"aught":7969,"ĠDataset":7970,"Ġzipfile":7971,"Ġvisitor":7972,"Ġoffsets":7973,"231":7974,"External":7975,"Ġbinop":7976,"ĠChaining":7977,"OpenPGP":7978,"Ġthreading":7979,"cfb":7980,"ĠInvalidHeader":7981,"æķ°æį®":7982,"NotFoundError":7983,"howto":7984,"gradient":7985,"overri":7986,"åĬŁ":7987,"ĠDefaults":7988,"Ġweights":7989,"PARAM":7990,"notebook":7991,"BandEdit":7992,"sender":7993,"analyser":7994,"(\".\"):<$":7995,"Ġcapath":7996,"Ġconstraints":7997,"recv":7998,"ĠTLSv":7999,"ĠRetryCondition":8000,"ĠthrowException":8001,"ĠReadTimeout":8002,"OPENPGP":8003,"PasswordValidator":8004,"(':')<$":8005,"mayReturnEmpty":8006,"ADDRESS":8007,"åĽŀ":8008,"ðŁĮĶðŁĮĶ":8009,"ðŁĮĸðŁĮĸ":8010,"ä¼ł":8011,"ĠVARIANT":8012,"ëĤĺ":8013,"dependencies":8014,"æĺ¯":8015,"ĠIOError":8016,"ðŁĮĴðŁĮĴ":8017,"ðŁĮĺðŁĮĺ":8018,"AutoField":8019,"Division":8020,"Ġifmatchtag":8021,"ĠPrivateKeyInfo":8022,"Ġ2022":8023,"Choice":8024,"ĠexprsFound":8025,"OtherCiphers":8026,"misc":8027,"ç¤º":8028,"ëĬĶ":8029,"onymous":8030,"PWDTEST":8031,"Electronic":8032,"LENGTH":8033,"TUPLE":8034,"Ġlicensed":8035,"pycryptodome":8036,"openpgp":8037,"697":8038,">.":8039,">[":8040,"AF":8041,"AttributeError":8042,"AIL":8043,"AWAIT":8044,"Dec":8045,"Download":8046,"FLAGS":8047,"Icon":8048,"IELD":8049,"Literal":8050,"LONG":8051,"My":8052,"MAG":8053,"MASK":8054,"NONE":8055,"Ph":8056,"PROP":8057,"Random":8058,"SY":8059,"Source":8060,"Sim":8061,"Slice":8062,"Use":8063,"[]\",":8064,"bed":8065,"bundle":8066,"cmp":8067,"dating":8068,"fm":8069,"gon":8070,"gan":8071,"ier":8072,"mus":8073,"mtime":8074,"mys":8075,"pers":8076,"pag":8077,"sur":8078,"skeleton":8079,"udent":8080,"vance":8081,"vendor":8082,"war":8083,"xp":8084,"¥åı":8085,"ä¹":8086,"å¸":8087,"å¹":8088,"åĢ":8089,"ç¬":8090,"ï½":8091,"Īĺ":8092,"inet":8093,"inline":8094,"inux":8095,"reload":8096,"rers":8097,"remaining":8098,"ertain":8099,"Ġtw":8100,"Ġast":8101,"here":8102,"Ġfs":8103,"Ġfurther":8104,"Ġrecom":8105,"Ġrelation":8106,"Ġrecognized":8107,"ane":8108,"animation":8109,"Ġ\"\":<$":8110,"Ġincrement":8111,"Ġincorrect":8112,"utive":8113,"Ġbrowser":8114,"ues":8115,"ashes":8116,"Ġeps":8117,"Ġ###":8118,"Ġ'#":8119,"Ġdsa":8120,"Ġdynamic":8121,"liant":8122,"adcast":8123,"Ġwriter":8124,"cost":8125,"coordinate":8126,"Ġmd":8127,"raction":8128,"unsigned":8129,"Ġissubclass":8130,"ulk":8131,"isfile":8132,"than":8133,"distance":8134,"Ġconversion":8135,"('\"":8136,"('<":8137,"Reader":8138,"putheader":8139,"ĠCS":8140,"sertion":8141,"Ġdead":8142,"Ġdeque":8143,"Ġdeps":8144,"Ġdevelop":8145,"Ġvolume":8146,"ĠForm":8147,"ĠPost":8148,"excluded":8149,"Ġsep":8150,"apply":8151,"Ġgra":8152,"Ġmet":8153,"ĠLine":8154,"Ġkeyfile":8155,"ĠModule":8156,"ĠMeta":8157,"Ġchunked":8158,"Ġyear":8159,"Ġhasn":8160,"Ġaliases":8161,"Contain":8162,"Ġoutgoing":8163,"ored":8164,"ESSION":8165,"ĠRegex":8166,"ĠGroup":8167,"Ġpathlib":8168,"Enabled":8169,"Ġnewer":8170,"Ġcanonical":8171,"Ġkerastuner":8172,"Ġ440":8173,"character":8174,"Ġextras":8175,"')]<$":8176,"Ġmaxloc":8177,"Ġappauthor":8178,"Ġcolumns":8179,"TRAC":8180,"Ġcharset":8181,"shuffle":8182,"Ġpov":8183,"Ġpose":8184,"SIG":8185,"SITE":8186,"([[":8187,"Ġ83":8188,"openElements":8189,"ĠConver":8190,"ĠConstants":8191,"Ġlazy":8192,"posn":8193,"ĠtokenTypes":8194,"localtime":8195,"ULD":8196,"Ġcaller":8197,"Ġbases":8198,"Ġsubclasses":8199,"Ġsources":8200,"suite":8201,"ĠHTTPError":8202,"needed":8203,"Sequential":8204,"Ġenter":8205,"ĠYIELD":8206,"Ġ''')<$":8207,"Ġabstract":8208,"ĠUnix":8209,"ĠUndefined":8210,"9810":8211,"172":8212,"Ġenvironments":8213,"Ġparentheses":8214,"traceback":8215,"...)":8216,"Ġselection":8217,"LASS":8218,"ASC":8219,"projection":8220,"phot":8221,"mended":8222,"Ġproblems":8223,"rank":8224,"Ġassume":8225,"Ġdatasets":8226,"Ġimplementations":8227,"Ġbottom":8228,"Columns":8229,"Ġshowscreen":8230,"hexnums":8231,"ontal":8232,"redirects":8233,"Ġdatabases":8234,"Ġnormalization":8235,">`\\<$":8236,"dtuple":8237,"Lock":8238,"conflicts":8239,"utableMapping":8240,"relations":8241,"screenshot":8242,"Ġauthenticated":8243,"finish":8244,"âķ±":8245,"IGN":8246,"Ġconnector":8247,"Ġidxs":8248,"cfg":8249,"secutive":8250,"Ġowner":8251,"Ġissues":8252,"Generator":8253,"Ġconsistent":8254,"Ġlarger":8255,"ĠExtract":8256,"uplicates":8257,"___/":8258,"vokes":8259,"HOST":8260,"äºİ":8261,"Ġattack":8262,"Ġbeginning":8263,"transitions":8264,"Wrapper":8265,"Ġpublish":8266,"Ġsklearn":8267,"ĠGeometry":8268,"Ġcomponents":8269,"Ġbroken":8270,"ĠInitialize":8271,"purelib":8272,"reduce":8273,"Ġlatest":8274,">`_.<$":8275,"147483647":8276,"CLIENT":8277,"Dialog":8278,"nodot":8279,"Ġfrozenset":8280,"Descriptor":8281,"PASSWORD":8282,"orizontal":8283,"AWAITABLE":8284,"åĢ¼":8285,"Ġrecommended":8286,"!!":8287,"'\")<$":8288,"/{":8289,":],":8290,"=\",":8291,"?\\":8292,"AE":8293,"AKE":8294,"BER":8295,"BLACK":8296,"Cl":8297,"CMAC":8298,"CLASS":8299,"Func":8300,"Font":8301,"Finder":8302,"GOR":8303,"IES":8304,"ILED":8305,"LOAD":8306,"MM":8307,"Note":8308,"Pl":8309,"Private":8310,"PBKDF":8311,"Site":8312,"Scheme":8313,"Simple":8314,"XML":8315,"]])<$":8316,"bd":8317,"bdist":8318,"catch":8319,"cors":8320,"dns":8321,"evp":8322,"fb":8323,"ga":8324,"hg":8325,"hn":8326,"hyp":8327,"handshake":8328,"hdr":8329,"ili":8330,"iir":8331,"jpe":8332,"pan":8333,"pas":8334,"rstrip":8335,"xC":8336,"zA":8337,"}\"":8338,"¥¼":8339,"²Ļ":8340,"½ì":8341,"åĮ":8342,"æŀ":8343,"éĹ":8344,"ë¥¼":8345,"ì§":8346,"ì²Ļ":8347,"Ġvi":8348,"ĠERROR":8349,"Ġqueue":8350,"relative":8351,"erm":8352,"alle":8353,"deb":8354,"deprecated":8355,"Ġaway":8356,"Ġaverage":8357,"Ġcertain":8358,"Ġfriend":8359,"Ġrepo":8360,"Ġrely":8361,"Ġpss":8362,"Ġpatch":8363,"anes":8364,"Ġ\"\"":8365,"Ġinher":8366,"Ġsystems":8367,"asy":8368,"Ġesc":8369,"Ġ''.":8370,"Ġdays":8371,"lies":8372,"ota":8373,"ulated":8374,"getter":8375,"issuer":8376,"ilation":8377,"ching":8378,"dic":8379,"ĠTCP":8380,"contract":8381,"Ġhit":8382,"Ġconsumed":8383,"Ġconsecutive":8384,"('.')<$":8385,"absolute":8386,"Ġlcid":8387,"Ġ-----":8388,"trl":8389,"())):<$":8390,"ĠSh":8391,"ĠStr":8392,"ĠSince":8393,"Ġbeta":8394,"ĠInt":8395,"ĠCa":8396,"Ġordered":8397,"andas":8398,"Ġugly":8399,"lists":8400,"Ġvid":8401,"Ġvari":8402,"questions":8403,"ĠAfter":8404,"Ġcopies":8405,"Ġradi":8406,"ĠFT":8407,"proc":8408,"ĠPAR":8409,"Ġ`[":8410,"Ġ`{":8411,"Ġnamedtuple":8412,"assertNot":8413,"Ġguess":8414,"Ġproto":8415,"Ġproperly":8416,"Ġencoder":8417,"ĠLink":8418,"Ġ__/":8419,"ĠMAKE":8420,"kwarg":8421,"timeDT":8422,"ĠEN":8423,"202":8424,"``.":8425,"Ġaren":8426,"ĠBad":8427,"ĠHash":8428,"lifecycle":8429,"reated":8430,"ĠGID":8431,"iration":8432,"Enable":8433,"xFFFF":8434,"based":8435,"aging":8436,"quiet":8437,"ENAME":8438,"\"][\"":8439,"Exist":8440,"Expect":8441,"Ġcompress":8442,"Ġcompiled":8443,"'))":8444,"THON":8445,"108":8446,"FACE":8447,"Deprecated":8448,"Ġacross":8449,"connectionpool":8450,"309":8451,"Ġzone":8452,"POINT":8453,"Ġ{},":8454,"ListFilter":8455,"matcher":8456,"signal":8457,"Ġtranslate":8458,"OPCODE":8459,"Ġstates":8460,"FIED":8461,"FIELD":8462,"ĠKeyValue":8463,"creenshot":8464,"Ġclsid":8465,"Ġclsctx":8466,"NotExist":8467,"Post":8468,"ABEL":8469,"778":8470,"ä¸Ĭ":8471,"ä¸Ń":8472,"ĠDef":8473,"centLt":8474,"Ġmanage":8475,"CEPTION":8476,"lector":8477,"price":8478,"Ġtables":8479,"Ġroaming":8480,"Ġviews":8481,"ĠCounter":8482,"Ġseparator":8483,"Ġdigests":8484,"åı¯":8485,"Ġbufsize":8486,"ĠĠĠĠĠĠĠĠĠĠĠĠĠĠĠĠĠĠĠĠĠĠĠĠĠĠĠĠĠĠĠĠĠĠĠĠĠĠĠĠĠĠĠĠĠĠĠĠĠĠĠĠ":8487,"internalcode":8488,"Ġdepends":8489,"Security":8490,"COMP":8491,"ĠRequestResult":8492,"Ġchunks":8493,"ĠCOMPARE":8494,"INTERFACE":8495,"á´ı":8496,"Ġstructs":8497,"åĲİ":8498,"compatible":8499,"IGHT":8500,"CCM":8501,"Ġ[]).":8502,"Ġgrad":8503,"DOW":8504,"ĠpropName":8505,"overlap":8506,"platlib":8507,"rotli":8508,"âĸĳâĸĳâĸĳâĸĳâĸĳâĸĳâĸĳâĸĳ":8509,"Ġspecifying":8510,"adapt":8511,"Ġdecision":8512,"ategories":8513,"Ġperformance":8514,")*(":8515,"HEADERS":8516,"Directory":8517,"BuildFor":8518,"Ġpermissions":8519,"ĠDisable":8520,"LICIT":8521,"Ġpurged":8522,"courses":8523,"Ġdatatype":8524,"hello":8525,"Ġcredentials":8526,"ĠCallable":8527,"infinity":8528,"Ġgencache":8529,"ĠZeroOrMore":8530,"Accept":8531,"EvalContext":8532,"eagerly":8533,"Ġfavor":8534,"Ġè®¾ç½®":8535,"andboxed":8536,"Ġshutting":8537,"tanh":8538,"dification":8539,"FOLDER":8540,"ĠHelper":8541,"ĠSiLA":8542,"ĠKeyValueItem":8543,",\"":8544,"/?":8545,"10000":8546,"410":8547,"411":8548,"Async":8549,"Bad":8550,"Body":8551,"CHA":8552,"CLE":8553,"CRL":8554,"CORS":8555,"Der":8556,"Dig":8557,"Es":8558,"Full":8559,"Gui":8560,"Gaussian":8561,"LST":8562,"Mi":8563,"Math":8564,"Meta":8565,"Next":8566,"OSS":8567,"Pump":8568,"Rate":8569,"Send":8570,"SOL":8571,"SCHE":8572,"Tools":8573,"Temp":8574,"Used":8575,"YY":8576,"Zip":8577,"Zero":8578,"[_":8579,"\\__":8580,"]{":8581,"]],":8582,"bert":8583,"cer":8584,"cri":8585,"cun":8586,"css":8587,"cpp":8588,"dz":8589,"elocity":8590,"git":8591,"gmail":8592,"iou":8593,"irection":8594,"lk":8595,"lar":8596,"lan":8597,"mu":8598,"migrate":8599,"nor":8600,"nto":8601,"ount":8602,"pwd":8603,"packet":8604,"rad":8605,"sli":8606,"sses":8607,"tup":8608,"xadmin":8609,"}|":8610,"Ãª":8611,"Ð°":8612,"éĿ":8613,"ìĹ":8614,"ìľ":8615,"Ġut":8616,"Ġ;<$":8617,"Ġurlopen":8618,"İ·":8619,"erical":8620,"oring":8621,"encoder":8622,"selected":8623,"algo":8624,"decoder":8625,"details":8626,"deepcopy":8627,"Ġapi":8628,"Ġcapi":8629,"legacy":8630,"Ġfi":8631,"Ġfmt":8632,"Ġfactor":8633,"Ġfrequency":8634,"Ġremain":8635,"Ġrecursive":8636,"Ġpag":8637,"Ġpull":8638,"Ġpoly":8639,"uris":8640,"Ġ\"@":8641,"cture":8642,"role":8643,"ropy":8644,"ceed":8645,"Ġinf":8646,"Ġinstru":8647,"Ġinfinite":8648,"Ġbau":8649,"Ġsrid":8650,"Ġsitu":8651,"Ġed":8652,"Ġest":8653,"Ġefficient":8654,"aders":8655,"Ġwon":8656,"Ġms":8657,"Ġmatched":8658,"Ġ(_":8659,"ĠTyp":8660,"console":8661,"Ġhack":8662,"==<$":8663,"edu":8664,"('''<$":8665,"umbn":8666,"poss":8667,"abet":8668,"truncated":8669,"()})<$":8670,"esNotExist":8671,"Ġ[],":8672,"Ġasn":8673,"Ġascii":8674,"\",\"":8675,"aml":8676,"ĠCtrl":8677,"igma":8678,"Ġ*\"":8679,"Ġdeconstruct":8680,"Ġdetermin":8681,"ĠASGI":8682,"ĠPort":8683,"ĠDate":8684,"perms":8685,"Ġseed":8686,"occur":8687,"assertRegex":8688,"Ġ2147483647":8689,"Ġgl":8690,"Ġgn":8691,"Ġgran":8692,"Ġgzip":8693,"pref":8694,"Ġenforce":8695,"initions":8696,"Ġ____":8697,"resnet":8698,"ĠMapping":8699,"hour":8700,"Ġtrying":8701,"ĠOP":8702,"']))<$":8703,"itecture":8704,"Ġhashed":8705,"Ġaltern":8706,"Convert":8707,"timedelta":8708,"Initial":8709,"ĠEX":8710,"ĠEval":8711,"Ġprev":8712,"Ġ34":8713,"comments":8714,"Ġunsupported":8715,"ĠUSB":8716,"osing":8717,"ĠWh":8718,"2020":8719,"``).<$":8720,"ĠResource":8721,"locust":8722,"ĠBert":8723,"ĠNe":8724,"ADI":8725,"ĠGDAL":8726,"Ġnewline":8727,"feat":8728,"owner":8729,"days":8730,"crypto":8731,"Ġ!=<$":8732,"plain":8733,"âĸķ":8734,"Ġbackward":8735,"tokenization":8736,"Ġtruth":8737,"\"))":8738,"Ġ85":8739,"arently":8740,"DeprecationWarning":8741,"Ġ/=":8742,"errno":8743,"ongo":8744,"ĠpyOpenSSL":8745,"findall":8746,"Ġreader":8747,"Ġbackends":8748,"organ":8749,"StringIO":8750,"sents":8751,"Ġcodecs":8752,"assertRaisesRegex":8753,"OPBITS":8754,"SECU":8755,"111":8756,"transforms":8757,"Ġmaybe":8758,"Ġextraction":8759,"runner":8760,"runTests":8761,"ifiedIdentifier":8762,"CONTR":8763,"Ġmove":8764,"Copy":8765,"Counter":8766,"Ġoverwrite":8767,"archive":8768,"Ġregistry":8769,"Ġtrace":8770,"special":8771,"Ġaxes":8772,"ĠParsed":8773,"targets":8774,"Ġ160":8775,"Ġdelattr":8776,"makedirs":8777,"primary":8778,"OrderedDict":8779,"slash":8780,"Ġmarkup":8781,"Ġlikely":8782,"stopping":8783,"Ġinfos":8784,"commands":8785,"âĸĪâĸĪâĸĪâĸĪ":8786,"Attributes":8787,"CFRelease":8788,"paredRequest":8789,"ĠRequests":8790,"Ġmaps":8791,"riterion":8792,"Ġpositions":8793,"Ġappe":8794,"Ġmemoryview":8795,"ĠAlready":8796,"ĠChar":8797,"ĠPreparedRequest":8798,"ĠTemplateSyntaxError":8799,"CCESS":8800,"Ġlimitation":8801,"Transfer":8802,"PROXY":8803,"æľĢ":8804,"widgets":8805,"Ġreceives":8806,"IndexError":8807,"DoesNotExist":8808,"encryption":8809,"Ġselenium":8810,"Ġauthority":8811,"Ġrelations":8812,"ĠHyperParameters":8813,"25519":8814,"analyze":8815,"ĠFIRST":8816,"~~~~~~~~":8817,"íķĺ":8818,"íķľ":8819,"ResultsName":8820,"windll":8821,"('./":8822,"problem":8823,"Align":8824,"optimize":8825,"Ġswitch":8826,"RhoRadioButton":8827,"Thread":8828,"credentials":8829,"course":8830,"Ġworld":8831,"Ġconcaten":8832,"Ġproduced":8833,"ĠRegister":8834,"RegexpMatches":8835,"QualifiedIdentifier":8836,"Ġphase":8837,"ĠAccount":8838,"Description":8839,"ĠCertificateError":8840,"ìłģ":8841,"petition":8842,"nested":8843,"è¡¨":8844,"ĠHowever":8845,"Ġ65536":8846,"AlterField":8847,"router":8848,"ĠFIXME":8849,"slicing":8850,"ullyQualifiedIdentifier":8851,"ĠNumber":8852,"3986":8853,"Ġepsilon":8854,"ä¸Ĭä¼ł":8855,"irectional":8856,"ntoa":8857,"Ġbaud":8858,"umbnail":8859,"Ġgranted":8860,"'}<$":8861,");":8862,")}":8863,"657":8864,":{}":8865,">:":8866,">}":8867,"AccessKey":8868,"Bit":8869,"BytesIO":8870,"BIDDEN":8871,"CMP":8872,"Caught":8873,"DLE":8874,"Escape":8875,"Early":8876,"EPOL":8877,"HKDF":8878,"LY":8879,"Office":8880,"OULD":8881,"Pow":8882,"Please":8883,"Rel":8884,"RANGE":8885,"Scal":8886,"SESSION":8887,"TP":8888,"Tab":8889,"Unsupported":8890,"Width":8891,"ai":8892,"bce":8893,"cb":8894,"dl":8895,"dsaObj":8896,"eq":8897,"ece":8898,"fbc":8899,"gcd":8900,"grained":8901,"llite":8902,"merge":8903,"pd":8904,"uit":8905,"uDNN":8906,"xc":8907,"xception":8908,"}`":8909,"±»":8910,"µëĭĪëĭ¤":8911,"åģ":8912,"ç±»":8913,"íĮ":8914,"Ġum":8915,"Ġvectors":8916,"ļ°":8917,"Ġtup":8918,"Ġtell":8919,"selu":8920,"Ġiexplore":8921,"derers":8922,"Ġaffect":8923,"leave":8924,"Ġfast":8925,"Ġpm":8926,"Ġpol":8927,"Ġplease":8928,"Ġpoll":8929,"Ġpandas":8930,"urse":8931,"Ġ\"(":8932,"Ġinkey":8933,"inger":8934,"Ġeg":8935,"Ġescaped":8936,"Ġ#################################":8937,"Ġ'[":8938,"Ġdz":8939,"Ġdraw":8940,"Ġdav":8941,"Ġduplicate":8942,"atellite":8943,"ents":8944,"copied":8945,"Ġmar":8946,"Ġmname":8947,"Ġmvalue":8948,"rapy":8949,"rics":8950,"unquote":8951,"Ġ()":8952,"getcwd":8953,"ckpt":8954,"intr":8955,"cha":8956,"threshold":8957,"dictionary":8958,"Ġnotation":8959,"izations":8960,"Ġconstants":8961,"Ġconvenience":8962,"ums":8963,"Ġ115":8964,"Ġ186":8965,"abstract":8966,"Ġliter":8967,"()).":8968,"ĠSET":8969,"amily":8970,"amount":8971,"ĠICMP":8972,"iguous":8973,"Ġusually":8974,"ista":8975,"ĠAvoid":8976,"ĠAsymmetric":8977,"Ġstores":8978,"Ġcore":8979,"Ġcourse":8980,"exer":8981,"exact":8982,"expect":8983,"ĠDSS":8984,"ety":8985,"Ġ24":8986,"prerelease":8987,"Ġenable":8988,"Ġmeas":8989,"ĠLoc":8990,"Ġ_____":8991,"Ġdivisor":8992,"ORM":8993,"reshape":8994,"ĠMongo":8995,"ffset":8996,"ĠOPTION":8997,"ĠVista":8998,"'])":8999,"moid":9000,"ERTY":9001,"lockdiscovery":9002,"FFFE":9003,"Ġpreprocess":9004,"Ġpreferred":9005,"Ġ304":9006,"Ġunspecified":9007,"#######<$":9008,"[\"_":9009,"backoff":9010,"ĠtestDecode":9011,"ĠtestEncode":9012,"ĠBLAKE":9013,"ĠHidden":9014,"ppll":9015,"ĠNew":9016,"ĠrequestEL":9017,"REG":9018,"formfield":9019,"ĠGHASH":9020,"requested":9021,"ecc":9022,"Ġnewself":9023,"xFFFFFFFF":9024,"Ġ|/":9025,"IDispatch":9026,"ĠInter":9027,"Ġ47":9028,"Ġdistance":9029,"FORBIDDEN":9030,"Ġlocals":9031,"refresh":9032,"ALLOW":9033,"comps":9034,"MATCH":9035,"ificant":9036,"intern":9037,"Ġ\\|":9038,"TRAN":9039,"FileName":9040,"Ġcafile":9041,"506":9042,"bee":9043,"beg":9044,"mitting":9045,"eprom":9046,"SSLv":9047,"Device":9048,"Depth":9049,"Ġadds":9050,"ĠstartTag":9051,"Ġcheckpoint":9052,"posal":9053,"LOUT":9054,"Ġcomma":9055,"ACC":9056,"Ġpywin":9057,"EndTag":9058,"caller":9059,"subplot":9060,"Ġsubtrain":9061,"TestVect":9062,"AnAdmin":9063,"subject":9064,"Ġhome":9065,"---------<$":9066,"Ġcalc":9067,"achine":9068,"SEPAR":9069,"1191":9070,"Ġstatement":9071,"Search":9072,"FIPS":9073,"Ġupdating":9074,"NotAny":9075,"Ġends":9076,"UTO":9077,"Ġmultip":9078,"plots":9079,"Ġplaces":9080,"TIONAL":9081,"Ġinitialization":9082,"bytesize":9083,"ĠretString":9084,"Register":9085,"Ġserialize":9086,"Ġscan":9087,"Ġadjust":9088,"ĠTestOtherCiphers":9089,"parents":9090,"TERS":9091,"374":9092,"3710":9093,"Ġ2008":9094,"bottom":9095,"SUAL":9096,"Allow":9097,"Args":9098,"Ġsends":9099,"childRes":9100,"Ġimplements":9101,"ghi":9102,"served":9103,"UserAnAdmin":9104,"2445":9105,"Ġ\".\"":9106,"identity":9107,"ĠpointR":9108,"plotting":9109,"Ġìŀ":9110,"Ġlocale":9111,"Ġrefurl":9112,"Load":9113,"calculate":9114,"Ġexamples":9115,"EXTEN":9116,"Ġsuccessfully":9117,"Ġpkcs":9118,"Ġsegments":9119,"Ġreasons":9120,"Linear":9121,"Ġretryable":9122,"Ġcleaned":9123,"ClientToken":9124,"Ġmultipart":9125,"Ġpropupdate":9126,"Ġpainter":9127,"freeze":9128,"Ġlooking":9129,"dotenv":9130,"WithHMAC":9131,"Ġsimulate":9132,"ĠINIT":9133,"è¿Ľ":9134,"Ġcombine":9135,"ĠOrderedSet":9136,"Ints":9137,"Ġidentifier":9138,"Ġhappens":9139,"SessionAccessKey":9140,"Ġsymbol":9141,"Ġbuilder":9142,"ProxyError":9143,"green":9144,"ĠwsgiApp":9145,".*)\",":9146,"Ġflask":9147,"ĠThat":9148,"mimetype":9149,"çŃ¾":9150,"ordinates":9151,"Execution":9152,"squeezing":9153,"itoring":9154,"65204":9155,"pieceTokenizer":9156,"schedule":9157,"OPENSSL":9158,"Geometry":9159,"Software":9160,"CHECK":9161,"Ġê²½ì":9162,"oleobj":9163,"Markup":9164,"////////////////":9165,"looking":9166,"ĠGeneralProxyError":9167,"DARKER":9168,"å°ı":9169,"Local":9170,"Ġpriority":9171,"ECDSA":9172,"Ġspell":9173,"peername":9174,"Weight":9175,"æłĩçŃ¾":9176,"Script":9177,"ĠancGroup":9178,"ĠIMPORT":9179,"NIRCorrection":9180,"ðŁĮĹðŁĮĹ":9181,"Ġdiscarding":9182,"Finalized":9183,"VISUAL":9184,"ĠSHORT":9185,"Ġwindll":9186,"Ġmerged":9187,"ĠIsUserAnAdmin":9188,"ĠBecause":9189,"Ġindividual":9190,"ìĬµëĭĪëĭ¤":9191,"DEPTH":9192,"Ġpunctuation":9193,"ĠWhether":9194,"Ġcomplain":9195,"Stopping":9196,"awn":9197,"levant":9198,"encipherment":9199,"Ġdivmod":9200,"393172":9201,"æĪĲåĬŁ":9202,"Ġseveral":9203,"TEMPLATE":9204,"117393172":9205,"ä¸ĭè½½":9206,"DivisionError":9207,"PROPERTY":9208,"mysql":9209,"sertionError":9210,"photo":9211,"allel":9212,"crimin":9213,"ìľ¼":9214,"Ġinstructions":9215,"Ġsituations":9216,"occurred":9217,"CONTROL":9218,"EarlyStopping":9219,"ĠMongoDB":9220,"TestVectors":9221,"SEPARATOR":9222,"Ġê²½ìļ°":9223,"\"})<$":9224,"#]*":9225,"''":9226,"(\\":9227,")[:":9228,"*(":9229,"*,":9230,".'.":9231,"/\",":9232,"238":9233,"500":9234,"636":9235,"800":9236,"92":9237,"={}":9238,">%":9239,">,":9240,"AA":9241,"AGE":9242,"BE":9243,"Cs":9244,"Current":9245,"Dark":9246,"First":9247,"FLOW":9248,"GIN":9249,"GDAL":9250,"Handshake":9251,"IB":9252,"IE":9253,"Lw":9254,"Mon":9255,"MAP":9256,"Machine":9257,"Pa":9258,"Package":9259,"Pressed":9260,"PKEY":9261,"Sp":9262,"Split":9263,"Sheet":9264,"Train":9265,"Uns":9266,"Velocity":9267,"YPE":9268,"avelength":9269,"ban":9270,"blob":9271,"dra":9272,"duration":9273,"ele":9274,"fallback":9275,"gl":9276,"ike":9277,"ji":9278,"kt":9279,"must":9280,"nan":9281,"pin":9282,"pid":9283,"rx":9284,"runc":9285,"super":9286,"ttl":9287,"ug":9288,"uu":9289,"volume":9290,"will":9291,"xFC":9292,"}\",":9293,"~/.":9294,"¥çļĦ":9295,"åľ¨":9296,"ç§":9297,"éĶ":9298,"ìĦ":9299,"Ġri":9300,"ĶåĽŀ":9301,"inx":9302,"information":9303,"rep":9304,"attention":9305,"atomic":9306,"orld":9307,"Ġtreated":9308,"alf":9309,"detected":9310,"deleted":9311,"arin":9312,"arange":9313,"Ġcr":9314,"Ġcss":9315,"lected":9316,"Ġfar":9317,"Ġfallback":9318,"Ġrebuild":9319,"Ġreduction":9320,"Ġpb":9321,"Ġpay":9322,"anim":9323,"ctype":9324,"Ġngrams":9325,"Ġbar":9326,"Ġbba":9327,"Ġembedding":9328,"Ġ'+":9329,"Ġden":9330,"Ġdur":9331,"coord":9332,"Ġmut":9333,"peed":9334,"__.<$":9335,"rays":9336,"valve":9337,"ints":9338,"Ġtool":9339,"Ġtold":9340,"Ġanonymous":9341,"xture":9342,"ĠTemp":9343,"ĠTodo":9344,"vered":9345,"ending":9346,"endQuoteChar":9347,"Ġnotice":9348,"',)<$":9349,"oday":9350,"Ġhandshake":9351,"Ġhaving":9352,"Ġthings":9353,"('',":9354,"Ġexplo":9355,"Ġlm":9356,"tobytes":9357,"alling":9358,"ĠSu":9359,"ĠSub":9360,"ĠIgnore":9361,"ĠIdeal":9362,"question":9363,"ĠAverage":9364,"Ġrsa":9365,"ĠFore":9366,"ĠFast":9367,"ĠFLAGS":9368,"prog":9369,"ĠPrint":9370,"ĠPRIVATE":9371,"ĠDAT":9372,"assertCount":9373,"Ġ26":9374,"prep":9375,"Ġprofile":9376,"Ġprocessed":9377,"Ġmesh":9378,"Ġmembers":9379,"pypi":9380,"ORDER":9381,"resol":9382,"addHandler":9383,"ĠOut":9384,"ĠVis":9385,"ERY":9386,"Ġalong":9387,"Constant":9388,"timestamp":9389,"ifest":9390,"validator":9391,"Ġprepend":9392,"Ġprepare":9393,"ĠsetUp":9394,"Ġ300":9395,"Ġ303":9396,"Ġweek":9397,"combin":9398,"Ġunaff":9399,"Ġuniversal":9400,"have":9401,"ĠWK":9402,"omial":9403,"Ġtimedelta":9404,"locator":9405,"infos":9406,"httplib":9407,"joins":9408,"feed":9409,"acked":9410,"ENER":9411,"ENTRY":9412,"\"]))<$":9413,"IDDLE":9414,"Exp":9415,"regular":9416,"prun":9417,"Ġnodelist":9418,"Ġlocations":9419,"ĠRrs":9420,"compromise":9421,"ogui":9422,"105":9423,"Project":9424,"Ġcollected":9425,"Stat":9426,"Parameter":9427,"LEV":9428,"SIDE":9429,"SIMP":9430,"umption":9431,"locale":9432,"306":9433,"ACHE":9434,"Ġpylint":9435,"Ġvalidated":9436,"Ġvalidators":9437,"Ġ79":9438,"Ġbasename":9439,"))?":9440,"Unexpected":9441,"ĠHTTPS":9442,"distinct":9443,"htmlEntity":9444,"noise":9445,"tempt":9446,"Ġbodychars":9447,"Ġyields":9448,"runtime":9449,"argin":9450,"Ġmoving":9451,"Ġoverlap":9452,"quoteChar":9453,"Ġdiscard":9454,"icker":9455,"Ġruns":9456,"GEOS":9457,"Ġconstellation":9458,"Ġsometimes":9459,"disk":9460,"multip":9461,"prime":9462,"Ġfinished":9463,"Meter":9464,"Ġtemper":9465,"initialized":9466,"ĠSTAT":9467,"fruit":9468,"hexdigest":9469,"ĠPyQt":9470,"Ġyourself":9471,"plugin":9472,"Ġ'/'":9473,"Ġexecutable":9474,"Ġrefresh":9475,"ĠGenerated":9476,"PyObject":9477,"Ġseparately":9478,"clip":9479,"Ġsuccessful":9480,"tasks":9481,"2312":9482,"DRouter":9483,"Ġreasonable":9484,"ĠNamedTuple":9485,"Ġqueries":9486,"Ġgeo":9487,"Ġreferenced":9488,"Ġcallbacks":9489,"Ġnormally":9490,"AdminView":9491,"gacyVersion":9492,"marize":9493,"customer":9494,"Ġclick":9495,"Disposition":9496,"Ġrepresents":9497,"Ġtarfile":9498,"åºĶ":9499,"ĠExtension":9500,"{:>":9501,"Ġdelimiter":9502,"ĠdelimitedList":9503,"Ġidentify":9504,"Ġoptimize":9505,"SCRIPT":9506,"Ġstripped":9507,"CheckBoxUpdate":9508,"çŃī":9509,"Execute":9510,"å¼Ĥ":9511,"å¼ı":9512,"BACKEND":9513,"æĪ·":9514,"ĠANSI":9515,"FINAL":9516,"Ġturned":9517,"çĶ¨æĪ·":9518,"enied":9519,"Ġdetector":9520,"Running":9521,"Ġflatten":9522,"Marker":9523,"Ġmatrix":9524,"ExportKey":9525,"autogui":9526,"Ġhyperparameters":9527,"ĠInstallRequirement":9528,"Methods":9529,"Curve":9530,"Ġrespond":9531,"ĠSignal":9532,"randint":9533,"Ġ?(":9534,"Ġ'\"':<$":9535,"DebugAction":9536,"alphabet":9537,"Ġcfg":9538,"Ġcarry":9539,"WINDOW":9540,"capacity":9541,"Active":9542,"Ġgreedy":9543,"Before":9544,"ç®Ĺ":9545,"ĠUsbTools":9546,"Ġë°°ê°Ģ":9547,"BigAutoField":9548,"IGNORE":9549,"İ·åıĸ":9550,"ĠParsedVersion":9551,"EXTENSION":9552,"criminator":9553,"ĠAverageMeter":9554,"assertCountEqual":9555,"Ġunaffected":9556,"IDDLEWARE":9557,"htmlEntityMap":9558,"\"**":9559,"\"``,":9560,"((<$":9561,"([\"":9562,")!=":9563,")\".":9564,"+<$":9565,",))<$":9566,"112":9567,"357":9568,"535":9569,"85":9570,":#":9571,">'<$":9572,"Ass":9573,"AUTO":9574,"BR":9575,"Batch":9576,"Crc":9577,"CRIPT":9578,"CATED":9579,"Float":9580,"Fetch":9581,"FullyQualifiedIdentifier":9582,"Is":9583,"IABLE":9584,"Jar":9585,"KR":9586,"LAT":9587,"Lite":9588,"Live":9589,"LABEL":9590,"MIDDLEWARE":9591,"Norm":9592,"NORM":9593,"Pattern":9594,"Platform":9595,"Qos":9596,"ROM":9597,"SQUARE":9598,"TES":9599,"Title":9600,"Valve":9601,"[(":9602,"\\<":9603,"]]:<$":9604,"_(_":9605,"_\"\"\")<$":9606,"cr":9607,"cumul":9608,"gab":9609,"guid":9610,"gateway":9611,"gaussian":9612,"hps":9613,"kSec":9614,"kerastuner":9615,"lations":9616,"mm":9617,"mer":9618,"mas":9619,"mRequest":9620,"numpy":9621,"ood":9622,"pic":9623,"pmt":9624,"qsize":9625,"rm":9626,"sr":9627,"ssed":9628,"since":9629,"tot":9630,"two":9631,"vr":9632,"walk":9633,"ÑĤ":9634,"èĥ":9635,"éĥ":9636,"éĩ":9637,"Ġ),":9638,"ĠÃ©":9639,"Ġjoint":9640,"Ġç»":9641,"ĦíĮ":9642,"ī²":9643,"Įìŀ":9644,"ĸçķ":9645,"ĺìĬµëĭĪëĭ¤":9646,"$>{":9647,"$>--":9648,"sea":9649,"ini":9650,"increment":9651,"revert":9652,"revision":9653,"rewindable":9654,"athe":9655,"attrib":9656,"Ġtlb":9657,"enneth":9658,"Ġimplemented":9659,"decl":9660,"decompress":9661,"Ġaz":9662,"arc":9663,"Ġcc":9664,"Ġcell":9665,"Ġcross":9666,"lethon":9667,"Ġfetch":9668,"Ġrepe":9669,"Ġreuse":9670,"Ġrequote":9671,"Ġrelevant":9672,"Ġpin":9673,"anno":9674,"Ġinline":9675,"Ġsdist":9676,"Ġsatis":9677,"amefile":9678,"mpt":9679,"Ġdomin":9680,"defer":9681,"definitions":9682,"Ġworm":9683,"Ġwater":9684,"Ġwriting":9685,"Ġmk":9686,"Ġmtime":9687,"othesis":9688,"unop":9689,"undeclared":9690,"Ġ(*":9691,"Ġ(_|":9692,"Ġreturning":9693,"orth":9694,"getresponse":9695,"into":9696,"though":9697,"thumbnail":9698,"divisor":9699,"setuptools":9700,"setLevel":9701,"ender":9702,"endored":9703,"cont":9704,"condex":9705,"continue":9706,"confidence":9707,"odd":9708,"Ġhr":9709,"Ġhigher":9710,"ection":9711,"(\":":9712,"(\"[":9713,"tore":9714,"verbosity":9715,"Ġ[`":9716,"ĠStore":9717,"ams":9718,"ĠClo":9719,"ĠCustom":9720,"ĠCMAC":9721,"ĠCoding":9722,"Ġ*,":9723,"ased":9724,"Ġdeal":9725,"ĠAb":9726,"mater":9727,"Ġcos":9728,"Ġcores":9729,"---":9730,"mag":9731,"ĠFail":9732,"ĠFilters":9733,"Ġ{%":9734,"provi":9735,"probers":9736,"usage":9737,"ocÃª":9738,"Ġtelethon":9739,"heads":9740,"owels":9741,"Ġ22":9742,"attrgetter":9743,"appname":9744,"Ġgui":9745,"pressed":9746,"Ġprogram":9747,"Ġmeant":9748,"Ġmegab":9749,"ĠLO":9750,"Ġgetting":9751,"tach":9752,"Ġ</":9753,"addbase":9754,"addclose":9755,"ĠOID":9756,"ĠOmitting":9757,"Ġresulting":9758,"__(*":9759,"']={}<$":9760,"Ġfilesize":9761,"Ġhasher":9762,"Ġaligned":9763,"Ġalignment":9764,"Ġoutside":9765,"ustResult":9766,"Ġunsafe":9767,"ĠReitz":9768,"imap":9769,"ĠBot":9770,"ĠBig":9771,"pple":9772,"Ġ``<":9773,"ĠNULL":9774,"ĠNUM":9775,"REQ":9776,"RETR":9777,"colors":9778,"ĠGB":9779,"ĠGAME":9780,"httpbin":9781,"Ġatten":9782,"[:]":9783,"accents":9784,"statement":9785,"basedir":9786,"Ġsoon":9787,"Ġleaking":9788,"\"]),<$":9789,"Ġ|-":9790,"IDS":9791,"penalties":9792,"ĠInternal":9793,"ĠInvokes":9794,"SSING":9795,"Ġrespect":9796,"Ġreshdr":9797,"Ġ42":9798,"chard":9799,"Ġcompact":9800,"ĠRatio":9801,"ARD":9802,"Ġurlfetch":9803,"Ġexternal":9804,"ynomial":9805,"TTPSConnection":9806,"Ġmaxsize":9807,"Ġ\\\"":9808,"Ġconfigure":9809,"TRADI":9810,"sampling":9811,"ieve":9812,"DataGet":9813,"\").<$":9814,"stride":9815,"ANESE":9816,"Ġaddto":9817,"LOCAL":9818,"FieldListFilter":9819,"Ġobjs":9820,"lpf":9821,"Ġsug":9822,"Ġzfile":9823,"GetTypeInfo":9824,"Ġspacy":9825,"ĠSession":9826,"ĠSearch":9827,"OMAIN":9828,"Unable":9829,"ĠQueue":9830,"sures":9831,"Ġcalibration":9832,"Ġpermit":9833,"Ġperiod":9834,"1111":9835,"Separ":9836,"LIFIED":9837,"Ġabc":9838,"SAGE":9839,"Ġindexes":9840,"Ġsignals":9841,"ideo":9842,"CONDITION":9843,"savepath":9844,"Cookie":9845,"Completed":9846,"Setup":9847,"byref":9848,"excel":9849,"ConfigFile":9850,"ABASE":9851,"Ġpasswords":9852,"SHTTPSConnection":9853,"pkg":9854,"pause":9855,"specs":9856,"180":9857,"ĠXP":9858,"...\".":9859,"Ġadding":9860,"marks":9861,"ĠTestConstant":9862,"ĠURLs":9863,"ĠParser":9864,"]]]<$":9865,"lectance":9866,"3758":9867,"CKR":9868,"CKSHTTPSConnection":9869,"gov":9870,"ĠJAP":9871,"orderwidth":9872,"Ġqmix":9873,"Ġround":9874,"ContextAnalysis":9875,"ĠProb":9876,"ĠProtocol":9877,"CSGroupProber":9878,"Ġautoescape":9879,"Ġprimes":9880,"Ġutility":9881,"Ġtherefore":9882,"Ġtempfile":9883,"ĠSetting":9884,"UserName":9885,"UserQos":9886,"Ġsaf":9887,"downloads":9888,"ServerAuth":9889,"Ġvisible":9890,"StateError":9891,"StateMachine":9892,"postargs":9893,"ĠGetBucket":9894,"Ġupdates":9895,"Ġhashlib":9896,"Ġexecutor":9897,"Ġinstallation":9898,"ĠKORE":9899,"ĠëĤ¨":9900,"CFDataGet":9901,"SecExternal":9902,"ĠMove":9903,"crcfun":9904,"Classifier":9905,"images":9906,"073":9907,"ĠParseResults":9908,"UPDATE":9909,"è¯¯":9910,"realfile":9911,"Ġstructure":9912,"ĠerrSSLCert":9913,"ĠerrSSLPeer":9914,"Prev":9915,"Ġbinascii":9916,"593758":9917,"What":9918,"åĲĪ":9919,"webdriver":9920,"Ġscripts":9921,"cells":9922,"}.\".":9923,"Ġgeom":9924,"Ġquotes":9925,"Ġcrcmod":9926,"Ġoverrides":9927,"Ġoverridden":9928,"ĠMovedModule":9929,"PublicFormat":9930,"æľī":9931,"Ġextracting":9932,"ĠprogressBar":9933,"Ġdimension":9934,"Ġmultiheaders":9935,"WebSocket":9936,"lapsed":9937,"ĠUsers":9938,"conditions":9939,"PRECATED":9940,"cleanup":9941,"Ġencrypting":9942,"TOCOL":9943,"åĬ¡":9944,"Ġpredictions":9945,"Double":9946,"Ġcandidates":9947,"letion":9948,"ForeignKey":9949,"RootCert":9950,"è¿ĶåĽŀ":9951,"ĠLookupError":9952,"Helper":9953,"transp":9954,"PositionController":9955,"variables":9956,"GetBucketRe":9957,"FILENAME":9958,"ĠClientError":9959,"mixer":9960,"Ġadapter":9961,"Ġmetaclass":9962,"Layer":9963,"greedy":9964,"separated":9965,"CHARS":9966,"Ġhandlers":9967,"ENCRYPTION":9968,"COLOR":9969,"çŃĸçķ":9970,"ĠObjectIdentifier":9971,"Ġwhose":9972,"lexer":9973,"Ġclearables":9974,"ĠEUCJ":9975,"ĠEUCKR":9976,"Selector":9977,"boundary":9978,"Multi":9979,"Ġbands":9980,"hier":9981,"Ġkinds":9982,"Ġê²Įìŀ":9983,"ENGINE":9984,"Ġrouter":9985,"ArgumentError":9986,"ĠHere":9987,"Ġeffects":9988,"ìķĦ":9989,"ìķĺìĬµëĭĪëĭ¤":9990,"Ġworked":9991,"itude":9992,"Describe":9993,"microsoft":9994,"ä¿Ŀ":9995,"Ġspeed":9996,"ĠStopIteration":9997,"activations":9998,"Ġpairs":9999,"Impossible":10000,"OneOrMore":10001,"æĹ¶":10002,"2728":10003,"TrustResult":10004,"ĠPoolKey":10005,"addinfourl":10006,"errSSLInternal":10007,"Ġsuccesses":10008,"ĠSOCKSHTTPSConnection":10009,"ĠUpdate":10010,"HITE":10011,"Ġobtaining":10012,"NUMBER":10013,"LIBUSB":10014,"CharSetProber":10015,"ĠTarInfo":10016,"å¤§å°ı":10017,"floordiv":10018,"ĠIterable":10019,"ĠVerified":10020,"åįķ":10021,"Ġprinted":10022,"codename":10023,"bazfile":10024,"SafeArray":10025,"permanent":10026,"scalar":10027,"POOLSIZE":10028,"entioned":10029,"LOGICAL":10030,"Plugin":10031,"æŀľ":10032,"Ġvia":10033,"Ġ-------":10034,"CLEAN":10035,"Ġgnuradio":10036,"Ġpolynomial":10037,"ingerprint":10038,"Ġ#################################################":10039,"draft":10040,"ìĦľ":10041,"LEVEL":10042,"SIMPLIFIED":10043,"Ġtemperature":10044,"kSecTrustResult":10045,"mRequestType":10046,"ĦíĮĲ":10047,"athered":10048,"Ġdominant":10049,"condexpr":10050,"ĠCodingStateMachine":10051,"addclosehook":10052,"RETRIES":10053,"TRADITIONAL":10054,"ĠJAPANESE":10055,"ServerAuthCompleted":10056,"ĠKOREAN":10057,"ĠëĤ¨ìķĺìĬµëĭĪëĭ¤":10058,"ĠEUCJP":10059,"Ġê²ĮìŀĦíĮĲ":10060,"\"%":10061,"\"<":10062,"\"^":10063,")')<$":10064,")\",<$":10065,"*]":10066,"-\\":10067,".\\":10068,"230":10069,"352":10070,"61":10071,"756":10072,"840":10073,"939":10074,":'":10075,"?)":10076,"Credential":10077,"Center":10078,"CACHE":10079,"DG":10080,"Down":10081,"Dump":10082,"DOMAIN":10083,"Ed":10084,"Elli":10085,"Json":10086,"LL":10087,"Last":10088,"Link":10089,"MAN":10090,"NET":10091,"PSS":10092,"Padding":10093,"RF":10094,"Rect":10095,"Row":10096,"Roll":10097,"Role":10098,"Save":10099,"Sys":10100,"Skip":10101,"Scope":10102,"Task":10103,"TABLE":10104,"Virtual":10105,"[,":10106,"_\"):<$":10107,"`\"<$":10108,"bage":10109,"break":10110,"black":10111,"bulk":10112,"emb":10113,"fA":10114,"gray":10115,"hens":10116,"horizontal":10117,"ims":10118,"jack":10119,"lu":10120,"lstrip":10121,"mn":10122,"ny":10123,"nve":10124,"nav":10125,"pve":10126,"palette":10127,"pytest":10128,"rr":10129,"rus":10130,"rng":10131,"taps":10132,"uator":10133,"udo":10134,"vcs":10135,"wer":10136,"xpath":10137,"|_|":10138,"µĭ":10139,"É´":10140,"æ¯":10141,"æĢ":10142,"æĭ":10143,"æŁ":10144,"ê²":10145,"ëł":10146,"Ġé":10147,"Ġvector":10148,"Ġquestion":10149,"$>/":10150,"$>################################":10151,"seudo":10152,"inverse":10153,"reation":10154,"recall":10155,"references":10156,"recover":10157,"atty":10158,"orr":10159,"orse":10160,"orrent":10161,"orator":10162,"orized":10163,"Ġtx":10164,"Ġtabs":10165,"Ġie":10166,"alError":10167,"alidate":10168,"devices":10169,"members":10170,"arity":10171,"Ġcp":10172,"Ġcod":10173,"Ġcycle":10174,"Ġchecked":10175,"leg":10176,"Ġfa":10177,"Ġfact":10178,"Ġrecall":10179,"Ġreassign":10180,"Ġrepetition":10181,"Ġpot":10182,"anded":10183,"Ġ\"\").":10184,"rocess":10185,"Ġnc":10186,"Ġbbox":10187,"logs":10188,"Ġsv":10189,"Ġsing":10190,"Ġsil":10191,"Ġsync":10192,"Ġscreenshot":10193,"ashed":10194,"mpath":10195,"Ġemit":10196,"Ġ#%":10197,"Ġ'|":10198,"Ġdy":10199,"Ġdriver":10200,"lier":10201,"lick":10202,"adam":10203,"enti":10204,"Ġwavelength":10205,"coerce":10206,"coefficients":10207,"__:<$":10208,"__):<$":10209,"unused":10210,"unsafe":10211,"\"\",":10212,"Ġ([":10213,"Ġ(\"\",":10214,"ulary":10215,"serted":10216,"Ġdefer":10217,"that":10218,"thrott":10219,"lare":10220,"setChecked":10221,"ĠTensor":10222,"ĠTele":10223,"velocity":10224,"concrete":10225,"Ġ_`":10226,"Ġhd":10227,"Ġhide":10228,"(\"<":10229,"olation":10230,"Ġthus":10231,"Ġthreshold":10232,"aper":10233,"Reset":10234,"Revocation":10235,"queries":10236,"abling":10237,"toml":10238,"()[\"":10239,"alls":10240,"ĠSy":10241,"ĠCy":10242,"Ġ+\\<$":10243,"ands":10244,"Ġuuid":10245,"Ġdecl":10246,"Ġvcs":10247,"ntity":10248,"matches":10249,"Ġstderr":10250,"Ġstudent":10251,"Ġcomes":10252,"Ġrw":10253,"Ġrdns":10254,"Ġraster":10255,"outgoing":10256,"ĠPackage":10257,"urlencode":10258,"etc":10259,"assertRegexpMatches":10260,"Ġgu":10261,"prepend":10262,"Ġensures":10263,"icio":10264,"ĠLANG":10265,"filelist":10266,"Ġgets":10267,"Ġdiff":10268,"figure":10269,"resses":10270,"ĠMan":10271,"STATE":10272,"ĠOSS":10273,"']]":10274,"']]<$":10275,"Ġchain":10276,"ĠlistAll":10277,"combine":10278,"ĠUsing":10279,"ĠReference":10280,"omaly":10281,"***":10282,"ĠBasic":10283,"DETA":10284,"wordpiece":10285,"Ġ**__":10286,"ĠNON":10287,"REPO":10288,"REAS":10289,"collections":10290,"iving":10291,"ird":10292,"minor":10293,"Ġintended":10294,"agers":10295,"\"]):<$":10296,"Ġ|__":10297,"logo":10298,"Example":10299,"Ġresume":10300,"Ġ48":10301,"Ġ404":10302,"Ġcompression":10303,"')(":10304,"Ġnumeric":10305,"contextmanager":10306,"Program":10307,"interpre":10308,"rency":10309,"tokenMap":10310,"Ġcaseless":10311,"([])<$":10312,"country":10313,"tagging":10314,"Decoder":10315,"waiting":10316,"ANY":10317,"placeholder":10318,"Ġ500":10319,"Ġtextx":10320,"Ġtextwrap":10321,"Ġpypy":10322,"curve":10323,"Ġzeros":10324,"Ġspatial":10325,"Ġsubclass":10326,"ĠSequence":10327,"))[":10328,"Ġhope":10329,"Ġverbs":10330,"Ġ105":10331,"Ġ106":10332,"signers":10333,"Ġperm":10334,"assertRaisesRegexp":10335,"need":10336,"DIR":10337,"aster":10338,"Ġvalor":10339,"Ġlocks":10340,"UNK":10341,"Ġsignificant":10342,"2217":10343,"CONNE":10344,"Ġmodified":10345,"Ġmodification":10346,"])[":10347,"SetConsole":10348,"Ġseems":10349,"1798":10350,"Ġminimal":10351,"Ġrunner":10352,"777":10353,"MPTY":10354,"Ġserialized":10355,"Times":10356,"578":10357,"ĠDeprecationWarning":10358,"markup":10359,"winerror":10360,"destination":10361,"Ġexpiration":10362,"Ġ'.'":10363,"Ġformfield":10364,"Ġimmediate":10365,"ĠProperty":10366,"CSP":10367,"uploads":10368,"Ġsents":10369,"Ġlookups":10370,"ĠCookie":10371,"Ġseparated":10372,"åıĤæķ°":10373,"Ġredirects":10374,"Editor":10375,"cheduler":10376,"Ġupdated":10377,"annotations":10378,"bufsize":10379,"general":10380,"Ġrenderers":10381,"Ġlowest":10382,"Loop":10383,"lookups":10384,"sigmoid":10385,"activestate":10386,"tensors":10387,"EXTRAC":10388,"EXCEPTION":10389,"Ġsessions":10390,"Ġmapped":10391,"Ġsummary":10392,"Upload":10393,"Ġrights":10394,"á´Ģ":10395,"á´ĩ":10396,"Ġgoing":10397,"Prefix":10398,"Prediction":10399,"small":10400,"Ġshorter":10401,"Ġtrig":10402,"ĠEnable":10403,"Ġdistribute":10404,"hoto":10405,"ĠRSAPrivateKey":10406,"White":10407,"ä»¥":10408,"ĠPreprocess":10409,"Constraint":10410,"Ġbounds":10411,"IIR":10412,"æľŁ":10413,"Ġaccepts":10414,"Ġmultipath":10415,"Disable":10416,"MINMAX":10417,"ibrary":10418,"icons":10419,"rotate":10420,"certificates":10421,"\"><":10422,"HBoxLayout":10423,"Ġdeclared":10424,"candidates":10425,"ĠContentType":10426,"tls":10427,"Ġstored":10428,"Ġmeaning":10429,"USERS":10430,"VALUE":10431,"ilarity":10432,"Perform":10433,"-----<$":10434,"reasons":10435,"Ġadafruit":10436,"joints":10437,"datatype":10438,"Ġ\"'%":10439,"ĠObjectPrediction":10440,"Ġthrown":10441,"ðŁĮĳðŁĮĳðŁĮĳðŁĮĳ":10442,"Ġblue":10443,"Ġmonkey":10444,"ĠANY":10445,"(':')":10446,"ĠArgumentParser":10447,"Geom":10448,"PORTS":10449,"Ġattn":10450,">>>":10451,"Ġforeign":10452,"Ġeasier":10453,"ĠCONDITION":10454,"DecodeError":10455,"Authenticate":10456,"ĠFtdiLogger":10457,"mkdir":10458,"Ġwebsocket":10459,"ĠRaise":10460,"ĠRaises":10461,"ForceMon":10462,"StyleSheet":10463,"çķĻ":10464,"âĸĶâĸĶ":10465,"âĶģâĶģ":10466,"WARNING":10467,"equals":10468,"Ġpenal":10469,"REFER":10470,"ä¸Ģä¸ª":10471,"receiver":10472,"ALIAS":10473,"cipal":10474,"Ġpackaging":10475,"Ġrestriction":10476,"ĠReadTimeoutError":10477,"ç¬¬":10478,"Ġtwice":10479,"ASCII":10480,"ì§Ģ":10481,"ĠStruct":10482,"Ġvarious":10483,"Ġradius":10484,"LSTM":10485,"SOLVER":10486,"ìĹĲ":10487,"ĠTypical":10488,"Ġliterals":10489,"Ġmultiprocess":10490,"ĠDATETIME":10491,"ĠOutput":10492,"Ġsuggest":10493,"imshow":10494,"jacking":10495,"palettes":10496,"RevocationList":10497,"icious":10498,"ĠlistAllMatches":10499,"DETAIL":10500,"REASON":10501,"Ġimmediately":10502,"ForceMonitoring":10503,"Ġmultiprocessing":10504,"$)(":10505,"'%":10506,"({}":10507,"(\"\"\"":10508,")#":10509,")\\":10510,")'),<$":10511,")\"),<$":10512,"-'":10513,"/\\":10514,"232":10515,"213":10516,"315":10517,"339":10518,"412":10519,"536":10520,"6108":10521,"71":10522,"976":10523,":{}\".":10524,">',<$":10525,"Acc":10526,"Aria":10527,"Asymmetric":10528,"BC":10529,"Bin":10530,"BAND":10531,"BRIGHT":10532,"CY":10533,"CAN":10534,"Correction":10535,"Clause":10536,"CuDNN":10537,"Dsa":10538,"Drop":10539,"During":10540,"Denied":10541,"Factory":10542,"FLAG":10543,"GM":10544,"Gzip":10545,"Gtk":10546,"HH":10547,"HY":10548,"Handle":10549,"Image":10550,"Implementation":10551,"KIP":10552,"Loss":10553,"Ma":10554,"Non":10555,"Normal":10556,"Push":10557,"QMessageBox":10558,"RTS":10559,"Sta":10560,"TW":10561,"Top":10562,"TOKEN":10563,"Todo":10564,"UDE":10565,"UMP":10566,"XFrame":10567,"]\":<$":10568,"]`.<$":10569,"^.":10570,"aad":10571,"aop":10572,"bchr":10573,"battery":10574,"ciphers":10575,"dff":10576,"dom":10577,"dll":10578,"dummy":10579,"fake":10580,"frac":10581,"gzip":10582,"jected":10583,"ka":10584,"klass":10585,"lled":10586,"lsb":10587,"middle":10588,"omac":10589,"ppt":10590,"patched":10591,"rsaObj":10592,"tlist":10593,"tdiv":10594,"todo":10595,"vsd":10596,"writing":10597,"xfer":10598,"}:":10599,"}<":10600,"}âľ¨":10601,"±¡":10602,"½çļĦ":10603,"½æķ°":10604,"Ã¡":10605,"É¢":10606,"æī":10607,"æĬ":10608,"è·":10609,"è¾":10610,"èĢ":10611,"èī²":10612,"è±¡":10613,"Ġ^":10614,"Ġä¸º":10615,"$>**":10616,"rea":10617,"reed":10618,"atal":10619,"atile":10620,"atural":10621,"Ġtaps":10622,"stub":10623,"Ġ=======":10624,"Ġicomoon":10625,"align":10626,"aliyunsdkcore":10627,"deconstruct":10628,"determine":10629,"detector":10630,"Ġam":10631,"arm":10632,"around":10633,"arwin":10634,"lecun":10635,"Ġfname":10636,"Ġfold":10637,"Ġfspath":10638,"Ġrev":10639,"Ġreused":10640,"Ġretrie":10641,"Ġrevocation":10642,"Ġpseudo":10643,"urandom":10644,"Ġ\"!":10645,"Ġ\"+":10646,"Ġ\":":10647,"Ġ\"â":10648,"Ġ\"\"),<$":10649,"itter":10650,"Ġnm":10651,"Ġind":10652,"Ġintr":10653,"Ġba":10654,"Ġsublic":10655,"Ġslot":10656,"Ġshel":10657,"Ġsnip":10658,"Ġscheduler":10659,"asctime":10660,"Ġembed":10661,"Ġ'='":10662,"Ġdx":10663,"Ġdynam":10664,"lict":10665,"libusb":10666,"ately":10667,"entially":10668,"Ġwkb":10669,"fish":10670,"ptic":10671,"Ġmentioned":10672,"urnished":10673,"unlink":10674,"unaligned":10675,"Ġ(_)":10676,"Ġ(...)":10677,"getcontent":10678,"getenv":10679,"ism":10680,"ilt":10681,"ilities":10682,"intranet":10683,"Ġtools":10684,"cher":10685,"setResultsName":10686,"ĠTH":10687,"ĠToo":10688,"ĠTags":10689,"Ġ\"\"\"\\<$":10690,"confirm":10691,"(\")<$":10692,"izing":10693,"olatile":10694,"Ġthree":10695,"Ġthreaded":10696,"apis":10697,"apio":10698,"Ġconcurrent":10699,"Ġconsole":10700,"('{":10701,"Report":10702,"Requi":10703,"Replace":10704,"Reply":10705,"Reverse":10706,"quer":10707,"assignment":10708,"allprop":10709,"ĠSUP":10710,"ĠShow":10711,"ĠSalsa":10712,"ĠCase":10713,"ĠCipher":10714,"ĠCMD":10715,"ĠCPU":10716,"Ġ*=":10717,"Ġdeq":10718,"Ġdecrypted":10719,"Ġvlen":10720,"Ġvbtest":10721,"ĠACC":10722,"ĠAccessKey":10723,"Ġcome":10724,"Ġcoordinates":10725,"Ġrh":10726,"Ġrand":10727,"mainder":10728,"ĠFunction":10729,"ĠFinal":10730,"Ġstrs":10731,"outdent":10732,"ĠPublic":10733,"ĠPROP":10734,"peri":10735,"urlpatterns":10736,"chemy":10737,"Ġgate":10738,"prefs":10739,"pretrained":10740,"anging":10741,"initerm":10742,"ĠLinux":10743,"Ġ__|":10744,"trim":10745,"ATCH":10746,"ORY":10747,"extranet":10748,"ĠMB":10749,"ĠMet":10750,"ĠMain":10751,"addAction":10752,"fft":10753,"lowfish":10754,"ĠOb":10755,"ĠOCB":10756,"ĠValve":10757,"scrypt":10758,"qualifiers":10759,"Ġalter":10760,"Ġalign":10761,"Conver":10762,"Construct":10763,"ours":10764,"Intern":10765,"FFIX":10766,"ĠEs":10767,"ĠEither":10768,"Ġpretrained":10769,"Ġ38":10770,"Ġ302":10771,"Ġundeclared":10772,"ĠUsed":10773,"readlength":10774,"readlines":10775,"caching":10776,"INVALID":10777,"Ġxmax":10778,"Ġarrays":10779,"2048":10780,"20546":10781,"**\\<$":10782,"located":10783,"iming":10784,"ĠBER":10785,"ĠBLOCK":10786,"DED":10787,"='/":10788,"ĠNIR":10789,"mbol":10790,"maps":10791,"iring":10792,"Ġloglevel":10793,"Encrypt":10794,"Ġnewstyle":10795,"accuracy":10796,"=\"^.":10797,"Ġbuff":10798,"../":10799,"basestring":10800,"ENABLE":10801,"0100":10802,"Ġ|$)(":10803,"Typelib":10804,"TypeLib":10805,"Ġpassing":10806,"cryptography":10807,"Ġcomps":10808,"Ġcompressed":10809,"refUrl":10810,"ALGOR":10811,"compact":10812,"numerical":10813,"')),<$":10814,"maximum":10815,"parseError":10816,"iteration":10817,"iterkeys":10818,"ogr":10819,"Ġspecifies":10820,"intermediate":10821,"âĸĤ":10822,"âĸı":10823,"fixes":10824,"ispatches":10825,"Ġshooted":10826,"Ġshooting":10827,"ĠappList":10828,"rences":10829,"Ġcharge":10830,"Ġshouldn":10831,"tokenQueue":10832,"ĠContext":10833,"ĠConnect":10834,"RequestResult":10835,"Ġfunctional":10836,"tagStr":10837,"FAILED":10838,"Ġaccessed":10839,"Ġaccuracy":10840,"Ġlinear":10841,"positive":10842,"baud":10843,"closing":10844,"Fields":10845,"localctx":10846,"ĠmatchString":10847,"ĠheaderDict":10848,"Ġpywintypes":10849,"curial":10850,"Ġidentities":10851,"callDuring":10852,"Ġdoesnt":10853,"POSITE":10854,"subtrain":10855,"Ġ70":10856,"Ġ7231":10857,"documentation":10858,"TestProperty":10859,"Ġiterbytes":10860,"Ġ{}\\":10861,"Child":10862,"DATAS":10863,"DATABASE":10864,"matching":10865,"EndpointResolver":10866,"frames":10867,"distutils":10868,"Ġcodegen":10869,"OPTION":10870,"Ġentities":10871,"Ġinterpre":10872,"creation":10873,"Ġupgrade":10874,"ĠUncompressed":10875,"ĠtagStr":10876,"Ġsockets":10877,"Ġhereby":10878,"AMETERS":10879,"555":10880,"CONSTR":10881,"Copyright":10882,"Ġseem":10883,"ĠmultistatusEL":10884,"ConfigRegional":10885,"ITUDE":10886,"Ġdocstring":10887,"Ġdoctest":10888,"Ġmodes":10889,"Ġtorchvision":10890,"Ġremoves":10891,"PIO":10892,"PIPE":10893,"994":10894,"Ġretlist":10895,"SHOULD":10896,"776":10897,"DAVError":10898,"tracking":10899,"AppAuthor":10900,"00000":10901,"constrained":10902,"3696":10903,"Ġexponent":10904,"NOTE":10905,"lastmodified":10906,"ASGI":10907,"âĶĥ":10908,"lectra":10909,"multistatusEL":10910,"syscall":10911,"InfoResult":10912,"Ġimmutable":10913,"Ġfinish":10914,"SUFFIX":10915,"Ġwants":10916,"Ġqv":10917,"connected":10918,"ĠdestUrl":10919,"ObjectResult":10920,"Ġassoc":10921,"Ġfuncs":10922,"Ġciphertexts":10923,"QUERY":10924,"ĠPyOpenSSL":10925,"2676":10926,"MDL":10927,"ĠDerBit":10928,"ĠGetBuildFor":10929,"planes":10930,"Ġ\".\".":10931,"sysconfig":10932,"Ġnormalized":10933,"ĠchildRes":10934,"0857":10935,"521":10936,"Ġ',',":10937,"COMTest":10938,"crcValue":10939,"ĠRequestMethods":10940,"plaintexts":10941,"Ġaccessing":10942,"ILL":10943,"070":10944,"Ġmacro":10945,"Ġmacros":10946,"BaseClass":10947,"8616":10948,"ĠDEK":10949,"Ġdifferential":10950,"Ġsuccessflag":10951,"Ġsummarize":10952,"Ġ'_',":10953,"4918":10954,"ĠBaseDatabase":10955,"distributions":10956,"Ġ\"/\"):<$":10957,"uredData":10958,"myobject":10959,"9758":10960,"sockopt":10961,"aef":10962,"istration":10963,"retryable":10964,"Ġinterfaces":10965,"ĠChange":10966,"Sublabel":10967,"versal":10968,"staticfiles":10969,"Ġfixup":10970,"Ġcleanup":10971,"Ġmimetypes":10972,"Ġarchitecture":10973,"propfind":10974,"Struct":10975,"Caseless":10976,"blue":10977,"Ġopcode":10978,"ĠpropNames":10979,"ĠCommandError":10980,"Ġnecessarily":10981,"platforms":10982,"repoRoot":10983,"patParser":10984,"retval":10985,"ciphertexts":10986,"CRYPT":10987,"1015":10988,"ĠUnsupportedExtension":10989,"ĠWSGIServer":10990,"Ġattempts":10991,"Ġsell":10992,"primitive":10993,"Ġconflicts":10994,"transcrypt":10995,"ĠHyperGraph":10996,"sqlite":10997,"FILTER":10998,"PercentLt":10999,"veloper":11000,"ĠClientException":11001,"accumNames":11002,"mixed":11003,"=\"\",<$":11004,"rbracket":11005,"ResourceProvider":11006,"icrosoft":11007,"softmax":11008,"clickjacking":11009,"Ġflush":11010,"ĠThread":11011,"HOME":11012,"]=='":11013,"mimeencoding":11014,"Ġwhom":11015,"QueryInterface":11016,"Ġ===================================================================<$":11017,"BACKOFF":11018,"åĩ½æķ°":11019,"(\",\")<$":11020,"Alive":11021,"Ġppnode":11022,"FIND":11023,"OptionsMiddleware":11024,"terministic":11025,"ffffffffffffffff":11026,"Ġecparams":11027,"Ġ2016":11028,"Ġentitytag":11029,"ĠTracebackType":11030,"Ġactivelock":11031,">\\<":11032,"davmount":11033,"MISSING":11034,"singleL":11035,"ĠcollectionUrl":11036,"Ġexpire":11037,"Ġexpired":11038,"Ġcommas":11039,"********************************":11040,"Ġpersons":11041,"Ġ\"..\",":11042,"intainer":11043,"permut":11044,"REMOTE":11045,"å¯¹è±¡":11046,"AndAES":11047,"Quality":11048,"ĠSocketError":11049,"ĠZeroDivisionError":11050,"SigScheme":11051,"ä¿¡":11052,"âĸĵâĸĵâĸĵâĸĵ":11053,"æĹ¥":11054,"ĠDecrypt":11055,"ĠBackend":11056,"saltval":11057,"ĠIMPLICIT":11058,"20746":11059,"NIRCorr":11060,"pushButton":11061,"ĠWithout":11062,"Ġlexer":11063,"(\"'%":11064,"7777777":11065,"57220546":11066,"Ġprecedence":11067,"rsaKeyPEM":11068,"balance":11069,"hideColumn":11070,"Modulus":11071,"Printer":11072,"converter":11073,"ĠMarkup":11074,"management":11075,"DeclHandler":11076,"6172676":11077,"MESSAGE":11078,"ĠWARNING":11079,"ĠprimKey":11080,"ç¤ºè¯»åıĸ":11081,"6979":11082,"å¸¸":11083,"Container":11084,"ĠConverts":11085,"ĠrepoRoot":11086,"Ġinherit":11087,"ĠCache":11088,"ĠFTDI":11089,"ĠPARAMETERS":11090,"30914":11091,"ĠpropNameList":11092,"Digite":11093,"SCHEME":11094,"Ġutili":11095,"SECURE":11096,"ĠAlreadyFinalized":11097,"Ġconcatenated":11098,"6579":11099,"åģľ":11100,"Ġ'[*]":11101,"ĠOPTIONS":11102,"Ġpropupdatemethod":11103,"è¿Ľåº¦":11104,"ìľ¼ë¡ľ":11105,"={}):<$":11106,"BEGIN":11107,"regularizer":11108,"å¼Ĥå¸¸":11109,"éĥ¨":11110,"materials":11111,"ĠProtocolError":11112,"transpose":11113,"ä¿ĿçķĻ":11114,"Ġ##################################################<$":11115,"Ġpotentially":11116,"Ġsingular":11117,"ProgramData":11118,"REFERER":11119,"53697":11120,"DsaSigScheme":11121,"XFrameOptionsMiddleware":11122,"Ġsublicense":11123,"Ġshelve":11124,"ĠPROPFIND":11125,"callDuringTry":11126,"DATASET":11127,"ConfigRegionalEndpointResolver":11128,"ĠDerBitString":11129,"572205468616":11130,"6172676572205468616":11131,"\"(":11132,"\"',":11133,"\"##":11134,"\"(?":11135,"$',":11136,"(.":11137,")\"\"\"<$":11138,")}<$":11139,",-":11140,".',":11141,"148":11142,"517":11143,"700":11144,"876":11145,"948":11146,";\")<$":11147,"Av":11148,"AINT":11149,"BIN":11150,"Bert":11151,"CA":11152,"CESS":11153,"Cancel":11154,"DN":11155,"DTR":11156,"Email":11157,"Gu":11158,"GOC":11159,"GENER":11160,"Http":11161,"JK":11162,"Mac":11163,"MLE":11164,"Microsoft":11165,"NODE":11166,"Packet":11167,"Pitch":11168,"Que":11169,"Sun":11170,"Score":11171,"Shape":11172,"Shot":11173,"TZ":11174,"Tok":11175,"Tool":11176,"TAB":11177,"Timer":11178,"Video":11179,"WK":11180,"When":11181,"Yet":11182,"[%":11183,"_/":11184,"cript":11185,"cRot":11186,"did":11187,"dup":11188,"dtr":11189,"darwin":11190,"fB":11191,"fingerprint":11192,"gf":11193,"gates":11194,"gently":11195,"hang":11196,"hard":11197,"haps":11198,"ii":11199,"iel":11200,"lder":11201,"mro":11202,"mmar":11203,"npy":11204,"ngrams":11205,"pot":11206,"play":11207,"priv":11208,"qt":11209,"rfile":11210,"sx":11211,"sse":11212,"today":11213,"wik":11214,"xFE":11215,"zz":11216,"zfill":11217,"|%":11218,"}/":11219,"}}":11220,"}_{":11221,"¸ë":11222,"Ðµ":11223,"ÑĢ":11224,"Ñģ":11225,"åĻ":11226,"åľ":11227,"æ°":11228,"çī":11229,"èĬ":11230,"Ġ$":11231,"Ĳè":11232,"Ĺı":11233,"sect":11234,"series":11235,"inite":11236,"reject":11237,"replot":11238,"onts":11239,"onential":11240,"Ġtgt":11241,"Ġtaking":11242,"star":11243,"enate":11244,"ench":11245,"Ġic":11246,"alo":11247,"always":11248,"Ġaf":11249,"met":11250,"Ġcd":11251,"Ġcm":11252,"Ġclause":11253,"Ġcamera":11254,"leting":11255,"Ġfolder":11256,"Ġreported":11257,"Ġresemb":11258,"Ġplist":11259,"Ġpump":11260,"Ġpdb":11261,"Ġpieces":11262,"Ġpalette":11263,"Ġpytest":11264,"urlap":11265,"ante":11266,"Ġ\"))<$":11267,"Ġ\"%(":11268,"robotparser":11269,"roadcast":11270,"Ġnaming":11271,"Ġincre":11272,"Ġinvert":11273,"Ġbran":11274,"Ġbtn":11275,"ĠbmRequestType":11276,"Ġsr":11277,"Ġss":11278,"Ġsli":11279,"Ġsay":11280,"asGroup":11281,"mpjpe":11282,"Ġoth":11283,"Ġoss":11284,"Ġ'(":11285,"atever":11286,"Ġmal":11287,"Ġmutable":11288,"pep":11289,"otor":11290,"rable":11291,"ris":11292,"unget":11293,"under":11294,"unix":11295,"Ġissuer":11296,"\"\"<$":11297,"illa":11298,"servers":11299,"._.":11300,"elve":11301,"elap":11302,"chron":11303,"ssue":11304,"odetic":11305,"erspectral":11306,"strlen":11307,"lax":11308,"ĠTF":11309,"ĠTrain":11310,"ĠTHE":11311,"ĠTrunc":11312,"consume":11313,"Ġhot":11314,"olar":11315,"Ġcont":11316,"Ġconv":11317,"ReLU":11318,"quare":11319,"Ġexcluded":11320,"Ġexpose":11321,"ability":11322,"abilities":11323,"()['":11324,"()[:":11325,"())))<$":11326,"ĠSI":11327,"ĠSU":11328,"ĠSent":11329,"ĠSkip":11330,"ĠSchema":11331,"ĠSingle":11332,"ĠSQUARE":11333,"ĠIdent":11334,"ĠIssue":11335,"ĠCall":11336,"ĠCRU":11337,"Ġdelay":11338,"Ġdecor":11339,"ĠActions":11340,"matmul":11341,"Ġcoefficients":11342,"machine":11343,"master":11344,"macos":11345,"ĠFind":11346,"ĠFrame":11347,"ĠFirst":11348,"ĠFixed":11349,"ĠPip":11350,"ĠPrivate":11351,"ĠDownload":11352,"etail":11353,"Ġtech":11354,"assertItems":11355,"applies":11356,"preserve":11357,"preprocessing":11358,"presen":11359,"prereleases":11360,"prediction":11361,"Ġmem":11362,"fileName":11363,"ATORS":11364,"pytorch":11365,"resolution":11366,"ĠMS":11367,"ĠMand":11368,"STEM":11369,"STOPBITS":11370,"ĠĠĠĠĠĠĠĠĠĠĠĠĠĠĠĠĠĠĠĠĠĠĠĠĠĠĠĠĠĠĠĠĠĠĠĠĠĠĠĠĠĠĠĠĠĠĠĠĠĠĠ":11371,"additional":11372,"ĠOpt":11373,"ĠOver":11374,"ĠOper":11375,"Ġwhy":11376,"modify":11377,"moud":11378,"Ġyiel":11379,"ERO":11380,"Inline":11381,"Include":11382,"Invoke":11383,"Insensitive":11384,"':'":11385,"ĠEmail":11386,"Ġunchanged":11387,"ESP":11388,"Ġtimestamp":11389,"MEMB":11390,"Ġtesting":11391,"illary":11392,"ĠNeed":11393,"typing":11394,"minute":11395,"Ġbug":11396,"Ġsoft":11397,"010":11398,"\"])":11399,"IDTH":11400,"logy":11401,"Ġheatmap":11402,"Ġdistinct":11403,"Ġcompliant":11404,"Ġlocate":11405,"Ġlocust":11406,"ĠRho":11407,"ARGET":11408,"linux":11409,"writelines":11410,"')[":11411,"ardless":11412,"iterator":11413,"FORMATS":11414,"104":11415,"Progress":11416,"cluding":11417,"fixers":11418,"Ġneither":11419,"rendered":11420,"reement":11421,"Ġtran":11422,"Ġ63":11423,"Ġ600":11424,"SIO":11425,"SIX":11426,"ðŁķ":11427,"TEGER":11428,"Ġaccur":11429,"Ġchecksum":11430,"Ġvalidator":11431,"ĠExpected":11432,"calls":11433,"POLIC":11434,"GetType":11435,"submit":11436,"Ġ73":11437,"Ġiteration":11438,"Ġposn":11439,"Unicode":11440,"Unverified":11441,"jectory":11442,"Ġopenusb":11443,"ĠHTTPException":11444,"Buffer":11445,"Ġ107":11446,"Strings":11447,"Ġstatements":11448,"Ġ--<$":11449,"ĠYEAR":11450,"LIM":11451,"Ġable":11452,"Ġintersection":11453,"Ġintersect":11454,"tables":11455,"Ġindexbytes":11456,"Ġcertifi":11457,"manifest":11458,"ĠUnable":11459,"filenames":11460,"407":11461,"Settings":11462,"Ġseek":11463,"Ġregardless":11464,"quotes":11465,"protocols":11466,"Ġgenerally":11467,"999":11468,"mplements":11469,"filesystem":11470,"184":11471,"trast":11472,"levelname":11473,"bidirectional":11474,"installation":11475,"Ġadvance":11476,"popleft":11477,"468":11478,"Ġfiltering":11479,"ï¼Ī":11480,"ï¼ī":11481,"rfView":11482,"makefile":11483,"Ġrobotparser":11484,"Ġdownloading":11485,"resolved":11486,"ĠProxy":11487,"ĠProject":11488,"ROW":11489,"Ġmarkers":11490,"ĠQtGui":11491,"they":11492,"stdin":11493,"Ġcookielib":11494,"executor":11495,"LengthValidator":11496,"preds":11497,"Chain":11498,"åĪ°":11499,"727":11500,"warnings":11501,"Ġevaluated":11502,"limiters":11503,"ĠCombine":11504,"ĠGeneric":11505,"ĠDEPRECATED":11506,"Ġskipped":11507,"})\".":11508,"Ġ\"/\"":11509,"ĠCreates":11510,"ĠFileOpen":11511,"ighted":11512,"Numeric":11513,"Ġspaces":11514,"ä»»":11515,"Ġauthenticate":11516,"versible":11517,"æĸ°":11518,"æĸ¹":11519,"restype":11520,"PassBandEdit":11521,"PROJECT":11522,"PROCESS":11523,"å¤©":11524,"Ġpages":11525,"Ġrepresenting":11526,"Ġpause":11527,"ificationContext":11528,"MessageMiddleware":11529,"ivationFunction":11530,"BLOCKS":11531,"COOK":11532,"swap":11533,"âĶĪâĶĪâĶĪ":11534,"timezones":11535,"aBASSHeader":11536,"Ġdecimal":11537,"ĉĉĉĉĉ":11538,"ĠSerial":11539,"sentences":11540,"Ġlanguages":11541,"SessionMiddleware":11542,"åŃĺ":11543,"Ġ]')<$":11544,"Ġprevents":11545,"Ġoptimization":11546,"ðŁĮķðŁĮķðŁĮķðŁĮķ":11547,"Ġsense":11548,"Metrics":11549,"VARIABLE":11550,"creenShot":11551,"carri":11552,"å¯Ĩ":11553,"BACKGRO":11554,"DESCRIPT":11555,"(\"-\")<$":11556,"Ġbehaviour":11557,"ĠDistutilsOption":11558,"LOGGER":11559,"Minimum":11560,"Ġexports":11561,"StatusProvider":11562,"Ġhyphens":11563,"mayIndexError":11564,"ĠLogEntry":11565,"authentication":11566,"authenticator":11567,"rdtr":11568,"consumption":11569,"OperationalError":11570,"Ġeasy":11571,"Ġdotted":11572,"å°Ĩ":11573,"Document":11574,"Ġ\"{}\"":11575,"Ġsimilarly":11576,"ëĤ´":11577,"ĠAttempt":11578,"Ġindicate":11579,"Account":11580,"activate":11581,"ĠConnectionPool":11582,"Cursor":11583,"JSONField":11584,"ĠBackport":11585,"lligently":11586,"ĠTransform":11587,"ĠAuthentic":11588,"VerificationContext":11589,"Ġdigital":11590,"concatenate":11591,"Ġdiscarded":11592,"Ġreduced":11593,"ĠbadTimes":11594,"atteryProvider":11595,"quotedString":11596,"ĠEndpoint":11597,"(\"*\")<$":11598,"InstallRequirement":11599,"VALIDATORS":11600,"Ġinvolve":11601,"CommonMiddleware":11602,"GROUP":11603,"ĠPosition":11604,"tinuousFlow":11605,"({\"_":11606,"Ġholds":11607,"ĠSpatialReference":11608,"ĠWorks":11609,"AuthenticationMiddleware":11610,"LightLineEdit":11611,"Annotation":11612,"overridden":11613,"Ġgrammar":11614,"Ġcanonicalized":11615,"passphrase":11616,"ĠDefine":11617,"åı¯ä»¥":11618,"SecurityMiddleware":11619,"DerivationFunction":11620,"\\___|_|":11621,"Ġdetermined":11622,"Ġbaudrate":11623,"ExecutionError":11624,"CsrfView":11625,"éĶĻ":11626,"Ġripple":11627,"plugins":11628,"EXTENSIONS":11629,"èĥ½":11630,"Ġcoreschema":11631,"provided":11632,"Ġcodename":11633,"EXTRACTED":11634,"Stamp":11635,"periment":11636,"Internet":11637,"97583":11638,"DATASETS":11639,"GOCAD":11640,"NODELAY":11641,"Tokens":11642,"cRotator":11643,"åĻ¨":11644,"Ġresembles":11645,"Ġothers":11646,"elapsed":11647,"ĠCRUDRouter":11648,"assertItemsEqual":11649,"moudle":11650,"Ġyielded":11651,"MEMBER":11652,"POLICY":11653,"ĠFileOpener":11654,"creenShotBot":11655,"BACKGROUND":11656,"DESCRIPTOR":11657,"ĠDistutilsOptionError":11658,"CsrfViewMiddleware":11659,"\"/":11660,"$\"))<$":11661,"'d":11662,"'}":11663,")%":11664,")`<$":11665,",),<$":11666,"-\"":11667,"-=":11668,"452":11669,"82":11670,"94":11671,":')<$":11672,"=\\\"":11673,">/":11674,"Ag":11675,"ADE":11676,"Access":11677,"BP":11678,"Bytes":11679,"Bound":11680,"BSD":11681,"BORDER":11682,"Cors":11683,"Clicked":11684,"Dr":11685,"Driver":11686,"Duplicate":11687,"Dosing":11688,"EP":11689,"Ep":11690,"Egg":11691,"Efficient":11692,"FT":11693,"Foo":11694,"Ftdi":11695,"GF":11696,"GUID":11697,"LP":11698,"MA":11699,"MutableMapping":11700,"NA":11701,"Ne":11702,"OB":11703,"Opt":11704,"Over":11705,"Pri":11706,"PTR":11707,"Plots":11708,"QHBoxLayout":11709,"RD":11710,"Ro":11711,"Sum":11712,"Some":11713,"TG":11714,"TCP":11715,"UV":11716,"VB":11717,"VM":11718,"VOC":11719,"VIIR":11720,"XE":11721,"[\\":11722,"\\'":11723,"\\\":":11724,"\\__,":11725,"`][":11726,"bH":11727,"bt":11728,"bz":11729,"but":11730,"bined":11731,"btn":11732,"city":11733,"cancel":11734,"cClean":11735,"dk":11736,"ders":11737,"dposes":11738,"fns":11739,"gather":11740,"hid":11741,"hget":11742,"jj":11743,"mc":11744,"mse":11745,"margin":11746,"oct":11747,"ple":11748,"pitem":11749,"qos":11750,"rink":11751,"scode":11752,"tg":11753,"vrd":11754,"wt":11755,"wan":11756,"wlock":11757,"wgt":11758,"xd":11759,"xf":11760,"xce":11761,"you":11762,"yaml":11763,"za":11764,"±Ĥ":11765,"·»":11766,"Ð¸":11767,"å·":11768,"åĨ":11769,"åī":11770,"åĤ¨":11771,"çł":11772,"Ġul":11773,"Ġvirtual":11774,"Ġlifecycle":11775,"ĠåĲĪ":11776,"Ġå°Ĩ":11777,"Ħä¿ĿçķĻ":11778,"Ķë":11779,"ĺģ":11780,"ļĲè":11781,"$>'''<$":11782,"sequ":11783,"invoke":11784,"included":11785,"recent":11786,"revoked":11787,"atory":11788,"ering":11789,"eration":11790,"erous":11791,"Ġtla":11792,"Ġtab":11793,"stre":11794,"enus":11795,"enforce":11796,"seline":11797,"selves":11798,"Ġign":11799,"Ġicons":11800,"alter":11801,"demod":11802,"Ġcn":11803,"Ġcues":11804,"Ġfeed":11805,"Ġfrequ":11806,"Ġfrac":11807,"Ġfurnished":11808,"Ġrepro":11809,"Ġrevoked":11810,"Ġpc":11811,"Ġpid":11812,"Ġphoto":11813,"tell":11814,"anums":11815,"ctic":11816,"rounding":11817,"Ġna":11818,"ĠbFor":11819,"Ġsong":11820,"Ġsolve":11821,"Ġscient":11822,"Ġsatellite":11823,"mplots":11824,"Ġ#\"":11825,"Ġolder":11826,"Ġ'`":11827,"Ġ'...":11828,"Ġdn":11829,"Ġdang":11830,"Ġdyn":11831,"Ġdrive":11832,"Ġduplicates":11833,"adv":11834,"fixture":11835,"coco":11836,"covid":11837,"copg":11838,"coffset":11839,"ptcha":11840,"Ġmiddle":11841,"pes":11842,"pell":11843,"otion":11844,"unexpected":11845,"Ġiso":11846,"Ġisolated":11847,"idtracking":11848,"Ġforcing":11849,"isdig":11850,"isChecked":11851,"serv":11852,"Ġtogether":11853,"Ġdefines":11854,"Ġanalog":11855,"thres":11856,"dited":11857,"setEnabled":11858,"setStyleSheet":11859,"ĠTri":11860,"keyid":11861,"keyword":11862,"consumed":11863,"Ġhad":11864,"Ġhav":11865,"Ġhmac":11866,"olate":11867,"Ġconsum":11868,"('{}":11869,"('%(":11870,"('*')<$":11871,"Rest":11872,"Ġ19":11873,"pov":11874,"abis":11875,"ablis":11876,"Ġlt":11877,"Ġ----------<$":11878,"tou":11879,"verification":11880,"verbs":11881,"():":11882,"Ġ[{":11883,"Ġ[('":11884,"ĠSave":11885,"ĠSIO":11886,"ĠStyle":11887,"ĠIts":11888,"ĠCI":11889,"ĠCurrent":11890,"ĠCannot":11891,"ĠCreating":11892,"ĠCORS":11893,"ipy":11894,"ippo":11895,"andb":11896,"andy":11897,"Ġugettext":11898,"Ġusb":11899,"ctionaries":11900,"asepitem":11901,"Ġdelimiters":11902,"ĠAct":11903,"ĠAns":11904,"###":11905,"Ġ:-":11906,"Ġ::":11907,"Ġstark":11908,"Ġstuff":11909,"Ġcost":11910,"Ġcolo":11911,"Ġcoefficient":11912,"Ġcoordinate":11913,"Ġcoerce":11914,"Ġcovered":11915,"005":11916,"0002":11917,"Ġrc":11918,"ĠFl":11919,"ĠFOR":11920,"ĠFROM":11921,"Ġstrategy":11922,"protected":11923,"ĠPo":11924,"ĠPRO":11925,"expref":11926,"usion":11927,"Ġ`%":11928,"Ġ`_":11929,"period":11930,"Ġsear":11931,"Ġgas":11932,"Ġgone":11933,"Ġgdb":11934,"predi":11935,"preargs":11936,"heroot":11937,"msgs":11938,"icall":11939,"ĠLay":11940,"ĠLRU":11941,"trict":11942,"trials":11943,"pypa":11944,"Ġdictionaries":11945,"tached":11946,"resolver":11947,"Ġexcepted":11948,"ople":11949,"),'":11950,"STRE":11951,"Ġ<%":11952,"hole":11953,"holes":11954,"addLayout":11955,"ĠOGR":11956,"ĠVirtual":11957,"ĠValidate":11958,"']](":11959,"Ġalg":11960,"Inventory":11961,"ĠEm":11962,"ONLY":11963,"Ġunpack":11964,"osite":11965,"ĠWarning":11966,"2019":11967,"locate":11968,"Keyboard":11969,"ĠBB":11970,"ĠBO":11971,"ĠBY":11972,"ĠBoolean":11973,"newline":11974,"ĠtypeInfo":11975,"=''<$":11976,"ĠNormal":11977,"REE":11978,"Ġsuppress":11979,"ivity":11980,"Ġlogits":11981,"Ġlogged":11982,"minimum":11983,"Ġatomic":11984,"Ġattached":11985,"Ġranges":11986,"://%":11987,"....":11988,"agreement":11989,"Ġ|_":11990,"daily":11991,"Expi":11992,"ĠInsert":11993,"ĠInstance":11994,"TypeDesc":11995,"TypeComboBox":11996,"Ġresolution":11997,"Ġ45":11998,"chardet":11999,"wavelength":12000,"Ġcomput":12001,"Ġcomposite":12002,"323":12003,"ĠRange":12004,"ĠRNN":12005,"linked":12006,"configure":12007,"methodtrace":12008,"Ġ>>=":12009,"Ġnome":12010,"ouse":12011,"oute":12012,"Ġshuffle":12013,"Ġshrink":12014,"rence":12015,"Ġbackslash":12016,"antic":12017,"antics":12018,"Ġcoll":12019,"Ġcollis":12020,"Parsed":12021,"\"):":12022,"562":12023,"eps":12024,"epend":12025,"counts":12026,"Demand":12027,"Ġaccel":12028,"Ġ/*":12029,"Ġaddresses":12030,"selection":12031,"Ġstartup":12032,"Ġ57":12033,"streaming":12034,"ĠoneOf":12035,"Ġtextstr":12036,"Ġpyproject":12037,"Ġzf":12038,"Ġzoom":12039,"ĠExec":12040,"ĠExpression":12041,"printables":12042,"docinfo":12043,"Ġsubstring":12044,"Ġsubsequ":12045,"Ġreadonly":12046,"ĠSecond":12047,")))":12048,"matchWhite":12049,"Anal":12050,"Ġverifier":12051,"Ġallowing":12052,"Ġperms":12053,"Ġpercent":12054,"Ġtranslation":12055,"Ġtransforms":12056,"SEP":12057,"tempdir":12058,"Ġabs":12059,"Ġintercept":12060,"ĠKeyDerivationFunction":12061,"forever":12062,"Ġupon":12063,"Ġupgr":12064,"=[],<$":12065,"UNSUPPORTED":12066,"gingResult":12067,"Ġcerts":12068,"Notice":12069,"NotOperationalError":12070,"Ġtargetpath":12071,"Ġcacheable":12072,"CONN":12073,"380":12074,"scriptData":12075,"scriptors":12076,"returns":12077,"Ġ1000000":12078,"Ġ10054":12079,"PIP":12080,"Ġderived":12081,"âĸĪ\\":12082,"Ġtrack":12083,"Ġtraversal":12084,"specifier":12085,"traction":12086,"traversed":12087,"ä¸į":12088,"ĠDetermine":12089,"bidir":12090,"Ġcorrection":12091,"Ġcurrency":12092,"Ġselector":12093,"mailto":12094,"HTTPServer":12095,"rsv":12096,"ĠwriteByte":12097,"Ġbuilds":12098,"ometries":12099,"ConnectionPool":12100,"ModelMixin":12101,"both":12102,"menus":12103,"Ġroute":12104,"Objects":12105,"ObjectPtr":12106,"CSV":12107,"Ġsequences":12108,"Ġsavepath":12109,"Ġassignment":12110,"normalized":12111,"ĠexceptionAction":12112,"UserAttribute":12113,"titles":12114,"åı·":12115,"åıĳ":12116,"theme":12117,"ĠPyPy":12118,"executing":12119,"Statement":12120,"Checker":12121,"RCNN":12122,"Starting":12123,"postrelease":12124,"Ġ...)<$":12125,"colorbar":12126,"ENTA":12127,"584":12128,"identifiers":12129,"Ġìł":12130,"Ġenumerator":12131,"Ġevaluation":12132,"Ġ','.":12133,"serialization":12134,"Ġ'__|":12135,"HTMLE":12136,"âĢĿ":12137,"finalized":12138,"anks":12139,"ERRORS":12140,"Ġfollowed":12141,"Ġaccessible":12142,"NTLM":12143,"ĠCommon":12144,"PyVariant":12145,"PyCOMTest":12146,"Created":12147,"ìĿĢ":12148,"ĠsuccessAction":12149,"Ġcharacteristic":12150,"Ġagreed":12151,"Ġ<<=":12152,"IPV":12153,"Identity":12154,"ĠBaseSSLError":12155,"Ġ\"/*":12156,"ĠCreateEvent":12157,"ĠnamedItems":12158,"skipWhitespace":12159,"LINEST":12160,"Ġtrimmed":12161,"LegacyVersion":12162,"ĠAllow":12163,"Ġquad":12164,"AGON":12165,"Ġpeople":12166,"Reflectance":12167,"Ġnesting":12168,"Symbol":12169,"torchdata":12170,"tarinfo":12171,"ĠSSLv":12172,"ĠSSLError":12173,"ĠExamples":12174,"QtCore":12175,"ĠquoteChar":12176,"Ġprotocols":12177,"ĠInvalidKey":12178,")->":12179,"ClientError":12180,"PassArg":12181,"ĠISO":12182,"å¤´":12183,"Ġdimensions":12184,"Ġmodifying":12185,"CUDNN":12186,"ãĢĤ\"\"\"<$":12187,"Ġordin":12188,"NOTFOUND":12189,"Ġwidgets":12190,"ReadError":12191,"ĠJSONRPC":12192,"\">%":12193,"Ã©e":12194,"Dispatcher":12195,"tlb":12196,"Ġpopulation":12197,"Ġbuilding":12198,"cycle":12199,"cygwin":12200,"(',')<$":12201,"åħĥ":12202,"digital":12203,")+\"":12204,"StreamHandler":12205,"DDDD":12206,"ĠSystemNotOperationalError":12207,"Ġoccurrences":12208,"ĠSeaBASSWriter":12209,"Ġturns":12210,"Ġstoragecon":12211,"WhitespaceEscape":12212,"è®¾ç½®":12213,"Ġhyperspectral":12214,"Ġpreserved":12215,"RSAPublicKey":12216,"Ġpurposes":12217,"LUE":12218,"ĠDISPATCH":12219,"ĠQueryDict":12220,"WWW":12221,"pubs":12222,"twelve":12223,"Ġpower":12224,"WriteError":12225,"WriteReport":12226,"æį¢":12227,"ĠMessageEntity":12228,"åĩºæĿ":12229,"ĠInstallationError":12230,"åŃĹèĬ":12231,"AUTHOR":12232,"ĠInputs":12233,"URCE":12234,"å¦Ĥæŀľ":12235,"Changed":12236,"FFFFFFF":12237,"æİ¥åı":12238,"Ġscaled":12239,"ĠFormatter":12240,"Visitor":12241,"Ġinternet":12242,"Ġinternally":12243,"ĠAdmin":12244,"Ġrotate":12245,"(\"*\"):<$":12246,"æĮĩå®ļåĪĹ":12247,"backwards":12248,"CommonPasswordValidator":12249,"åĲįç§":12250,"dura":12251,"çĽ¸":12252,"managed":12253,"BYTE":12254,"æŃ£":12255,"è§Ħä¿ĿçķĻ":12256,"semble":12257,"Ġtuned":12258,"Ġdescriptions":12259,"commasepitem":12260,"ĠWraps":12261,"ĠBitSequence":12262,"Ġ'{}'\".":12263,"ISTS":12264,"Ports":12265,"Sentinel":12266,"WantReadError":12267,"WantWriteError":12268,"peekable":12269,"DISPATCH":12270,"ëĤĺìĿĺ":12271,"Decrypt":12272,"MAGENTA":12273,"Similarity":12274,"music":12275,"warded":12276,"Ġbrowsers":12277,"Ġdevelopment":12278,"Ġattacks":12279,"BLACKLIST":12280,"PrivateFormat":12281,"PostCode":12282,"Ġè®¾ç½®åĪĹ":12283,"MiB":12284,"ZipFile":12285,"large":12286,"normpath":12287,"éĿ¢":12288,"Ġestablis":12289,"possibly":12290,"Ġalternative":12291,");\\":12292,"Power":12293,"TPFLAGS":12294,"dlName":12295,"Ġmarked":12296,"ĠAsymmetricPadding":12297,"ALLOWED":12298,"TRANS":12299,"Ġspellings":12300,"PROPERTYGET":12301,"IBUT":12302,"feedforward":12303,"StatResult":12304,"ĠSTATUS":12305,"alphabetic":12306,"PlatformError":12307,"contiguous":12308,"ĠClose":12309,"ĠProbably":12310,"GetBucketReplication":12311,"çŃĸçķ¥çļĦ":12312,"Elliptic":12313,"Skipping":12314,"æ¯ı":12315,"ĠéļĲè":12316,"$>################################################################":12317,"Ġguar":12318,"ĠStructuredData":12319,"PushButton":12320,"Ġintrins":12321,"Ġdynamically":12322,"ĠTHIS":12323,"ReverseMatch":12324,"ĠSUPPORTED":12325,"baudrate":12326,"Ġinterpreters":12327,"CONSTRAINT":12328,"çīĩ":12329,"ĹıæĮĩå®ļåĪĹ":12330,"ĠIdentifier":12331,"Ġtechn":12332,"InsensitiveDict":12333,"GetTypeAttr":12334,"NumericPasswordValidator":12335,"ä»»åĬ¡":12336,"MinimumLengthValidator":12337,"éĶĻè¯¯":12338,"MEMBERNOTFOUND":12339,"EfficientNet":12340,"VOCAB":12341,"·»åĬł":12342,"çłģ":12343,"ĠåĲĪè§Ħä¿ĿçķĻ":12344,"Ġscientific":12345,"Ġdangerous":12346,"isdigit":12347,"Ġhaven":12348,"Ġsubsequent":12349,"Ġupgrading":12350,"UserAttributeSimilarity":12351,"HTMLEntity":12352,"LINESTATE":12353,"WhitespaceEscapes":12354,"åĲįç§°":12355,"Ġestablished":12356,"EllipticCurve":12357,"ĠéļĲèĹıæĮĩå®ļåĪĹ":12358,"CONSTRAINTS":12359,"ĠåĲĪè§Ħä¿ĿçķĻçŃĸçķ¥çļĦ":12360,"UserAttributeSimilarityValidator":12361,"!#":12362,"!\".":12363,"\"(?:":12364,"$\")<$":12365,"'<":12366,"'m":12367,"'',":12368,"(\"\"\"<$":12369,")=":12370,")(\"":12371,")],<$":12372,"*/<$":12373,"+(":12374,"+')<$":12375,",%":12376,"./":12377,"/'<$":12378,"356":12379,"470":12380,"598":12381,"656":12382,"74":12383,"786":12384,"=':":12385,">.<$":12386,">\",":12387,"Basic":12388,"Cy":12389,"Car":12390,"COD":12391,"CFA":12392,"Dense":12393,"DCB":12394,"DWORD":12395,"Detail":12396,"EAD":12397,"Embedding":12398,"Fr":12399,"Fill":12400,"Frequency":12401,"GN":12402,"Hint":12403,"Hub":12404,"Hidden":12405,"Jo":12406,"Kind":12407,"Let":12408,"Long":12409,"Lines":12410,"Mismatch":12411,"NG":12412,"Nx":12413,"NAL":12414,"Null":12415,"NGE":12416,"NAM":12417,"OU":12418,"QI":12419,"QIcon":12420,"RT":12421,"Rad":12422,"RAN":12423,"Sm":12424,"SAT":12425,"Supported":12426,"Single":12427,"Section":12428,"Trial":12429,"UB":12430,"UCT":12431,"Utf":12432,"VC":12433,"Vec":12434,"WE":12435,"WQ":12436,"Welcome":12437,"WHITE":12438,"WIDTH":12439,"XL":12440,"Yk":12441,"ZERO":12442,"]/":12443,"].<$":12444,"_:<$":12445,"_):<$":12446,"_',":12447,"_()<$":12448,"_{}'.":12449,"ahead":12450,"aware":12451,"bi":12452,"big":12453,"clib":12454,"clock":12455,"called":12456,"circle":12457,"dy":12458,"dst":12459,"embed":12460,"easy":12461,"fh":12462,"fuck":12463,"glit":12464,"gpu":12465,"gathered":12466,"hr":12467,"hub":12468,"hind":12469,"higher":12470,"ios":12471,"jpg":12472,"ker":12473,"ln":12474,"lue":12475,"migration":12476,"nr":12477,"nv":12478,"qaa":12479,"rat":12480,"rho":12481,"rpm":12482,"sv":12483,"sin":12484,"soc":12485,"ti":12486,"tmpl":12487,"tabs":12488,"uates":12489,"vos":12490,"vendored":12491,"watch":12492,"wildcard":12493,"wlis":12494,"xffffffff":12495,"yes":12496,"zilla":12497,"}%":12498,"©ì":12499,"»Ñ":12500,"¿Ð¾Ð":12501,"Ðº":12502,"âĺģ":12503,"ãģ":12504,"ãĥ":12505,"ä¾":12506,"æı":12507,"çĲ":12508,"è´":12509,"èĩ":12510,"èİ·åıĸ":12511,"é¡":12512,"éĽ":12513,"ëı":12514,"ìĨ":12515,"Ġï¼ļ":12516,"Ġvec":12517,"Ĳľ":12518,"ĲìĨ":12519,"ĽĲìĨ":12520,"$>\"\"\"":12521,"inspect":12522,"instrument":12523,"inserted":12524,"reuse":12525,"recognized":12526,"Ġtk":12527,"started":12528,"ena":12529,"ented":12530,"alert":12531,"detection":12532,"Ġaff":12533,"Ġamong":12534,"mesh":12535,"mega":12536,"arse":12537,"arbage":12538,"arctic":12539,"Ġcategories":12540,"Ġfe":12541,"Ġfol":12542,"Ġfron":12543,"Ġfamily":12544,"Ġrefer":12545,"Ġrecurs":12546,"Ġreplied":12547,"Ġreplaces":12548,"Ġretrieve":12549,"Ġrelax":12550,"Ġprank":12551,"tegr":12552,"uristic":12553,"anc":12554,"anism":12555,"rolled":12556,"ceive":12557,"Ġnargs":12558,"ĠnLw":12559,"geodetic":12560,"Ġinfer":12561,"lopt":12562,"loren":12563,"ingRequest":12564,"Ġsq":12565,"Ġsal":12566,"Ġsleep":12567,"Ġsaving":12568,"asset":12569,"Ġops":12570,"Ġomega":12571,"Ġ'?":12572,"adow":12573,"adict":12574,"Ġwv":12575,"ĠwIndex":12576,"Ġwalk":12577,"coped":12578,"Ġmm":12579,"Ġmid":12580,"otrans":12581,"__))<$":12582,"__==":12583,"isatty":12584,"Ġtok":12585,"Ġangle":12586,"chanism":12587,"strs":12588,"dies":12589,"dible":12590,"setitem":12591,"settimeout":12592,"setColumn":12593,"ĠTag":12594,"ĠTuner":12595,"vey":12596,"endheaders":12597,"keywords":12598,"concurrent":12599,"constants":12600,"continuous":12601,"Ġ_|":12602,"odle":12603,"spicious":12604,"sparse":12605,"(\"__":12606,"==>":12607,"Ġthough":12608,"appro":12609,"apane":12610,"('='":12611,"('=',":12612,"uman":12613,"Ġ114":12614,"pology":12615,"Ġlsb":12616,"Ġlbl":12617,"()._":12618,"()`.":12619,"putrequest":12620,"ithreaded":12621,"Ġ[*":12622,"Ġ[['":12623,"ĠSync":12624,"ĠStrict":12625,"Ġasset":12626,"ĠIE":12627,"ĠId":12628,"ĠCatch":12629,"ĠCTR":12630,"ĠCLS":12631,"ĠCalled":12632,"Ġloops":12633,"Ġlosses":12634,"ewidth":12635,"ages":12636,"istics":12637,"listen":12638,"Ġdep":12639,"Ġvc":12640,"ĠAP":12641,"ĠAre":12642,"ĠAnd":12643,"ĠAxis":12644,"ntry":12645,"mention":12646,"Ġparallel":12647,"Ġcomplex":12648,"ĠFA":12649,"ĠFlow":12650,"ĠFunc":12651,"ĠFlat":12652,"Ġ{:.":12653,"outine":12654,"ĠDown":12655,"ĠDump":12656,"perform":12657,"Ġsections":12658,"urlparse":12659,"apple":12660,"Ġgcd":12661,"Ġgarbage":12662,"Ġproduction":12663,"angles":12664,"ĠLab":12665,"Ġ___|":12666,"ube":12667,"pyserial":12668,"pyOpenSSL":12669,"Ġdice":12670,"Ġdialog":12671,"tact":12672,"ĠMany":12673,"ĠMutableMapping":12674,"STALL":12675,"STAND":12676,"Ġ<==>":12677,"ĠOk":12678,"Ġwhatever":12679,"scrapy":12680,"more":12681,"ERCRE":12682,"Convenience":12683,"Information":12684,"ĠElement":12685,"Ġouter":12686,"Ġ301":12687,"Ġ3128":12688,"Ġ307":12689,"dated":12690,"osage":12691,"haust":12692,"imports":12693,"utility":12694,"ĠWait":12695,"2014":12696,"ĠResult":12697,"ĠRecogn":12698,"omics":12699,"imuth":12700,"KeyError":12701,"DEF":12702,"DEX":12703,"DEFIN":12704,"DELAY":12705,"Ġ**`":12706,"iller":12707,"Ġ``-":12708,"='\\":12709,"ĠNull":12710,"ansion":12711,"Ġsupply":12712,"ĠGo":12713,"ĠGather":12714,"ĠGLOBAL":12715,"ĠGPU":12716,"ĠGaussian":12717,"Ġpathname":12718,"017":12719,"\"]]<$":12720,"Ġ|<$":12721,"FORM":12722,"FORWAR":12723,"Ġlocator":12724,"324":12725,"ĠRel":12726,"ĠRed":12727,"ĠRound":12728,"ARC":12729,"terswlis":12730,"')[-":12731,"ardapio":12732,"parseAction":12733,"notice":12734,"THER":12735,"Profile":12736,"withdraw":12737,"interp":12738,"fixer":12739,"Ġcollector":12740,"doodle":12741,"Stack":12742,"saf":12743,"SIV":12744,"ðŁ§":12745,"Ġsuperset":12746,"SSLSet":12747,"ĠController":12748,"Ġlinux":12749,"Ġlinewidth":12750,"Ġaccepted":12751,"Ġaccents":12752,"authtoken":12753,"Ġ517":12754,"posix":12755,"ĠtokenMap":12756,"'.\"":12757,"304":12758,"308":12759,"gorithms":12760,"vidvrd":12761,"Ġargspec":12762,"curse":12763,"finders":12764,"Ġzxy":12765,"Ġids":12766,"Ġ78":12767,"Ġclassifier":12768,"conditional":12769,"ĠQMessageBox":12770,"Anomaly":12771,"Ġ(\"/\",":12772,"Ġverification":12773,"Ġ109":12774,"Ġperformed":12775,"Ġtransformed":12776,"Ġtranslations":12777,"SED":12778,"nome":12779,"Second":12780,"transaction":12781,"Ġ''),":12782,"currentText":12783,"ĠKeys":12784,"fileno":12785,"RIME":12786,"Ġwraps":12787,"Ġcontinues":12788,"Ġsignify":12789,"Pose":12790,"383":12791,"])]<$":12792,"visible":12793,"Ġ'%(":12794,"Ġerrcheck":12795,"Ġmultithreaded":12796,"Ġ1001":12797,"ITS":12798,"ITY":12799,"working":12800,"workers":12801,"Ġminus":12802,"Ġ&=":12803,"encodings":12804,"Ġcontained":12805,"992":12806,"ABCM":12807,"486":12808,"ĠDepth":12809,"...')<$":12810,"Ġsomeone":12811,"Ġscra":12812,"000000":12813,"Here":12814,"constellation":12815,"ĠForce":12816,"368":12817,"corpus":12818,"LAST":12819,"NOWN":12820,"Ġ'.'.":12821,"467":12822,"]]><$":12823,"discriminator":12824,"Ġplugin":12825,"symlink":12826,"370":12827,"ModelAdmin":12828,"Too":12829,"Ġdelta":12830,"primes":12831,"SUCCESS":12832,"difier":12833,"8090":12834,"expansion":12835,"Order":12836,"TextRCNN":12837,"macro":12838,"ĠConfiguration":12839,"Ġhostname":12840,"catid":12841,"catids":12842,"Ġshowed":12843,"OFT":12844,"positions":12845,"chedSignature":12846,"Ġìķ":12847,"Ġexecute":12848,"139":12849,"generic":12850,"audio":12851,"Ġleftmost":12852,"ParseError":12853,"Ġ','":12854,"Ġwordpieces":12855,"Ġrefusing":12856,"OKUP":12857,"ButtonPressed":12858,"666":12859,"395":12860,"ISO":12861,"Ġshapes":12862,"ATTRIBUT":12863,"8601":12864,"ìĿĦ":12865,"Datetime":12866,"Ġskipping":12867,"Ġourselves":12868,"è¯¥":12869,"è¯·":12870,"});":12871,"realpath":12872,"Ġfailure":12873,"á´į":12874,"Ġinstantiated":12875,"GRID":12876,"Ġ\"/\",":12877,"ĠFileNotFoundError":12878,"etachedSignature":12879,"sockname":12880,"power":12881,"ĠEngine":12882,"ä»£":12883,"ĠPreserve":12884,"Ġspecification":12885,"SigningRequest":12886,"chunks":12887,"truediv":12888,"APP":12889,"ãĢģ":12890,"Ġunicodedata":12891,"ĠCFString":12892,"ĠPOST":12893,"Ġcontrols":12894,"ĠNoReverseMatch":12895,"Ġsockopt":12896,"Serialization":12897,"PROTOCOL":12898,"Ġchoose":12899,"constructor":12900,"Ġextracts":12901,"Strategy":12902,"lru":12903,"Ġè½":12904,"Ġclip":12905,"Ġbuffering":12906,"DOWN":12907,"Websocket":12908,"Ġjoins":12909,"Ġlooks":12910,"Interfaces":12911,"switch":12912,"Ġconsist":12913,"Ġreceiver":12914,"Ġlargest":12915,"Ġpredic":12916,"Ġpredicted":12917,"fitness":12918,"struction":12919,"clusion":12920,"ĠINTEGER":12921,"Ġoccurs":12922,"Ġlowercase":12923,"Modifier":12924,"ĠUnicodeEncode":12925,"Ġeditable":12926,"Ġdeclare":12927,"ĠLoop":12928,"ĉĉĉĉĉĉ":12929,"resultsName":12930,"MODI":12931,"PYTHON":12932,"ĠModelForm":12933,"ĠWebIDLParser":12934,"MatchFirst":12935,"MOVE":12936,"RESET":12937,"WordpieceTokenizer":12938,"ĠREPO":12939,"velope":12940,"Ġsmart":12941,"Operations":12942,"Ġpersistent":12943,"Ġsender":12944,"ĠBucket":12945,"cremental":12946,"SOUND":12947,"ANDOM":12948,"Codec":12949,"å¼ķ":12950,"Ġ'{}'.":12951,"Ġwhole":12952,"QuerySet":12953,"ĠAND":12954,"ĠPYTHON":12955,"Ġswlis":12956,"Ġsuffixed":12957,"Ġxmlrpclib":12958,"Network":12959,"Ġ2017":12960,"ĠCAST":12961,"Ġwaveband":12962,"ĠPolygon":12963,"bookmark":12964,"ĠDatabaseFeatures":12965,"rdns":12966,"ĠLevel":12967,"ĠHeader":12968,"(\"\",":12969,"StopBits":12970,"StopBandEdit":12971,"Compiler":12972,"ĠGeneralName":12973,"ìŀĲ":12974,"Ġdatas":12975,"trusted":12976,"Ġterminal":12977,"ä¼ļ":12978,"Ġpatient":12979,"Ġ\"..\"))<$":12980,"ĠTakes":12981,"ĠGEOSGeometry":12982,"ĠÐ³":12983,"ĠÐ¿Ð¾Ð":12984,"Ġexactly":12985,"Ġindicates":12986,"294":12987,"æĺİ":12988,"Ġsurvey":12989,"wheels":12990,"Ġrespons":12991,"Transformer":12992,"Ġancillary":12993,"ĠPoolManager":12994,"Ġactivated":12995,"Ġdigits":12996,"pfPassBandEdit":12997,"å¾ħ":12998,"alphanums":12999,"Ġrotation":13000,"Ġindividually":13001,"____/":13002,"ĠTarFile":13003,"Ġpreceding":13004,"Ġ\"#\",":13005,"ĠVerification":13006,"ĠHMACBackend":13007,"DateTimeField":13008,"ĠquotedString":13009,"ĠPermissionDenied":13010,"durations":13011,"çĽ®":13012,"ĠAutoModel":13013,"Ġentirely":13014,"square":13015,"ê³ł":13016,"Ġdescribed":13017,"ĠunitsLine":13018,"Declar":13019,"('/')[-":13020,"folders":13021,"rtscts":13022,"ĠCorrupt":13023,"Annotations":13024,"MySQL":13025,"person":13026,"paginator":13027,"å¹¶":13028,"Classes":13029,"Notes":13030,"Ġfriends":13031,"COMPRES":13032,"Ġgradient":13033,"PumpDrive":13034,"Ġ\"@\",":13035,"ĠBertTokenizer":13036,"ĠNegative":13037,"Ġappear":13038,"RhoRadioButtonYour":13039,"Scalar":13040,"}`**":13041,"abstractmethod":13042,"ĠLocal":13043,"#]*))?":13044,"animals":13045,"Ġdenials":13046,"coords":13047,"ĠForeignKey":13048,"resolvers":13049,"ĠWKT":13050,"Expand":13051,"pruning":13052,"multiply":13053,"Ġsuccessfuly":13054,"BRACE":13055,"BatchNorm":13056,"masked":13057,"rmtree":13058,"Ġazimuth":13059,"Ġmegabytes":13060,"Ġqmixpump":13061,"PositionControllerFeature":13062,"ĠTelegram":13063,"ĠSyntax":13064,"ĠLANGS":13065,"17980":13066,"Binary":13067,"Ġ\"!\"):<$":13068,"ĠMetadata":13069,"ALGORITH":13070,"âĸĤâĸĤ":13071,"PitchRoll":13072,"SunAngle":13073,"enchmark":13074,"Ġafterswlis":13075,"ĠSentence":13076,"ESPACE":13077,"Ġtransp":13078,"Ġaccurate":13079,"LIMIT":13080,"æĸ¹å¼ı":13081,"ĠAuthenticate":13082,"Ġgrammars":13083,"cRotatorAngle":13084,"åīį":13085,"ĠAnsi":13086,"ĠFlask":13087,"ĠLayer":13088,"ĠEmulate":13089,"Ġordinarily":13090,"æŃ£åľ¨":13091,"Ġguarante":13092,"wildcards":13093,"æıĲ":13094,"çĲĨ":13095,"ĽĲìĨĮ":13096,"Ġfront":13097,"lorenz":13098,"otransform":13099,"continuousflow":13100,"apanese":13101,"ERCRED":13102,"ĠRecognition":13103,"ABCMeta":13104,"ATTRIBUTES":13105,"ĠUnicodeEncodeError":13106,"SOUNDS":13107,"!\\":13108,"\"}<$":13109,"\"*,":13110,"\"---":13111,"';":13112,"'(?:":13113,")],":13114,")[:]<$":13115,"*<$":13116,"-*.":13117,".)":13118,".\",":13119,"/~":13120,"0323":13121,"110":13122,"150":13123,"296":13124,"300":13125,"319":13126,"422":13127,"437":13128,"443":13129,"5206":13130,"62":13131,"68":13132,"615":13133,"628":13134,"6555":13135,"73696":13136,"838":13137,"857":13138,"932":13139,"907":13140,":]):<$":13141,">',":13142,"?:":13143,"?',":13144,"@!#":13145,"AAB":13146,"BIO":13147,"BINARY":13148,"Blake":13149,"CI":13150,"Custom":13151,"CLU":13152,"CATION":13153,"Click":13154,"DML":13155,"DSP":13156,"Dispatches":13157,"EDI":13158,"EGG":13159,"FD":13160,"Fl":13161,"Find":13162,"FAL":13163,"Fav":13164,"GB":13165,"GH":13166,"Given":13167,"GING":13168,"Gcm":13169,"Guess":13170,"GREEN":13171,"Good":13172,"Has":13173,"Handl":13174,"HLI":13175,"HIT":13176,"Ignore":13177,"IED":13178,"IResourceProvider":13179,"JS":13180,"Lamb":13181,"Library":13182,"Mb":13183,"Main":13184,"MIME":13185,"Nl":13186,"Nv":13187,"Nonce":13188,"Need":13189,"OJ":13190,"PR":13191,"PLE":13192,"PADD":13193,"RX":13194,"Rb":13195,"Rc":13196,"RAB":13197,"RULE":13198,"Sz":13199,"SLI":13200,"Since":13201,"SCR":13202,"Suppress":13203,"TC":13204,"TK":13205,"Total":13206,"Tuner":13207,"Vy":13208,"VAS":13209,"Volume":13210,"Who":13211,"Would":13212,"WsgiDAV":13213,"WHO":13214,"Zhang":13215,"[@":13216,"[],<$":13217,"]%":13218,"]\\":13219,"]\"<$":13220,"^{":13221,"aT":13222,"aste":13223,"bang":13224,"bInterface":13225,"browser":13226,"blake":13227,"borderwidth":13228,"cn":13229,"cte":13230,"cas":13231,"cname":13232,"cise":13233,"cdf":13234,"cgi":13235,"cbb":13236,"cLoc":13237,"camera":13238,"dw":13239,"dad":13240,"dsa":13241,"dExpr":13242,"dkl":13243,"dAnomaly":13244,"ech":13245,"eous":13246,"eeprom":13247,"electra":13248,"fname":13249,"fast":13250,"fspath":13251,"frozen":13252,"gID":13253,"grc":13254,"gdb":13255,"hresult":13256,"hbeg":13257,"half":13258,"iV":13259,"ifo":13260,"icomoon":13261,"jkl":13262,"jjf":13263,"kf":13264,"kTLS":13265,"kjj":13266,"lz":13267,"lsdk":13268,"ljs":13269,"mvalue":13270,"mality":13271,"meral":13272,"nix":13273,"nproc":13274,"nghi":13275,"nCredential":13276,"ossl":13277,"ocks":13278,"pGet":13279,"packed":13280,"ring":13281,"rsp":13282,"ratch":13283,"sf":13284,"sres":13285,"snip":13286,"sandboxed":13287,"sá´Ģ":13288,"tics":13289,"ulo":13290,"umed":13291,"vst":13292,"vtype":13293,"vbtest":13294,"volatile":13295,"wwa":13296,"xE":13297,"xz":13298,"xistent":13299,"yeb":13300,"zh":13301,"zi":13302,"}(":13303,"}-":13304,"}}\"<$":13305,"¨ë":13306,"¬æį¢":13307,"³µ":13308,"ÊŁ":13309,"áŀ":13310,"åĿ":13311,"æĶ":13312,"ç«":13313,"ç´":13314,"è°":13315,"èĮ":13316,"éħ":13317,"ìĭ":13318,"ìĪĺ":13319,"Ġå":13320,"Ġue":13321,"ĠORANGE":13322,"Ġà¶":13323,"Ġå¯¹è±¡":13324,"ĥåĽ":13325,"ĳĲ":13326,"Ľåĩº":13327,"ľ%(":13328,"Ńç»":13329,"$>-----":13330,"$>\"\"\")<$":13331,"$>~~~~~~~~":13332,"inp":13333,"inction":13334,"rem":13335,"repe":13336,"rename":13337,"rewrite":13338,"restore":13339,"repository":13340,"ercurial":13341,"Ġtro":13342,"Ġtsp":13343,"Ġtight":13344,"Ġtorrent":13345,"Ġ=========":13346,"enge":13347,"enance":13348,"Ġide":13349,"altern":13350,"aliy":13351,"aliases":13352,"deps":13353,"decipher":13354,"deprecation":13355,"deserialize":13356,"deterministic":13357,"Ġamb":13358,"means":13359,"hest":13360,"hemeral":13361,"Ġcadata":13362,"Ġcrl":13363,"Ġcwd":13364,"Ġcircle":13365,"Ġfall":13366,"Ġfreq":13367,"Ġfgd":13368,"Ġrecreate":13369,"Ġrepl":13370,"Ġrestore":13371,"Ġrenamed":13372,"Ġreplication":13373,"Ġretob":13374,"Ġreserved":13375,"Ġpr":13376,"Ġpriv":13377,"Ġpush":13378,"tele":13379,"urger":13380,"analysis":13381,"Ġ\"|":13382,"Ġ\"-----":13383,"itivity":13384,"Ġnl":13385,"gered":13386,"Ġinp":13387,"utdown":13388,"Ġbw":13389,"Ġbom":13390,"Ġborg":13391,"Ġboot":13392,"ingu":13393,"Ġsg":13394,"Ġsse":13395,"Ġsat":13396,"Ġsres":13397,"Ġspect":13398,"Ġsieve":13399,"mpsse":13400,"Ġeds":13401,"Ġevp":13402,"Ġ#################":13403,"Ġok":13404,"Ġ':":13405,"Ġ';":13406,"Ġ'..":13407,"Ġ':%":13408,"Ġ'::":13409,"Ġdrain":13410,"lified":13411,"advance":13412,"define":13413,"definition":13414,"Ġwsg":13415,"Ġwandb":13416,"Ġwwwa":13417,"Ġmis":13418,"Ġmiss":13419,"Ġmhash":13420,"Ġmouse":13421,"uname":13422,"unted":13423,"unary":13424,"unhexlify":13425,"Ġispartial":13426,"\"\")<$":13427,"\"\"))<$":13428,"\"\").":13429,"Ġ(<":13430,"Ġ(=":13431,"getlist":13432,"getFilePath":13433,"gettempdir":13434,"isclose":13435,"isnull":13436,"isnan":13437,"intenance":13438,"Ġtou":13439,"Ġtobytes":13440,"Ġtopology":13441,"Ġdefused":13442,"Ġansi":13443,"Ġanalysis":13444,"thous":13445,"through":13446,"ssError":13447,"lave":13448,"laps":13449,"setter":13450,"setTab":13451,"ĠTarget":13452,"ĠToml":13453,"ĠTYPE":13454,"Ġ\"\"\").":13455,"ĠnotChars":13456,"',),":13457,"odate":13458,"Ġhg":13459,"(\"[\"":13460,"(\"```":13461,"izard":13462,"Ġcontin":13463,"Ġconsume":13464,"edge":13465,"('#":13466,"('/')<$":13467,"('{:>":13468,"Redir":13469,"umb":13470,"uming":13471,"Ġ180":13472,"Ġexcluding":13473,"Ġldf":13474,"ErrorHandler":13475,"togg":13476,"allery":13477,"allenge":13478,"Ġ[-":13479,"clmul":13480,"ileHeader":13481,"ĠSa":13482,"ĠSite":13483,"ĠSTR":13484,"ĠSpell":13485,"Ġbehind":13486,"amRole":13487,"pathsep":13488,"imezone":13489,"Ġ00":13490,"ĠCRL":13491,"ĠCryptography":13492,"Ġ*\")<$":13493,"Ġ*[,":13494,"Ġoracle":13495,"textcreds":13496,"Ġuaop":13497,"ableString":13498,"ableCommand":13499,"Ġdeleted":13500,"Ġvr":13501,"Ġvary":13502,"Ġvdesc":13503,"ĠvocÃª":13504,"ĠAnal":13505,"ĠAcc":13506,"ĠALL":13507,"matic":13508,"matched":13509,"typed":13510,"typeinfo":13511,"Ġsticker":13512,"Ġcounted":13513,"Ġring":13514,"Ġradio":13515,"ĠrsaObj":13516,"maintainer":13517,"ĠFix":13518,"ĠFips":13519,"htm":13520,"props":13521,"processed":13522,"progid":13523,"proposal":13524,"provos":13525,"ĠPK":13526,"ĠPUR":13527,"ĠPaste":13528,"exist":13529,"experiment":13530,"usk":13531,"lyResult":13532,"ĠDEN":13533,"ĠDisplay":13534,"percent":13535,"ocb":13536,"Ġtem":13537,"appy":13538,"appdirs":13539,"Ġgd":13540,"preprocess":13541,"Ġprodu":13542,"Ġproposal":13543,"Ġeng":13544,"Ġencipher":13545,"Ġenclosing":13546,"libException":13547,"msOffice":13548,"icStrings":13549,"ĠLSM":13550,"ĠLifo":13551,"trimmed":13552,"ATA":13553,"ubs":13554,"pywin":13555,"pyparsing":13556,"Ġmag":13557,"Ġmagn":13558,"Ġgetproxies":13559,"Ġgetmtime":13560,"Ġgetlastmodified":13561,"Ġdiffer":13562,"Ġdivision":13563,"take":13564,"opclasses":13565,"ĠMin":13566,"ĠMore":13567,"licable":13568,"addUser":13569,"ffort":13570,"ĠOB":13571,"ĠOCSP":13572,"ĠVT":13573,"ĠView":13574,"scene":13575,"']='":13576,"mock":13577,"moize":13578,"moment":13579,"Ġchacha":13580,"Ġchallenge":13581,"Ġyes":13582,"Ġymax":13583,"ERS":13584,"Connect":13585,"InScope":13586,"ifar":13587,"ifact":13588,"validated":13589,"loading":13590,"FFileHeader":13591,"ĠEcc":13592,"ĠEMPTY":13593,"ĠEyeb":13594,"Ġprepa":13595,"ĠsetDebug":13596,"Ġ306":13597,"Ġ360":13598,"Ġlisted":13599,"coming":13600,"Ġunexpected":13601,"Ġunsort":13602,"Ġunencrypted":13603,"Ġunders":13604,"ĠUSER":13605,"readthe":13606,"Ġprintable":13607,"ĠWell":13608,"ĠWILL":13609,"Ġarcname":13610,"2055":13611,"```\")<$":13612,"ĠRev":13613,"ĠReset":13614,"ĠRestore":13615,"**\")<$":13616,"locn":13617,"locked":13618,"ĠtestExportKey":13619,"ĠThey":13620,"imate":13621,"KeySerialization":13622,"ĠBatch":13623,"ĠBIO":13624,"ĠBlake":13625,"ĠBlowfish":13626,"ĠBlue":13627,"DEG":13628,"DEK":13629,"DECRYPT":13630,"news":13631,"ĠHappy":13632,"pprint":13633,"='''<$":13634,"ĠNI":13635,"ĠNon":13636,"uthheaders":13637,"liter":13638,"ADATA":13639,"collation":13640,"answer":13641,"ĠGit":13642,"requestmethod":13643,"undant":13644,"ested":13645,"activation":13646,"EnIt":13647,"Encrypted":13648,"----<$":13649,"Ġnewlines":13650,"minutes":13651,"Ġattrib":13652,"uncs":13653,"://'":13654,"://')":13655,"://``,":13656,"acing":13657,"statements":13658,"scriptions":13659,"ENV":13660,"ENDEN":13661,"latent":13662,"Explo":13663,"ExcLoc":13664,"ĠInline":13665,"Ġjkl":13666,"TypeMap":13667,"TypeTo":13668,"Ġkpt":13669,"Ġresname":13670,"rainfuck":13671,"Ġ475":13672,"Ġ4231":13673,"Ġdistinction":13674,"Ġcompose":13675,"3211":13676,"3279":13677,"ALET":13678,"ĠRXE":13679,"ĠRamRole":13680,"writeable":13681,"responseEL":13682,"responsedescription":13683,"')\"":13684,"'):":13685,"Ġresponsedescription":13686,"Ġversionchanged":13687,"parseImpl":13688,"hasOnly":13689,"hasInts":13690,"oggle":13691,"ynchron":13692,"contextfilter":13693,"contextfunction":13694,"Properties":13695,"Ġhttpd":13696,"Ġhttpserver":13697,"Ġuserdata":13698,"ĠmaxExcLoc":13699,"Ġspecifiers":13700,"usenix":13701,"Ġapparently":13702,"168":13703,"1646":13704,"Ġships":13705,"ressor":13706,"().',<$":13707,"mainController":13708,"Standard":13709,"saarin":13710,"503":13711,"DataKey":13712,"Params":13713,"5649":13714,"epoll":13715,"ðŁį":13716,"ixel":13717,"Ġformatting":13718,"([(":13719,"([\\":13720,"([[[":13721,"opensea":13722,"ĠContinuousFlow":13723,"RequestServer":13724,"Def":13725,"Decoded":13726,"Delim":13727,"DeEnIt":13728,"Ġanyway":13729,"streams":13730,"pythonpaste":13731,"Ġlengths":13732,"modexp":13733,"localize":13734,"Ġmatcher":13735,"lpush":13736,"lpubs":13737,"Ġcommit":13738,"3040":13739,"Ġpyftdi":13740,"Ġpyautogui":13741,"ĠExport":13742,"ĠExpatParser":13743,"ĠReturning":13744,"GetSet":13745,"GetClass":13746,"GetDoc":13747,"subclasses":13748,"subtrees":13749,"Ġ77":13750,"docstring":13751,"TestPyVariant":13752,"Ġ{}://":13753,"lowercase":13754,"Ġopened":13755,"pikp":13756,"Ġlibusb":13757,"Ġ103":13758,"64204":13759,"64206":13760,"signals":13761,"Ġperf":13762,"ĠserverAddress":13763,"needs":13764,"neji":13765,"Ġframes":13766,"ResponseType":13767,"ResponseList":13768,"SEMI":13769,"noop":13770,"nologo":13771,"118":13772,"Series":13773,"Serving":13774,"groupBox":13775,"Seu":13776,"DISA":13777,"Ġ'''),<$":13778,"Ġmakepy":13779,"LIKE":13780,"ciphermod":13781,"Ġintercepted":13782,"decoded":13783,"Ġmodfunc":13784,"tableName":13785,"ĠlockList":13786,"ĠlockRes":13787,"hashable":13788,"UNIC":13789,"Ġwrapstring":13790,"NotIn":13791,"NotOpen":13792,"processors":13793,"9814":13794,"ELFFileHeader":13795,"229":13796,"ReturnType":13797,"Ġcaches":13798,"Ġmount":13799,"Ġmoves":13800,"saveAs":13801,"vertise":13802,"ferencing":13803,"Ġoverwritten":13804,"SetOf":13805,"offline":13806,"offStrategy":13807,"Ġerrcond":13808,"returnString":13809,"Ġmulticall":13810,"179":13811,"037":13812,"965":13813,"966":13814,"Ġgeneration":13815,"Ġgeneric":13816,"ĠminMax":13817,"Ġdisabling":13818,"atives":13819,"icks":13820,"(_(\"":13821,"Ġderivation":13822,"ĠderInt":13823,"Regressor":13824,"editables":13825,"evaluation":13826,"TimeInterp":13827,"Ġparents":13828,"Ġparentpath":13829,"1888":13830,"structured":13831,"5733":13832,"57374":13833,"ĠDelete":13834,"...\"<$":13835,"Ġsomepath":13836,"Ġadvertise":13837,"ApplyResult":13838,"markers":13839,"markdown":13840,"Ġselectors":13841,"tenEdit":13842,"Ġsyscall":13843,"ĠTestApplyResult":13844,"winxp":13845,"14395":13846,"ĠSHAKE":13847,"ASY":13848,"PathName":13849,"1516":13850,"parentheses":13851,"removed":13852,"ConnectionPoint":13853,"TokenStream":13854,"ï¼Ľ":13855,"sycopg":13856,"ToString":13857,"ToPosition":13858,"ToOne":13859,"ToMany":13860,"ToColumns":13861,"ToTypeMap":13862,"ĠtableName":13863,"GIS":13864,"Mem":13865,"caseTokens":13866,"Ġhandles":13867,"verything":13868,"Ġprobable":13869,"ĠProfile":13870,"çļĦå¼Ĥå¸¸":13871,"ArnCredential":13872,"There":13873,"initialVelocity":13874,"sdjjf":13875,"ĠCopy":13876,"ĠSetup":13877,"ĠSettings":13878,"fference":13879,"zipped":13880,"Ġshows":13881,"344":13882,"34939":13883,"stddev":13884,"connector":13885,"Ġ\"\\\\":13886,"ServerTestCase":13887,"(*(":13888,"ĠAnnot":13889,"({!":13890,"GroupTuple":13891,"safestring":13892,"ĠDerive":13893,"ĠDerSetOf":13894,"ĠDistlibException":13895,"Ġtau":13896,"Ġ...)`<$":13897,"shaalg":13898,"ĠĠĠĠĠĠĠĠĠĠĠĠĠĠĠĠĠĠĠĠĠĠĠĠĠĠĠĠĠĠĠĠĠĠĠĠĠĠĠĠĠĠĠĠĠĠĠĠĠĠĠĠĠĠĠĠ":13899,"ipedia":13900,"åĪĻ":13901,"Ġ\"./":13902,"plotlib":13903,"ĠìĿ":13904,"ĠìĪĺ":13905,"Ġexecuting":13906,"ĠprivateKey":13907,"Quoted":13908,"Quota":13909,"------------------------":13910,"PIDL":13911,"Versions":13912,"aug":13913,"Ġrendered":13914,"KEYS":13915,"Ġkept":13916,"ParseException":13917,"Adding":13918,"Ġreflect":13919,"ĠobUserName":13920,"Ġlowkey":13921,"Ġdomains":13922,"authority":13923,"COMPOSITE":13924,"crcType":13925,"srcUrl":13926,"ĠRequestServer":13927,"ĠnamespaceHandl":13928,"BackoffStrategy":13929,"activelock":13930,"PySo":13931,"calibration":13932,"Ġrandomly":13933,"CreateInstance":13934,"pairs":13935,"ĠParseExpression":13936,"Outer":13937,"AddField":13938,"TensorShape":13939,"xmlrpc":13940,"è¯į":13941,"Ġdisplayed":13942,"sphinx":13943,"ĠsrcUrl":13944,"Ġinstantiation":13945,"Ġgoogle":13946,"GRU":13947,"NIR":13948,"Preserve":13949,"PreCode":13950,"elementInScope":13951,"ValidationError":13952,"ExtMap":13953,"ExtToTypeMap":13954,"cards":13955,"ĠNamespace":13956,"OpenKey":13957,"ĠEncoding":13958,"ðŁĮķ\\":13959,"ĠAlter":13960,"searchString":13961,"ĠDAVResource":13962,"5903":13963,"Ġpeek":13964,"ĠPrepare":13965,"CertificateRevocationList":13966,"CertificateSigningRequest":13967,"åĲ¦":13968,"webdav":13969,"ModuleFor":13970,"ĠSSLContext":13971,"IGH":13972,"udge":13973,"ĠâĢĶ":13974,"}.)<$":13975,"TemplateNotFound":13976,"ĠreverseChild":13977,"ĠCFB":13978,"ĠPOSIX":13979,"Ġkeeps":13980,"Ġsocktype":13981,"æľ¬":13982,"20426":13983,"Ġimages":13984,"ĠDistributionPoint":13985,"DOT":13986,"SERI":13987,"secno":13988,"chats":13989,"Ġpropvalue":13990,"ĠpropResponseList":13991,":]),<$":13992,":]],":13993,"AttenEdit":13994,"CaseInsensitiveDict":13995,"Generic":13996,"PRECONDITION":13997,"ĠImplicit":13998,"patience":13999,"FeatureType":14000,"âĶĪâĶĪâĶĪâĶĪ":14001,"_(\"\"\"":14002,"CLSCTX":14003,"DomainController":14004,"Ġrecords":14005,"downcaseTokens":14006,"attn":14007,"Ġoperational":14008,"ĠSmall":14009,"exitRule":14010,"Ġtrusted":14011,"hrefs":14012,"Introspection":14013,"expires":14014,"PLUS":14015,"ĠValues":14016,"Ġchannels":14017,"ĠWebDAV":14018,"ĠHypermodel":14019,"BandAttenEdit":14020,"Permission":14021,"Percentage":14022,"Ġpopulate":14023,"Ġvocabulary":14024,"ĠFields":14025,"-----\"<$":14026,"Ġ]),<$":14027,"ðŁĮķðŁĮķ\\":14028,"NFK":14029,"åħ³":14030,"åħ¸":14031,"æł·":14032,"requiring":14033,"Ġcapacity":14034,"CHARSET":14035,"ĠErrorPrinter":14036,"reciter":14037,"=\"\")<$":14038,"canonical":14039,"fcb":14040,"20616":14041,"ignedInt":14042,"Ġfreeze":14043,"ĠThus":14044,"Ġpkgutil":14045,"ĠSystemExit":14046,"README":14047,"ExecError":14048,"Calls":14049,"Callback":14050,"FromGeom":14051,"lexible":14052,"isticPose":14053,"probable":14054,"STARTED":14055,"CacheDict":14056,"Alias":14057,"ringe":14058,"SelectParameters":14059,"ä¸ªåŃĹèĬ":14060,"ĠCompute":14061,"xlt":14062,"Ġexporting":14063,"forwards":14064,"Ġplaceholder":14065,"BOSE":14066,"FlowRate":14067,"standards":14068,"Ġbandwidth":14069,"EntityDeclHandler":14070,"CREATE":14071,"Graphics":14072,"Retryable":14073,"shorter":14074,"æĸĩä»¶åĲį":14075,"ByRef":14076,"Ġhypothesis":14077,"POLLIN":14078,"POLLOUT":14079,"Ġflatpages":14080,"Ġsimplify":14081,"ĠAssertionError":14082,"davProvider":14083,"Ġrouters":14084,"Ġroutine":14085,"LINECOMMENT":14086,"(\"\".":14087,"(\"\")<$":14088,"67204":14089,"ĠQuerySet":14090,"Ġmatplotlib":14091,"ĠTokenType":14092,"Ġterminated":14093,"Ġterminating":14094,"BADPARAM":14095,"Ġwebsite":14096,"å¯¹åºĶ":14097,"AssertionError":14098,"Sampling":14099,"commitment":14100,"DeltaData":14101,"Ġhardware":14102,"Ġhypermodel":14103,"Ġbuttons":14104,"54657374":14105,"SigVer":14106,"TomlPreserve":14107,"microsecond":14108,"Ġdidn":14109,"octets":14110,"0000000000000000":14111,"åĪĨçīĩ":14112,"NewEnum":14113,"PlotPath":14114,"Weak":14115,"éĢī":14116,"ĠserveFiles":14117,"delimitedList":14118,"Ġbroadcast":14119,"Ġ'*'":14120,"ĠSigner":14121,"ĠDocumentation":14122,"ĠMacStatus":14123,"METAFILE":14124,"Ġifmatchlist":14125,"ĠAuthorized":14126,"Ġactivations":14127,"Ġaccident":14128,"Redirects":14129,"Redirecting":14130,"ĠFilterArgumentError":14131,"SUBCLASS":14132,"SUBSCR":14133,"Ġconsidering":14134,"LocationResult":14135,"ä½ľ":14136,"Ġ27017":14137,"âĸĶâķ²":14138,"IMU":14139,"nistpubs":14140,"Ġpenalties":14141,"\\.?)":14142,"ìĬ¤":14143,"reportError":14144,"DEPENDEN":14145,"UndefinedError":14146,"Ġwriteresultlist":14147,"rsaKeyDER":14148,"0203040":14149,"0205733":14150,"ĠIterator":14151,"Ġpeercreds":14152,"PrintableString":14153,"Rotation":14154,"mongod":14155,"Ġprincipal":14156,"Ġbecomes":14157,"Engineering":14158,"NEWLINE":14159,"NEWENUM":14160,"+\"-":14161,"DLL":14162,"Ġtunes":14163,"ĠCOMException":14164,"ĠPassing":14165,"postgresql":14166,"Ġê°Ģ":14167,"åĬłå¯Ĩ":14168,"MultipleMatch":14169,"Sentence":14170,"[^\\":14171,"guild":14172,"amburger":14173,"tripTest":14174,"ĠWARRAN":14175,"CharacteristicPose":14176,"Ġprimality":14177,"gradients":14178,"overrides":14179,"analysers":14180,"Phone":14181,"fmmod":14182,"ĠLinear":14183,"Ġassumes":14184,"ĠGeometryField":14185,"corsheaders":14186,"Ġfriendly":14187,"assertNotRegex":14188,"77811":14189,"EvalContextModifier":14190,"CHANGE":14191,"GaussianNoise":14192,"ZeroOrMore":14193,"lkkjj":14194,"lksdjjf":14195,"slices":14196,"Ġefficientnet":14197,"ĠmsOffice":14198,"ĠPortNotOpen":14199,"ĠEvalContext":14200,"organization":14201,"organizations":14202,"æľĢåĲİ":14203,"Ġrelationsh":14204,">}.<$":14205,"EPOLLIN":14206,"EPOLLOUT":14207,"Related":14208,"exercise":14209,"Ġmeasures":14210,"ĠInterface":14211,"506070":14212,"ĠpointRx":14213,"ĠpointRy":14214,"ĠwsgiApplications":14215,"CHECKING":14216,"LocalConfigRegionalEndpointResolver":14217,"Space":14218,"UnsignedInt":14219,"Ġpaytext":14220,"Ġmutated":14221,"ĠVisual":14222,"combination":14223,"Ġ?(.*)\",":14224,"WINDOWS":14225,"Associated":14226,"AUTOMAT":14227,"revertClass":14228,"Ġrepeat":14229,"Ġsatisfied":14230,"deferrable":14231,"(\":/":14232,"Ġaddtoretval":14233,"lpfstop":14234,"ĠParserElement":14235,"Ġsafely":14236,"Ġ--------<$":14237,"LastModified":14238,"VirtualResource":14239,"æŁ¥":14240,"ê²©":14241,"throttled":14242,"Ġhdrs":14243,"ĠCygwin":14244,"UNKNOWN":14245,"PerformNIRCorrection":14246,"AccumNames":14247,"CANVAS":14248,"GzipFile":14249,"HYPER":14250,"Maintenance":14251,"É¢á´ĩ":14252,"æĬĽåĩº":14253,"Ġretrieving":14254,"ĠTooMany":14255,"confirmation":14256,"Required":14257,"ReplaceKey":14258,"ĠObserv":14259,"Converters":14260,"ĠGetBuildForGateway":14261,"CaselessLiteral":14262,"Ġactivelocklist":14263,"permutations":14264,"2074686":14265,"Ġinheritance":14266,"Available":14267,"Cancelled":14268,"onentialBackoffStrategy":14269,"aloader":14270,"Ġhotfixes":14271,"ĠSUCCESS":14272,"COOKIE":14273,"carriers":14274,"ĠEndpointResolver":14275,"OBJ":14276,"Primality":14277,"Ġfrequencies":14278,"Ġconsuming":14279,"Ġ::=":14280,"Ġsearched":14281,"ĠLRUCacheDict":14282,"STREAM":14283,"ĠNormalize":14284,"epsilon":14285,"Ġacceleration":14286,"ĠCommonRequest":14287,"æİ¥åıĹ":14288,"GetBucketReplicationResult":14289,"Ġintrinsic":14290,"Ġtechnically":14291,"EfficientNetB":14292,"nrz":14293,"nvlpubs":14294,"socsecno":14295,"é¡µ":14296,"éĽĨ":14297,"Ġfeat":14298,"spiciousOperation":14299,"ĠCLSID":14300,"ĠRedundant":14301,"ĠRoundtripTest":14302,"ðŁ§¿":14303,"OFTWARE":14304,"ALGORITHM":14305,"ĠRecognitionException":14306,"FALSE":14307,"GuessMe":14308,"Lambda":14309,"NlRo":14310,"PADDING":14311,"dkls":14312,"kTLSProtocol":14313,"lsdkjf":14314,"ljsdf":14315,"pGetAnc":14316,"sá´ĢÉ¢á´ĩ":14317,"¬æį¢ä¸º":14318,"èĮĥåĽ":14319,"éħį":14320,"Ġuef":14321,"Ńç»ĥ":14322,"Ġtrouble":14323,"Ġidea":14324,"aliyuncs":14325,"Ġedsnlp":14326,"advanced":14327,"Ġwsgidav":14328,
[...]
